{
    "n_iter": 200,
    "n_shuffle": 2,
    "burn_in": 100,
    "thinning": 10,
    "most_likely_order": {
        "HIP-FCI": 1,
        "PCC-FCI": 2,
        "AB": 3,
        "HIP-GMI": 4,
        "P-Tau": 5,
        "FUS-FCI": 6,
        "MMSE": 7,
        "ADAS": 8,
        "AVLT-Sum": 9,
        "FUS-GMI": 10
    },
    "kendalls_tau": 0.6888888888888888,
    "p_value": 0.00468694885361552,
    "original_order": {
        "HIP-FCI": 1,
        "PCC-FCI": 2,
        "AB": 3,
        "P-Tau": 4,
        "MMSE": 5,
        "ADAS": 6,
        "HIP-GMI": 7,
        "AVLT-Sum": 8,
        "FUS-GMI": 9,
        "FUS-FCI": 10
    },
    "order_with_higest_ll": {
        "HIP-FCI": 1,
        "PCC-FCI": 2,
        "AB": 3,
        "HIP-GMI": 4,
        "P-Tau": 5,
        "FUS-FCI": 6,
        "MMSE": 7,
        "ADAS": 8,
        "AVLT-Sum": 9,
        "FUS-GMI": 10
    },
    "kendalls_tau2": 0.6888888888888888,
    "p_value2": 0.00468694885361552,
    "final_theta_phi_params": {
        "AB": {
            "theta_kde": {
                "data": "k05VTVBZAQB2AHsnZGVzY3InOiAnPGY4JywgJ2ZvcnRyYW5fb3JkZXInOiBGYWxzZSwgJ3NoYXBlJzogKDEyMCwpLCB9ICAgICAgICAgICAgICAgICAgICAgICAgICAgICAgICAgICAgICAgICAgICAgICAgICAgICAgICAgIAqwKU5cfOBfQC766cW70WlA7vjXo3GCYEDmGXNsV3dgQFniqjiv72BAzhPMJF3EZ0B5ecp/OMpnQKSYQT+yTGdAsuq3gBtxYEDQx3VY/lJoQM7FjFCEJ2VAp+pD26BDVUBzig/Ps3lbQLJUYYozL2dAKuecYf1YaECuS61omHdlQI44D6xqFGRA/hIL3WYpZ0ABC4YMyWVZQI+dwKB5OGBAp/6Qe15QXEAs1YDAoVNnQBzp8asj72hAUoMEbpo9YUBlyi890KFnQKdj2Vi3bWhAboGzUCnMZEAP4rXm+9RmQH24tVEdnlVA6GzEPvuqZ0DElhOX1edlQGK71TmXa2RAMslWOue8aEDjeoB+KM9nQD1mroAcGGlAVPavftjQXECAKJTx6E5oQPjk2RtLP2NAarE7kCoUZkCOxDRUa1FSQJFjhrbMzFpAPoumshJaYkCGUKMCzIJEQKFL6mnKb2hAvr2IxuOyYkDXQPqVUGheQKOGv75Hv2hA8gPiztNoZUBuQS2vv3JkQOBC1Rc7TmVAtazsjaMLaEDUo/VtFKxmQLdZnzpx5mRATU4vrWsrZEBpdVUMzSNqQA4ZoQOixmNAiOx18vl4ZkBzrAJHFzpZQLiigj9Lp2hA1/OzJbD5ZkBux6EHKmNlQLSgElgdZmdAOEeQfkmTZ0AEPtUrSYlkQEa3Gw5iR2NA6+mQIF/daUAB6E/QRgpTQAk0dmTVhFtAETUxQTyUXkA77MvJvJdnQK0REoiAYGJAtsvDehR9ZUBNo8ISMapjQJ8lhB3AiF5AMjukYm9MZUAsgp8uc/NmQCgps+6c/VVAoPu7qBkvZ0DeUXfu6U9hQCDqsoUxfGRAmi8Vl7shaECpVl9sfEZoQIGJPCSkwlNAbNAPkFMwZECCE8QXFkBnQPfgwz6aQmlAVL2/zUUGY0C3o0r37gliQNjdQJRppmlAJLJ9wZlzYkCb/xZsNLBmQJGyjVrT22JA67goiw1DX0AIwvlL3AlpQNKRKPmiB2FAI41m4DsBZ0CK4mu9N31lQDtmkTJRBmJAbHS8/RJcZUB8RdhLBOpkQHilYnU8PmhAPWJH+/3RaUDvGlz0BrRaQNKynn4rk2FAbKZNsfKFY0Dv3QlzQ7JmQJNCnqdlDV9Ac9DAuGr1aUBW3599LOtkQIgyQ3PyDmBACOcU0lymYEDAUMrMnRldQKaEAZj0uWhA5cpvxlOcaEBwmHXywyRjQJWmi/oSc2NArv8zIqfoZ0AzLnh26ehnQCjT/CDs1WZAZtKVD7axXkA=",
                "weights": "k05VTVBZAQB2AHsnZGVzY3InOiAnPGY4JywgJ2ZvcnRyYW5fb3JkZXInOiBGYWxzZSwgJ3NoYXBlJzogKDEyMCwpLCB9ICAgICAgICAgICAgICAgICAgICAgICAgICAgICAgICAgICAgICAgICAgICAgICAgICAgICAgICAgIAoRERERERGBPxEREREREYE/ERERERERgT8RERERERGBPxEREREREYE/ERERERERgT8RERERERGBPxEREREREYE/ERERERERgT8RERERERGBPxEREREREYE/ERERERERgT8RERERERGBPxEREREREYE/ERERERERgT8RERERERGBPxEREREREYE/ERERERERgT8RERERERGBPxEREREREYE/ERERERERgT8RERERERGBPxEREREREYE/ERERERERgT8RERERERGBPxEREREREYE/ERERERERgT8RERERERGBPxEREREREYE/ERERERERgT8RERERERGBPxEREREREYE/ERERERERgT8RERERERGBPxEREREREYE/ERERERERgT8RERERERGBPxEREREREYE/ERERERERgT8RERERERGBPxEREREREYE/ERERERERgT8RERERERGBPxEREREREYE/ERERERERgT8RERERERGBPxEREREREYE/ERERERERgT8RERERERGBPxEREREREYE/ERERERERgT8RERERERGBPxEREREREYE/ERERERERgT8RERERERGBPxEREREREYE/ERERERERgT8RERERERGBPxEREREREYE/ERERERERgT8RERERERGBPxEREREREYE/ERERERERgT8RERERERGBPxEREREREYE/ERERERERgT8RERERERGBPxEREREREYE/ERERERERgT8RERERERGBPxEREREREYE/ERERERERgT8RERERERGBPxEREREREYE/ERERERERgT8RERERERGBPxEREREREYE/ERERERERgT8RERERERGBPxEREREREYE/ERERERERgT8RERERERGBPxEREREREYE/ERERERERgT8RERERERGBPxEREREREYE/ERERERERgT8RERERERGBPxEREREREYE/ERERERERgT8RERERERGBPxEREREREYE/ERERERERgT8RERERERGBPxEREREREYE/ERERERERgT8RERERERGBPxEREREREYE/ERERERERgT8RERERERGBPxEREREREYE/ERERERERgT8RERERERGBPxEREREREYE/ERERERERgT8RERERERGBPxEREREREYE/ERERERERgT8RERERERGBPxEREREREYE/ERERERERgT8RERERERGBPxEREREREYE/ERERERERgT8RERERERGBPxEREREREYE/ERERERERgT8RERERERGBPxEREREREYE/ERERERERgT8=",
                "bandwidth": 14.371920003307965
            },
            "theta_weights": "k05VTVBZAQB2AHsnZGVzY3InOiAnPGY4JywgJ2ZvcnRyYW5fb3JkZXInOiBGYWxzZSwgJ3NoYXBlJzogKDIwMCwpLCB9ICAgICAgICAgICAgICAgICAgICAgICAgICAgICAgICAgICAgICAgICAgICAgICAgICAgICAgICAgIAp7FK5H4Xp0P3sUrkfhenQ/exSuR+F6dD97FK5H4Xp0P3sUrkfhenQ/exSuR+F6dD97FK5H4Xp0P3sUrkfhenQ/exSuR+F6dD97FK5H4Xp0P3sUrkfhenQ/exSuR+F6dD97FK5H4Xp0P3sUrkfhenQ/exSuR+F6dD97FK5H4Xp0P3sUrkfhenQ/exSuR+F6dD97FK5H4Xp0P3sUrkfhenQ/exSuR+F6dD97FK5H4Xp0P3sUrkfhenQ/exSuR+F6dD97FK5H4Xp0P3sUrkfhenQ/exSuR+F6dD97FK5H4Xp0P3sUrkfhenQ/exSuR+F6dD97FK5H4Xp0P3sUrkfhenQ/exSuR+F6dD97FK5H4Xp0P3sUrkfhenQ/exSuR+F6dD97FK5H4Xp0P3sUrkfhenQ/exSuR+F6dD97FK5H4Xp0P3sUrkfhenQ/exSuR+F6dD97FK5H4Xp0P3sUrkfhenQ/exSuR+F6dD97FK5H4Xp0P3sUrkfhenQ/exSuR+F6dD97FK5H4Xp0P3sUrkfhenQ/exSuR+F6dD97FK5H4Xp0P3sUrkfhenQ/exSuR+F6dD97FK5H4Xp0P3sUrkfhenQ/exSuR+F6dD97FK5H4Xp0P3sUrkfhenQ/exSuR+F6dD97FK5H4Xp0P3sUrkfhenQ/exSuR+F6dD97FK5H4Xp0P3sUrkfhenQ/exSuR+F6dD97FK5H4Xp0P3sUrkfhenQ/exSuR+F6dD97FK5H4Xp0P3sUrkfhenQ/exSuR+F6dD97FK5H4Xp0P3sUrkfhenQ/exSuR+F6dD97FK5H4Xp0P3sUrkfhenQ/exSuR+F6dD97FK5H4Xp0P3sUrkfhenQ/exSuR+F6dD97FK5H4Xp0P3sUrkfhenQ/exSuR+F6dD97FK5H4Xp0P3sUrkfhenQ/exSuR+F6dD97FK5H4Xp0P3sUrkfhenQ/exSuR+F6dD97FK5H4Xp0P3sUrkfhenQ/exSuR+F6dD97FK5H4Xp0P3sUrkfhenQ/exSuR+F6dD97FK5H4Xp0P3sUrkfhenQ/exSuR+F6dD97FK5H4Xp0P3sUrkfhenQ/exSuR+F6dD97FK5H4Xp0P3sUrkfhenQ/exSuR+F6dD97FK5H4Xp0P3sUrkfhenQ/exSuR+F6dD97FK5H4Xp0P3sUrkfhenQ/exSuR+F6dD97FK5H4Xp0P3sUrkfhenQ/exSuR+F6dD97FK5H4Xp0P3sUrkfhenQ/exSuR+F6dD97FK5H4Xp0P3sUrkfhenQ/exSuR+F6dD97FK5H4Xp0P3sUrkfhenQ/exSuR+F6dD97FK5H4Xp0P3sUrkfhenQ/exSuR+F6dD97FK5H4Xp0P3sUrkfhenQ/exSuR+F6dD97FK5H4Xp0P3sUrkfhenQ/exSuR+F6dD97FK5H4Xp0P3sUrkfhenQ/exSuR+F6dD97FK5H4Xp0P3sUrkfhenQ/exSuR+F6dD97FK5H4Xp0P3sUrkfhenQ/exSuR+F6dD97FK5H4Xp0P3sUrkfhenQ/exSuR+F6dD97FK5H4Xp0P3sUrkfhenQ/exSuR+F6dD97FK5H4Xp0P3sUrkfhenQ/exSuR+F6dD97FK5H4Xp0P3sUrkfhenQ/exSuR+F6dD97FK5H4Xp0P3sUrkfhenQ/exSuR+F6dD97FK5H4Xp0P3sUrkfhenQ/exSuR+F6dD97FK5H4Xp0P3sUrkfhenQ/exSuR+F6dD97FK5H4Xp0P3sUrkfhenQ/exSuR+F6dD97FK5H4Xp0P3sUrkfhenQ/exSuR+F6dD97FK5H4Xp0P3sUrkfhenQ/exSuR+F6dD97FK5H4Xp0P3sUrkfhenQ/exSuR+F6dD97FK5H4Xp0P3sUrkfhenQ/exSuR+F6dD97FK5H4Xp0P3sUrkfhenQ/exSuR+F6dD97FK5H4Xp0P3sUrkfhenQ/exSuR+F6dD97FK5H4Xp0P3sUrkfhenQ/exSuR+F6dD97FK5H4Xp0P3sUrkfhenQ/exSuR+F6dD97FK5H4Xp0P3sUrkfhenQ/exSuR+F6dD97FK5H4Xp0P3sUrkfhenQ/exSuR+F6dD97FK5H4Xp0P3sUrkfhenQ/exSuR+F6dD97FK5H4Xp0P3sUrkfhenQ/",
            "phi_kde": {
                "data": "k05VTVBZAQB2AHsnZGVzY3InOiAnPGY4JywgJ2ZvcnRyYW5fb3JkZXInOiBGYWxzZSwgJ3NoYXBlJzogKDgwLCksIH0gICAgICAgICAgICAgICAgICAgICAgICAgICAgICAgICAgICAgICAgICAgICAgICAgICAgICAgICAgIArYHI5K7HpyQN6APpVDo2pArTckzVjFdECQcHPhx+tqQH05mJvhc3NAWgM4gweMckCF9hF/DepzQHxPoHAvsmpANPssAy7CdkCiEoVvF7htQHiaApt2v29ATymcdIxdcED0KUChBWtwQCw1do40A2tA2GHv35cnbkAYcFnN70RyQDD5OTQHeXBAykkRbt1YckD9Gj+vQ45wQNJXg0JXTm9Ak7Os1dLrakAgq8U3ukNwQNrzkGVju2xA6mIOMf78ckCLmMKxMnpxQG5tRpnd2G1ApCEeZSeqbEBAfaumZUFtQOynLbJ4I3BANEGOILBtckC/us50RRRxQOeZvpBMv2xANy3VKvgeb0AAu/9efHttQKC7jPYUdG9AZAGL4n+NckBnayzO4XtvQDOthrCUA3JAsf5SBKdvcEAQrur5GGZvQGVvAos5YHBAj/cg+d0/bkCcMHTjucFuQI6HzcKAEXFAJnrYbn8EbEA754nC7TtvQG4JBlx0LGtAQMb28wyUbEAyRaMU9D5yQMSoKauXY3VAzIJV4E3vb0D1KtFP8HBqQHqDRczPJW9AGUK6uxkNcED+y9ym6qxxQHcJZRYAYWxAdzekPtF2b0BJI//jrptxQCSRcOIm+XVAwoTiPKqea0Ck69KwXjFvQIhIKMgQgnFAskyUb5RvbEBetvi2lhNwQDjz26H1e3BA3bEli5EubUCQtmUGdG9rQCzt4wvMcGpAP4mIOPN2bkDewYAXl/1vQNkSpur2DW5AYubrpV4tbUAELG+MQ2luQDRXaCfIPnBAaxkihNBOa0B26eFvDyRyQPoqZ0t913JA9YGhWat5bEAvQ18PxghvQNTfDCUTFXFA",
                "weights": "k05VTVBZAQB2AHsnZGVzY3InOiAnPGY4JywgJ2ZvcnRyYW5fb3JkZXInOiBGYWxzZSwgJ3NoYXBlJzogKDgwLCksIH0gICAgICAgICAgICAgICAgICAgICAgICAgICAgICAgICAgICAgICAgICAgICAgICAgICAgICAgICAgIAqamZmZmZmJP5qZmZmZmYk/mpmZmZmZiT+amZmZmZmJP5qZmZmZmYk/mpmZmZmZiT+amZmZmZmJP5qZmZmZmYk/mpmZmZmZiT+amZmZmZmJP5qZmZmZmYk/mpmZmZmZiT+amZmZmZmJP5qZmZmZmYk/mpmZmZmZiT+amZmZmZmJP5qZmZmZmYk/mpmZmZmZiT+amZmZmZmJP5qZmZmZmYk/mpmZmZmZiT+amZmZmZmJP5qZmZmZmYk/mpmZmZmZiT+amZmZmZmJP5qZmZmZmYk/mpmZmZmZiT+amZmZmZmJP5qZmZmZmYk/mpmZmZmZiT+amZmZmZmJP5qZmZmZmYk/mpmZmZmZiT+amZmZmZmJP5qZmZmZmYk/mpmZmZmZiT+amZmZmZmJP5qZmZmZmYk/mpmZmZmZiT+amZmZmZmJP5qZmZmZmYk/mpmZmZmZiT+amZmZmZmJP5qZmZmZmYk/mpmZmZmZiT+amZmZmZmJP5qZmZmZmYk/mpmZmZmZiT+amZmZmZmJP5qZmZmZmYk/mpmZmZmZiT+amZmZmZmJP5qZmZmZmYk/mpmZmZmZiT+amZmZmZmJP5qZmZmZmYk/mpmZmZmZiT+amZmZmZmJP5qZmZmZmYk/mpmZmZmZiT+amZmZmZmJP5qZmZmZmYk/mpmZmZmZiT+amZmZmZmJP5qZmZmZmYk/mpmZmZmZiT+amZmZmZmJP5qZmZmZmYk/mpmZmZmZiT+amZmZmZmJP5qZmZmZmYk/mpmZmZmZiT+amZmZmZmJP5qZmZmZmYk/mpmZmZmZiT+amZmZmZmJP5qZmZmZmYk/mpmZmZmZiT+amZmZmZmJP5qZmZmZmYk/",
                "bandwidth": 14.7534163749613
            },
            "phi_weights": "k05VTVBZAQB2AHsnZGVzY3InOiAnPGY4JywgJ2ZvcnRyYW5fb3JkZXInOiBGYWxzZSwgJ3NoYXBlJzogKDIwMCwpLCB9ICAgICAgICAgICAgICAgICAgICAgICAgICAgICAgICAgICAgICAgICAgICAgICAgICAgICAgICAgIAp7FK5H4Xp0P3sUrkfhenQ/exSuR+F6dD97FK5H4Xp0P3sUrkfhenQ/exSuR+F6dD97FK5H4Xp0P3sUrkfhenQ/exSuR+F6dD97FK5H4Xp0P3sUrkfhenQ/exSuR+F6dD97FK5H4Xp0P3sUrkfhenQ/exSuR+F6dD97FK5H4Xp0P3sUrkfhenQ/exSuR+F6dD97FK5H4Xp0P3sUrkfhenQ/exSuR+F6dD97FK5H4Xp0P3sUrkfhenQ/exSuR+F6dD97FK5H4Xp0P3sUrkfhenQ/exSuR+F6dD97FK5H4Xp0P3sUrkfhenQ/exSuR+F6dD97FK5H4Xp0P3sUrkfhenQ/exSuR+F6dD97FK5H4Xp0P3sUrkfhenQ/exSuR+F6dD97FK5H4Xp0P3sUrkfhenQ/exSuR+F6dD97FK5H4Xp0P3sUrkfhenQ/exSuR+F6dD97FK5H4Xp0P3sUrkfhenQ/exSuR+F6dD97FK5H4Xp0P3sUrkfhenQ/exSuR+F6dD97FK5H4Xp0P3sUrkfhenQ/exSuR+F6dD97FK5H4Xp0P3sUrkfhenQ/exSuR+F6dD97FK5H4Xp0P3sUrkfhenQ/exSuR+F6dD97FK5H4Xp0P3sUrkfhenQ/exSuR+F6dD97FK5H4Xp0P3sUrkfhenQ/exSuR+F6dD97FK5H4Xp0P3sUrkfhenQ/exSuR+F6dD97FK5H4Xp0P3sUrkfhenQ/exSuR+F6dD97FK5H4Xp0P3sUrkfhenQ/exSuR+F6dD97FK5H4Xp0P3sUrkfhenQ/exSuR+F6dD97FK5H4Xp0P3sUrkfhenQ/exSuR+F6dD97FK5H4Xp0P3sUrkfhenQ/exSuR+F6dD97FK5H4Xp0P3sUrkfhenQ/exSuR+F6dD97FK5H4Xp0P3sUrkfhenQ/exSuR+F6dD97FK5H4Xp0P3sUrkfhenQ/exSuR+F6dD97FK5H4Xp0P3sUrkfhenQ/exSuR+F6dD97FK5H4Xp0P3sUrkfhenQ/exSuR+F6dD97FK5H4Xp0P3sUrkfhenQ/exSuR+F6dD97FK5H4Xp0P3sUrkfhenQ/exSuR+F6dD97FK5H4Xp0P3sUrkfhenQ/exSuR+F6dD97FK5H4Xp0P3sUrkfhenQ/exSuR+F6dD97FK5H4Xp0P3sUrkfhenQ/exSuR+F6dD97FK5H4Xp0P3sUrkfhenQ/exSuR+F6dD97FK5H4Xp0P3sUrkfhenQ/exSuR+F6dD97FK5H4Xp0P3sUrkfhenQ/exSuR+F6dD97FK5H4Xp0P3sUrkfhenQ/exSuR+F6dD97FK5H4Xp0P3sUrkfhenQ/exSuR+F6dD97FK5H4Xp0P3sUrkfhenQ/exSuR+F6dD97FK5H4Xp0P3sUrkfhenQ/exSuR+F6dD97FK5H4Xp0P3sUrkfhenQ/exSuR+F6dD97FK5H4Xp0P3sUrkfhenQ/exSuR+F6dD97FK5H4Xp0P3sUrkfhenQ/exSuR+F6dD97FK5H4Xp0P3sUrkfhenQ/exSuR+F6dD97FK5H4Xp0P3sUrkfhenQ/exSuR+F6dD97FK5H4Xp0P3sUrkfhenQ/exSuR+F6dD97FK5H4Xp0P3sUrkfhenQ/exSuR+F6dD97FK5H4Xp0P3sUrkfhenQ/exSuR+F6dD97FK5H4Xp0P3sUrkfhenQ/exSuR+F6dD97FK5H4Xp0P3sUrkfhenQ/exSuR+F6dD97FK5H4Xp0P3sUrkfhenQ/exSuR+F6dD97FK5H4Xp0P3sUrkfhenQ/exSuR+F6dD97FK5H4Xp0P3sUrkfhenQ/exSuR+F6dD97FK5H4Xp0P3sUrkfhenQ/exSuR+F6dD97FK5H4Xp0P3sUrkfhenQ/exSuR+F6dD97FK5H4Xp0P3sUrkfhenQ/exSuR+F6dD97FK5H4Xp0P3sUrkfhenQ/exSuR+F6dD97FK5H4Xp0P3sUrkfhenQ/exSuR+F6dD97FK5H4Xp0P3sUrkfhenQ/exSuR+F6dD97FK5H4Xp0P3sUrkfhenQ/exSuR+F6dD97FK5H4Xp0P3sUrkfhenQ/exSuR+F6dD97FK5H4Xp0P3sUrkfhenQ/exSuR+F6dD97FK5H4Xp0P3sUrkfhenQ/"
        },
        "ADAS": {
            "theta_kde": {
                "data": "k05VTVBZAQB2AHsnZGVzY3InOiAnPGY4JywgJ2ZvcnRyYW5fb3JkZXInOiBGYWxzZSwgJ3NoYXBlJzogKDYwLCksIH0gICAgICAgICAgICAgICAgICAgICAgICAgICAgICAgICAgICAgICAgICAgICAgICAgICAgICAgICAgIAqEeNOcqkYzwEMr0QREIjHAxQUGGngJNcD4t0KQt74wwCWDlsdzLjPAMke1jDkfKsBub0apafkxwDJhdNAwGDTAl68Hzhp3M8D81nFW2isxwDDrnA3QtjTARZH0/7xmLMB4GsT1Q9YswIKt2K+LJjTABEvg2Aw3NcB+DONjr/IywBAZpxiuFzDAmK7PnMwZLcCNRACmvtEzwAUYu59C5CrAdwwUqEu6L8B1Z7bZIxM1wPwyZsVALzLAXp3OrhAkMsDMh/J5/skzwKL0foV09zPAfgHLyyRuMsCwKIuM4kgwwLHsTNgz9yjAL4bPH691MsBu4dH64wAxwGxUVzPBFTXAaDt81d/hMMAwyiI4nogywLCthG17uDLA2B0Uxp3oLcB2aA7/b1I1wBT/GqvfTjPAqpHyxwmPMcAanBHpApMswMIZiZ/VyTHAvItqy+lwNMBeqRVFenIxwMj5R+OCSzTA6As5ln8UM8AioHdXMZApwOME2bbbQjDAcmdnGiEKMcA82FDdHA01wLhtpoXIuzLADiTwG95FMsA6QClpvHsywHL8ywwMajXA6lSACSfMMcAjSjBkOLQowMAGjnvNCDTANuBtksv7KMC5XU+jBIEqwAwPnEqxHzPAhpBrFo6zM8A=",
                "weights": "k05VTVBZAQB2AHsnZGVzY3InOiAnPGY4JywgJ2ZvcnRyYW5fb3JkZXInOiBGYWxzZSwgJ3NoYXBlJzogKDYwLCksIH0gICAgICAgICAgICAgICAgICAgICAgICAgICAgICAgICAgICAgICAgICAgICAgICAgICAgICAgICAgIAoRERERERGRPxEREREREZE/ERERERERkT8RERERERGRPxEREREREZE/ERERERERkT8RERERERGRPxEREREREZE/ERERERERkT8RERERERGRPxEREREREZE/ERERERERkT8RERERERGRPxEREREREZE/ERERERERkT8RERERERGRPxEREREREZE/ERERERERkT8RERERERGRPxEREREREZE/ERERERERkT8RERERERGRPxEREREREZE/ERERERERkT8RERERERGRPxEREREREZE/ERERERERkT8RERERERGRPxEREREREZE/ERERERERkT8RERERERGRPxEREREREZE/ERERERERkT8RERERERGRPxEREREREZE/ERERERERkT8RERERERGRPxEREREREZE/ERERERERkT8RERERERGRPxEREREREZE/ERERERERkT8RERERERGRPxEREREREZE/ERERERERkT8RERERERGRPxEREREREZE/ERERERERkT8RERERERGRPxEREREREZE/ERERERERkT8RERERERGRPxEREREREZE/ERERERERkT8RERERERGRPxEREREREZE/ERERERERkT8RERERERGRPxEREREREZE/ERERERERkT8=",
                "bandwidth": 1.199448504967595
            },
            "theta_weights": "k05VTVBZAQB2AHsnZGVzY3InOiAnPGY4JywgJ2ZvcnRyYW5fb3JkZXInOiBGYWxzZSwgJ3NoYXBlJzogKDIwMCwpLCB9ICAgICAgICAgICAgICAgICAgICAgICAgICAgICAgICAgICAgICAgICAgICAgICAgICAgICAgICAgIAp7FK5H4Xp0P3sUrkfhenQ/exSuR+F6dD97FK5H4Xp0P3sUrkfhenQ/exSuR+F6dD97FK5H4Xp0P3sUrkfhenQ/exSuR+F6dD97FK5H4Xp0P3sUrkfhenQ/exSuR+F6dD97FK5H4Xp0P3sUrkfhenQ/exSuR+F6dD97FK5H4Xp0P3sUrkfhenQ/exSuR+F6dD97FK5H4Xp0P3sUrkfhenQ/exSuR+F6dD97FK5H4Xp0P3sUrkfhenQ/exSuR+F6dD97FK5H4Xp0P3sUrkfhenQ/exSuR+F6dD97FK5H4Xp0P3sUrkfhenQ/exSuR+F6dD97FK5H4Xp0P3sUrkfhenQ/exSuR+F6dD97FK5H4Xp0P3sUrkfhenQ/exSuR+F6dD97FK5H4Xp0P3sUrkfhenQ/exSuR+F6dD97FK5H4Xp0P3sUrkfhenQ/exSuR+F6dD97FK5H4Xp0P3sUrkfhenQ/exSuR+F6dD97FK5H4Xp0P3sUrkfhenQ/exSuR+F6dD97FK5H4Xp0P3sUrkfhenQ/exSuR+F6dD97FK5H4Xp0P3sUrkfhenQ/exSuR+F6dD97FK5H4Xp0P3sUrkfhenQ/exSuR+F6dD97FK5H4Xp0P3sUrkfhenQ/exSuR+F6dD97FK5H4Xp0P3sUrkfhenQ/exSuR+F6dD97FK5H4Xp0P3sUrkfhenQ/exSuR+F6dD97FK5H4Xp0P3sUrkfhenQ/exSuR+F6dD97FK5H4Xp0P3sUrkfhenQ/exSuR+F6dD97FK5H4Xp0P3sUrkfhenQ/exSuR+F6dD97FK5H4Xp0P3sUrkfhenQ/exSuR+F6dD97FK5H4Xp0P3sUrkfhenQ/exSuR+F6dD97FK5H4Xp0P3sUrkfhenQ/exSuR+F6dD97FK5H4Xp0P3sUrkfhenQ/exSuR+F6dD97FK5H4Xp0P3sUrkfhenQ/exSuR+F6dD97FK5H4Xp0P3sUrkfhenQ/exSuR+F6dD97FK5H4Xp0P3sUrkfhenQ/exSuR+F6dD97FK5H4Xp0P3sUrkfhenQ/exSuR+F6dD97FK5H4Xp0P3sUrkfhenQ/exSuR+F6dD97FK5H4Xp0P3sUrkfhenQ/exSuR+F6dD97FK5H4Xp0P3sUrkfhenQ/exSuR+F6dD97FK5H4Xp0P3sUrkfhenQ/exSuR+F6dD97FK5H4Xp0P3sUrkfhenQ/exSuR+F6dD97FK5H4Xp0P3sUrkfhenQ/exSuR+F6dD97FK5H4Xp0P3sUrkfhenQ/exSuR+F6dD97FK5H4Xp0P3sUrkfhenQ/exSuR+F6dD97FK5H4Xp0P3sUrkfhenQ/exSuR+F6dD97FK5H4Xp0P3sUrkfhenQ/exSuR+F6dD97FK5H4Xp0P3sUrkfhenQ/exSuR+F6dD97FK5H4Xp0P3sUrkfhenQ/exSuR+F6dD97FK5H4Xp0P3sUrkfhenQ/exSuR+F6dD97FK5H4Xp0P3sUrkfhenQ/exSuR+F6dD97FK5H4Xp0P3sUrkfhenQ/exSuR+F6dD97FK5H4Xp0P3sUrkfhenQ/exSuR+F6dD97FK5H4Xp0P3sUrkfhenQ/exSuR+F6dD97FK5H4Xp0P3sUrkfhenQ/exSuR+F6dD97FK5H4Xp0P3sUrkfhenQ/exSuR+F6dD97FK5H4Xp0P3sUrkfhenQ/exSuR+F6dD97FK5H4Xp0P3sUrkfhenQ/exSuR+F6dD97FK5H4Xp0P3sUrkfhenQ/exSuR+F6dD97FK5H4Xp0P3sUrkfhenQ/exSuR+F6dD97FK5H4Xp0P3sUrkfhenQ/exSuR+F6dD97FK5H4Xp0P3sUrkfhenQ/exSuR+F6dD97FK5H4Xp0P3sUrkfhenQ/exSuR+F6dD97FK5H4Xp0P3sUrkfhenQ/exSuR+F6dD97FK5H4Xp0P3sUrkfhenQ/exSuR+F6dD97FK5H4Xp0P3sUrkfhenQ/exSuR+F6dD97FK5H4Xp0P3sUrkfhenQ/exSuR+F6dD97FK5H4Xp0P3sUrkfhenQ/exSuR+F6dD97FK5H4Xp0P3sUrkfhenQ/exSuR+F6dD97FK5H4Xp0P3sUrkfhenQ/exSuR+F6dD97FK5H4Xp0P3sUrkfhenQ/",
            "phi_kde": {
                "data": "k05VTVBZAQB2AHsnZGVzY3InOiAnPGY4JywgJ2ZvcnRyYW5fb3JkZXInOiBGYWxzZSwgJ3NoYXBlJzogKDE0MCwpLCB9ICAgICAgICAgICAgICAgICAgICAgICAgICAgICAgICAgICAgICAgICAgICAgICAgICAgICAgICAgIApNJlL+kEEcwIEfcKBIVhTAXi2r30iwGcBcgFzBbK0awICO9c5a1BvAWvYgSuxEF8D7E9FMar8UwBgWOKcJihXARZ46aGZeEMC6RUaB9KkXwD7ps7M0nxTABrbT72mB/L+R4MVgYz4QwN6q5586wRTAp8j1JfGdJsBSJS9xpkwawB2mOAPVLxLAortwuNkHIcD3Lb8oiLYXwLrEmf6yAyLAn0t1QYPjFsAr6Sj5mV0ZwJuUT+szrBTA6KWDOd9IF8Bjkl4RWXYVwMAVx3HUjyDAOnHzEArbF8BYACCeUj0XwAuYgLLRBx3AKPgZK17AEsAmDBdPJa8dwLwIdT/5gCHAP+Q73f77HMDIYQ0Xgb4kwFmK/pszkB7A3BmuYD8eIsD8SGFIGpEVwAR/Ph9TLhHA2idKfaeuHsDI6YOz2mAgwA+znsFjiR/AqGFVjAHaHcBMcDdPG6gTwFp8XKHRgB3AYE85DuXLGcCGN8DqM/kZwGywGOSvwBbAitF8tZouHcClZD5Ov48NwOXs+4d02R3AqhBqRjA5HcAZ4e/Y2gwhwDrSmOjDKgrA043uDAZXGcBo6IGavS0fwOGqhTYqAxTAq0Vj9nwAGsDdC/jlYnYewFMHSFZGWRjAG4G6qFwrI8BdpHNadXkYwGZuUdBvbRrAVqq33WCHI8B4VgSdn8gSwGpA1LauuxzAb1+MFUFJF8Big91zCM4XwLbAZ9PK3R3A0oN6hIRPGcD1EM6/hC8bwDB/ZZTvFiDAE73CagiBFMA05R0plJ0TwEZ6vB0Q/hLAgXCfaOqUIMBMGknNRBAYwJ8MhZS3ZBXAHvc3nyVmHcCjrNJOY30dwBMLM3bHTBjA5cWOPsJfEcAbFITT9qAVwDTUn/QPBhnAs3Hcw1zzF8BjYInvx7McwPf+vksxVgXAeFdBdWPSGcB9ndSPq28SwK/23WOA3wjAq0pAPOhQIMDYu6Xs8Q4kwMSWAGMlIBTARdPrP3GfGcBiz4xsgJsUwDAscHe+7x3AI0d4+s9nHMA4Qn3bs7McwHzBL21GtxnAlvW3c1K+JsBRuV7hqVEUwAfGVByKbxrAQgi74DBBH8CLpUTiRhQXwPKSMpEJ4hjA76nAahxyH8A6aCrOkYwhwEb4+iNTyxjA1nRHL70HHMCNGIHZLhInwMcN90W9Xh3AOutw5Lm6HMBnkTlZZoQWwHn5IAZeiRnAYN1fwdpwGsA+PtFyVJEewGWZyrwjEhnAIahJ42A2IsDoEm+SpIcewO+Pt6nmzCTAZphD2TBrFcAOpvQQ8EAlwOfqtXeEGSDA2FksO7crIcBFzYFNsBESwKOxzznEmBLA+TqBtBc4G8Bh60/YShoXwH2fUwYmKhPAVWW3w8PzF8CUI17PHMcVwPBge4lZRR3AxDTMhn3rIMB2Tp0gzOYhwK6KwHI9OyHALCqztAKlJcB7Vg+ItqwWwLJSbUVNqRzAQrV9fgf/EsAxH31dGDciwNxQ7iSUYyfA",
                "weights": "k05VTVBZAQB2AHsnZGVzY3InOiAnPGY4JywgJ2ZvcnRyYW5fb3JkZXInOiBGYWxzZSwgJ3NoYXBlJzogKDE0MCwpLCB9ICAgICAgICAgICAgICAgICAgICAgICAgICAgICAgICAgICAgICAgICAgICAgICAgICAgICAgICAgIAod1EEd1EF9Px3UQR3UQX0/HdRBHdRBfT8d1EEd1EF9Px3UQR3UQX0/HdRBHdRBfT8d1EEd1EF9Px3UQR3UQX0/HdRBHdRBfT8d1EEd1EF9Px3UQR3UQX0/HdRBHdRBfT8d1EEd1EF9Px3UQR3UQX0/HdRBHdRBfT8d1EEd1EF9Px3UQR3UQX0/HdRBHdRBfT8d1EEd1EF9Px3UQR3UQX0/HdRBHdRBfT8d1EEd1EF9Px3UQR3UQX0/HdRBHdRBfT8d1EEd1EF9Px3UQR3UQX0/HdRBHdRBfT8d1EEd1EF9Px3UQR3UQX0/HdRBHdRBfT8d1EEd1EF9Px3UQR3UQX0/HdRBHdRBfT8d1EEd1EF9Px3UQR3UQX0/HdRBHdRBfT8d1EEd1EF9Px3UQR3UQX0/HdRBHdRBfT8d1EEd1EF9Px3UQR3UQX0/HdRBHdRBfT8d1EEd1EF9Px3UQR3UQX0/HdRBHdRBfT8d1EEd1EF9Px3UQR3UQX0/HdRBHdRBfT8d1EEd1EF9Px3UQR3UQX0/HdRBHdRBfT8d1EEd1EF9Px3UQR3UQX0/HdRBHdRBfT8d1EEd1EF9Px3UQR3UQX0/HdRBHdRBfT8d1EEd1EF9Px3UQR3UQX0/HdRBHdRBfT8d1EEd1EF9Px3UQR3UQX0/HdRBHdRBfT8d1EEd1EF9Px3UQR3UQX0/HdRBHdRBfT8d1EEd1EF9Px3UQR3UQX0/HdRBHdRBfT8d1EEd1EF9Px3UQR3UQX0/HdRBHdRBfT8d1EEd1EF9Px3UQR3UQX0/HdRBHdRBfT8d1EEd1EF9Px3UQR3UQX0/HdRBHdRBfT8d1EEd1EF9Px3UQR3UQX0/HdRBHdRBfT8d1EEd1EF9Px3UQR3UQX0/HdRBHdRBfT8d1EEd1EF9Px3UQR3UQX0/HdRBHdRBfT8d1EEd1EF9Px3UQR3UQX0/HdRBHdRBfT8d1EEd1EF9Px3UQR3UQX0/HdRBHdRBfT8d1EEd1EF9Px3UQR3UQX0/HdRBHdRBfT8d1EEd1EF9Px3UQR3UQX0/HdRBHdRBfT8d1EEd1EF9Px3UQR3UQX0/HdRBHdRBfT8d1EEd1EF9Px3UQR3UQX0/HdRBHdRBfT8d1EEd1EF9Px3UQR3UQX0/HdRBHdRBfT8d1EEd1EF9Px3UQR3UQX0/HdRBHdRBfT8d1EEd1EF9Px3UQR3UQX0/HdRBHdRBfT8d1EEd1EF9Px3UQR3UQX0/HdRBHdRBfT8d1EEd1EF9Px3UQR3UQX0/HdRBHdRBfT8d1EEd1EF9Px3UQR3UQX0/HdRBHdRBfT8d1EEd1EF9Px3UQR3UQX0/HdRBHdRBfT8d1EEd1EF9Px3UQR3UQX0/HdRBHdRBfT8d1EEd1EF9Px3UQR3UQX0/HdRBHdRBfT8d1EEd1EF9Px3UQR3UQX0/HdRBHdRBfT8d1EEd1EF9Px3UQR3UQX0/HdRBHdRBfT8d1EEd1EF9Px3UQR3UQX0/",
                "bandwidth": 0.7140178419583711
            },
            "phi_weights": "k05VTVBZAQB2AHsnZGVzY3InOiAnPGY4JywgJ2ZvcnRyYW5fb3JkZXInOiBGYWxzZSwgJ3NoYXBlJzogKDIwMCwpLCB9ICAgICAgICAgICAgICAgICAgICAgICAgICAgICAgICAgICAgICAgICAgICAgICAgICAgICAgICAgIAp7FK5H4Xp0P3sUrkfhenQ/exSuR+F6dD97FK5H4Xp0P3sUrkfhenQ/exSuR+F6dD97FK5H4Xp0P3sUrkfhenQ/exSuR+F6dD97FK5H4Xp0P3sUrkfhenQ/exSuR+F6dD97FK5H4Xp0P3sUrkfhenQ/exSuR+F6dD97FK5H4Xp0P3sUrkfhenQ/exSuR+F6dD97FK5H4Xp0P3sUrkfhenQ/exSuR+F6dD97FK5H4Xp0P3sUrkfhenQ/exSuR+F6dD97FK5H4Xp0P3sUrkfhenQ/exSuR+F6dD97FK5H4Xp0P3sUrkfhenQ/exSuR+F6dD97FK5H4Xp0P3sUrkfhenQ/exSuR+F6dD97FK5H4Xp0P3sUrkfhenQ/exSuR+F6dD97FK5H4Xp0P3sUrkfhenQ/exSuR+F6dD97FK5H4Xp0P3sUrkfhenQ/exSuR+F6dD97FK5H4Xp0P3sUrkfhenQ/exSuR+F6dD97FK5H4Xp0P3sUrkfhenQ/exSuR+F6dD97FK5H4Xp0P3sUrkfhenQ/exSuR+F6dD97FK5H4Xp0P3sUrkfhenQ/exSuR+F6dD97FK5H4Xp0P3sUrkfhenQ/exSuR+F6dD97FK5H4Xp0P3sUrkfhenQ/exSuR+F6dD97FK5H4Xp0P3sUrkfhenQ/exSuR+F6dD97FK5H4Xp0P3sUrkfhenQ/exSuR+F6dD97FK5H4Xp0P3sUrkfhenQ/exSuR+F6dD97FK5H4Xp0P3sUrkfhenQ/exSuR+F6dD97FK5H4Xp0P3sUrkfhenQ/exSuR+F6dD97FK5H4Xp0P3sUrkfhenQ/exSuR+F6dD97FK5H4Xp0P3sUrkfhenQ/exSuR+F6dD97FK5H4Xp0P3sUrkfhenQ/exSuR+F6dD97FK5H4Xp0P3sUrkfhenQ/exSuR+F6dD97FK5H4Xp0P3sUrkfhenQ/exSuR+F6dD97FK5H4Xp0P3sUrkfhenQ/exSuR+F6dD97FK5H4Xp0P3sUrkfhenQ/exSuR+F6dD97FK5H4Xp0P3sUrkfhenQ/exSuR+F6dD97FK5H4Xp0P3sUrkfhenQ/exSuR+F6dD97FK5H4Xp0P3sUrkfhenQ/exSuR+F6dD97FK5H4Xp0P3sUrkfhenQ/exSuR+F6dD97FK5H4Xp0P3sUrkfhenQ/exSuR+F6dD97FK5H4Xp0P3sUrkfhenQ/exSuR+F6dD97FK5H4Xp0P3sUrkfhenQ/exSuR+F6dD97FK5H4Xp0P3sUrkfhenQ/exSuR+F6dD97FK5H4Xp0P3sUrkfhenQ/exSuR+F6dD97FK5H4Xp0P3sUrkfhenQ/exSuR+F6dD97FK5H4Xp0P3sUrkfhenQ/exSuR+F6dD97FK5H4Xp0P3sUrkfhenQ/exSuR+F6dD97FK5H4Xp0P3sUrkfhenQ/exSuR+F6dD97FK5H4Xp0P3sUrkfhenQ/exSuR+F6dD97FK5H4Xp0P3sUrkfhenQ/exSuR+F6dD97FK5H4Xp0P3sUrkfhenQ/exSuR+F6dD97FK5H4Xp0P3sUrkfhenQ/exSuR+F6dD97FK5H4Xp0P3sUrkfhenQ/exSuR+F6dD97FK5H4Xp0P3sUrkfhenQ/exSuR+F6dD97FK5H4Xp0P3sUrkfhenQ/exSuR+F6dD97FK5H4Xp0P3sUrkfhenQ/exSuR+F6dD97FK5H4Xp0P3sUrkfhenQ/exSuR+F6dD97FK5H4Xp0P3sUrkfhenQ/exSuR+F6dD97FK5H4Xp0P3sUrkfhenQ/exSuR+F6dD97FK5H4Xp0P3sUrkfhenQ/exSuR+F6dD97FK5H4Xp0P3sUrkfhenQ/exSuR+F6dD97FK5H4Xp0P3sUrkfhenQ/exSuR+F6dD97FK5H4Xp0P3sUrkfhenQ/exSuR+F6dD97FK5H4Xp0P3sUrkfhenQ/exSuR+F6dD97FK5H4Xp0P3sUrkfhenQ/exSuR+F6dD97FK5H4Xp0P3sUrkfhenQ/exSuR+F6dD97FK5H4Xp0P3sUrkfhenQ/exSuR+F6dD97FK5H4Xp0P3sUrkfhenQ/exSuR+F6dD97FK5H4Xp0P3sUrkfhenQ/exSuR+F6dD97FK5H4Xp0P3sUrkfhenQ/"
        },
        "AVLT-Sum": {
            "theta_kde": {
                "data": "k05VTVBZAQB2AHsnZGVzY3InOiAnPGY4JywgJ2ZvcnRyYW5fb3JkZXInOiBGYWxzZSwgJ3NoYXBlJzogKDk0LCksIH0gICAgICAgICAgICAgICAgICAgICAgICAgICAgICAgICAgICAgICAgICAgICAgICAgICAgICAgICAgIAo4fN6ciHAoQDI+jepsM0FALeUuWfqVMUAjLZujakw5QA0Bx6ko40BA+nPfonLLPkAAN4lsAcsiQMW8wOze4DlAEokf9bY7M0B8yi2mF9hAQEIaJejtqD5A1S/S3ZorQEB9dKIJaDJAQAgarFf5+zNAVUBB+VVpM0DtJOTnMhk+QPiPBBC3Ki5AFzx1ryyJP0ByY999IA00QDDbJVGgrkBApgJsGi3YO0BwbFg0URkgQJg6Q4jrJkFA35BsF46PQsCAiOhJ5K8cQLDiut7OXEFASlcFfdvtQUCYbnDSFSNAQEfBFLYD9DFAzgTDPBdkQUBg2bAXi7UsQEWAFhSjtzxABt6IBwt4N0Azs4o47iM+QAKPfisMjzNAIuPrCb/BFEDK1EmQIJM8QBBKHlc1rOa/5TnGVx0DF0AE+kOq61g5QHUOcnxKykFAoEzQCzJHQUDaGJelLQI0QFbiTS8eRCdA5a6JaQZtL0DTT801i1U9QG9ph2K7vzVA2dJqBDE7PEAdvUspREpAQFbN/g9HMkFARjxpJaHHG0BCFRDwm/AzQAzHwSEyK0FAcA4IlX4KQEDSmSVRdZ87QFdILsGh5B5AARkRVkpvPED7sjq9x31AQAZXV46qISJA7UbHQb7oOUBobWXTnYI7QOYtdolQ1j9AIZB/PPo4KUDsnHwOvQA8QMHYhtKD5TBAa/1mUoWqO0BzGyNJB6tBQKRI6tKaJjlA+VjUwEFENUBQ6GkU3n41QO0hIRkje0BAVeuBPMnQQEAwVjedaqs4QK1ov3Mmg0FA7u63fDvUNUCTHxVp6O0+QAlpXaQtPjxA8NyaVpxrQUBtynE74mA2QFogGKHR1jlAYaRJiuxnMEBwxvapm2BAQOZcNuSTPDxAB7R+w/7dMUD4+YMYLUshQEf5neu3ykBA21X/GjcgPkBPZBcDxToNQOC/ZiIkWABA5Y+TFXkLOEBS912pt8k+QKH6rwOhiUFAvY13ikmeQEAvhb+Rkv03QA==",
                "weights": "k05VTVBZAQB2AHsnZGVzY3InOiAnPGY4JywgJ2ZvcnRyYW5fb3JkZXInOiBGYWxzZSwgJ3NoYXBlJzogKDk0LCksIH0gICAgICAgICAgICAgICAgICAgICAgICAgICAgICAgICAgICAgICAgICAgICAgICAgICAgICAgICAgIApXEJMriMmFP1cQkyuIyYU/VxCTK4jJhT9XEJMriMmFP1cQkyuIyYU/VxCTK4jJhT9XEJMriMmFP1cQkyuIyYU/VxCTK4jJhT9XEJMriMmFP1cQkyuIyYU/VxCTK4jJhT9XEJMriMmFP1cQkyuIyYU/VxCTK4jJhT9XEJMriMmFP1cQkyuIyYU/VxCTK4jJhT9XEJMriMmFP1cQkyuIyYU/VxCTK4jJhT9XEJMriMmFP1cQkyuIyYU/VxCTK4jJhT9XEJMriMmFP1cQkyuIyYU/VxCTK4jJhT9XEJMriMmFP1cQkyuIyYU/VxCTK4jJhT9XEJMriMmFP1cQkyuIyYU/VxCTK4jJhT9XEJMriMmFP1cQkyuIyYU/VxCTK4jJhT9XEJMriMmFP1cQkyuIyYU/VxCTK4jJhT9XEJMriMmFP1cQkyuIyYU/VxCTK4jJhT9XEJMriMmFP1cQkyuIyYU/VxCTK4jJhT9XEJMriMmFP1cQkyuIyYU/VxCTK4jJhT9XEJMriMmFP1cQkyuIyYU/VxCTK4jJhT9XEJMriMmFP1cQkyuIyYU/VxCTK4jJhT9XEJMriMmFP1cQkyuIyYU/VxCTK4jJhT9XEJMriMmFP1cQkyuIyYU/VxCTK4jJhT9XEJMriMmFP1cQkyuIyYU/VxCTK4jJhT9XEJMriMmFP1cQkyuIyYU/VxCTK4jJhT9XEJMriMmFP1cQkyuIyYU/VxCTK4jJhT9XEJMriMmFP1cQkyuIyYU/VxCTK4jJhT9XEJMriMmFP1cQkyuIyYU/VxCTK4jJhT9XEJMriMmFP1cQkyuIyYU/VxCTK4jJhT9XEJMriMmFP1cQkyuIyYU/VxCTK4jJhT9XEJMriMmFP1cQkyuIyYU/VxCTK4jJhT9XEJMriMmFP1cQkyuIyYU/VxCTK4jJhT9XEJMriMmFP1cQkyuIyYU/VxCTK4jJhT9XEJMriMmFP1cQkyuIyYU/VxCTK4jJhT9XEJMriMmFPw==",
                "bandwidth": 4.8324284545719545
            },
            "theta_weights": "k05VTVBZAQB2AHsnZGVzY3InOiAnPGY4JywgJ2ZvcnRyYW5fb3JkZXInOiBGYWxzZSwgJ3NoYXBlJzogKDIwMCwpLCB9ICAgICAgICAgICAgICAgICAgICAgICAgICAgICAgICAgICAgICAgICAgICAgICAgICAgICAgICAgIAp7FK5H4Xp0P3sUrkfhenQ/exSuR+F6dD97FK5H4Xp0P3sUrkfhenQ/exSuR+F6dD97FK5H4Xp0P3sUrkfhenQ/exSuR+F6dD97FK5H4Xp0P3sUrkfhenQ/exSuR+F6dD97FK5H4Xp0P3sUrkfhenQ/exSuR+F6dD97FK5H4Xp0P3sUrkfhenQ/exSuR+F6dD97FK5H4Xp0P3sUrkfhenQ/exSuR+F6dD97FK5H4Xp0P3sUrkfhenQ/exSuR+F6dD97FK5H4Xp0P3sUrkfhenQ/exSuR+F6dD97FK5H4Xp0P3sUrkfhenQ/exSuR+F6dD97FK5H4Xp0P3sUrkfhenQ/exSuR+F6dD97FK5H4Xp0P3sUrkfhenQ/exSuR+F6dD97FK5H4Xp0P3sUrkfhenQ/exSuR+F6dD97FK5H4Xp0P3sUrkfhenQ/exSuR+F6dD97FK5H4Xp0P3sUrkfhenQ/exSuR+F6dD97FK5H4Xp0P3sUrkfhenQ/exSuR+F6dD97FK5H4Xp0P3sUrkfhenQ/exSuR+F6dD97FK5H4Xp0P3sUrkfhenQ/exSuR+F6dD97FK5H4Xp0P3sUrkfhenQ/exSuR+F6dD97FK5H4Xp0P3sUrkfhenQ/exSuR+F6dD97FK5H4Xp0P3sUrkfhenQ/exSuR+F6dD97FK5H4Xp0P3sUrkfhenQ/exSuR+F6dD97FK5H4Xp0P3sUrkfhenQ/exSuR+F6dD97FK5H4Xp0P3sUrkfhenQ/exSuR+F6dD97FK5H4Xp0P3sUrkfhenQ/exSuR+F6dD97FK5H4Xp0P3sUrkfhenQ/exSuR+F6dD97FK5H4Xp0P3sUrkfhenQ/exSuR+F6dD97FK5H4Xp0P3sUrkfhenQ/exSuR+F6dD97FK5H4Xp0P3sUrkfhenQ/exSuR+F6dD97FK5H4Xp0P3sUrkfhenQ/exSuR+F6dD97FK5H4Xp0P3sUrkfhenQ/exSuR+F6dD97FK5H4Xp0P3sUrkfhenQ/exSuR+F6dD97FK5H4Xp0P3sUrkfhenQ/exSuR+F6dD97FK5H4Xp0P3sUrkfhenQ/exSuR+F6dD97FK5H4Xp0P3sUrkfhenQ/exSuR+F6dD97FK5H4Xp0P3sUrkfhenQ/exSuR+F6dD97FK5H4Xp0P3sUrkfhenQ/exSuR+F6dD97FK5H4Xp0P3sUrkfhenQ/exSuR+F6dD97FK5H4Xp0P3sUrkfhenQ/exSuR+F6dD97FK5H4Xp0P3sUrkfhenQ/exSuR+F6dD97FK5H4Xp0P3sUrkfhenQ/exSuR+F6dD97FK5H4Xp0P3sUrkfhenQ/exSuR+F6dD97FK5H4Xp0P3sUrkfhenQ/exSuR+F6dD97FK5H4Xp0P3sUrkfhenQ/exSuR+F6dD97FK5H4Xp0P3sUrkfhenQ/exSuR+F6dD97FK5H4Xp0P3sUrkfhenQ/exSuR+F6dD97FK5H4Xp0P3sUrkfhenQ/exSuR+F6dD97FK5H4Xp0P3sUrkfhenQ/exSuR+F6dD97FK5H4Xp0P3sUrkfhenQ/exSuR+F6dD97FK5H4Xp0P3sUrkfhenQ/exSuR+F6dD97FK5H4Xp0P3sUrkfhenQ/exSuR+F6dD97FK5H4Xp0P3sUrkfhenQ/exSuR+F6dD97FK5H4Xp0P3sUrkfhenQ/exSuR+F6dD97FK5H4Xp0P3sUrkfhenQ/exSuR+F6dD97FK5H4Xp0P3sUrkfhenQ/exSuR+F6dD97FK5H4Xp0P3sUrkfhenQ/exSuR+F6dD97FK5H4Xp0P3sUrkfhenQ/exSuR+F6dD97FK5H4Xp0P3sUrkfhenQ/exSuR+F6dD97FK5H4Xp0P3sUrkfhenQ/exSuR+F6dD97FK5H4Xp0P3sUrkfhenQ/exSuR+F6dD97FK5H4Xp0P3sUrkfhenQ/exSuR+F6dD97FK5H4Xp0P3sUrkfhenQ/exSuR+F6dD97FK5H4Xp0P3sUrkfhenQ/exSuR+F6dD97FK5H4Xp0P3sUrkfhenQ/exSuR+F6dD97FK5H4Xp0P3sUrkfhenQ/exSuR+F6dD97FK5H4Xp0P3sUrkfhenQ/exSuR+F6dD97FK5H4Xp0P3sUrkfhenQ/",
            "phi_kde": {
                "data": "k05VTVBZAQB2AHsnZGVzY3InOiAnPGY4JywgJ2ZvcnRyYW5fb3JkZXInOiBGYWxzZSwgJ3NoYXBlJzogKDEwNiwpLCB9ICAgICAgICAgICAgICAgICAgICAgICAgICAgICAgICAgICAgICAgICAgICAgICAgICAgICAgICAgIArrZlsQtlBFQNl2Us/wfEZAIC64bCxPSECNGttJKDJEQBwOvJm9R0VA9nBmI4jgREANJOTAWmhGQMFyqQkBI0ZALKw4Vfr6QkBq3pj+nnhSQPD07ugGWkhAwvtZfxmgSECi8gTr9K5DQDfg99B1fUlAOXsd4MBFSkD5wbLW3IxFQCgqC28/AFBAfYXMUHEuREC3qbbBrpNJQNR3raGmSEdAOSmHTsQKRECtZzC9G3pOQODxB5ztcUNA+otsjbEWRUDM/sVzRZFEQHMDw2VQPEtABKm62AVDS0BJLBbco+FKQJW7M9rstE9A8ZiIdsKnRkDGLfQf6olLQNktNlPo0kRAm+12ww72R0CJh3JdSS9DQFnuiufG805AwW+y4GIPREAbrI9xtLtDQPYpNLZBGk1AUm2b61QsS0AO7vZw+DJGQMWlVyMHg0pAWNc3ekbWREB39ErR/FFIQHwNKTwrb0tAYefkAb/9UEBVI6wfKsxQQFMrgOT5YUxAvFw/Y5/YUUCgbSJNUFZDQFQKTvp2mUZAQQ9hpW5GSEAsMmK2qZFFQNzVqjTcVU1ABTFFHQUmRkAKBwFqaINDQCbtR2luE05AfqnHXcnjQ0DDhr3EX3FMQGEXsBfryENAeim21TTLREDQJCTCXglFQGYRhZGSbEVAcVtjCmpJSEAIvHigXTFOQFi0DLnLlUpAUpkl7GMpSUBIh9BTOsBMQAYdPdyLtkJA6qzxc0/jR0CNHlMHlp5FQM9Asw4bt0VA6HbIgue7RkBw5152cP1JQMMtMG5GW0ZAXBSjdo+OSUClWnKHUEpKQHowKl4+jEJAGl/lgc5vSUCp6eyzFh9DQOMFiHWIt1JAeblqqbhATECnmXCLBeNPQFwP2zS79kRA1gdFgzW/REA+y7sY4wZEQFeKVAtICkRAjJiSQccyR0DMnGIXqelIQLG6/VTP3U1AvWzeYj/bS0DacMF2byhKQIwYNdEUFEVAK54IpxSfS0D2BFWj/M5KQCcNOG7dX1BAlG65I1JVTUDpzQ5F2gNHQP+5r5+dMkRAsanZvaGDRUCbAqeErHVDQDPCSf+SVURAjWUc2ZT7SEDoa7LL4lxMQPURGGDqU0JA9kG1Ft5CRECFb6X1nU5NQA==",
                "weights": "k05VTVBZAQB2AHsnZGVzY3InOiAnPGY4JywgJ2ZvcnRyYW5fb3JkZXInOiBGYWxzZSwgJ3NoYXBlJzogKDEwNiwpLCB9ICAgICAgICAgICAgICAgICAgICAgICAgICAgICAgICAgICAgICAgICAgICAgICAgICAgICAgICAgIArBeCv7HFKDP8F4K/scUoM/wXgr+xxSgz/BeCv7HFKDP8F4K/scUoM/wXgr+xxSgz/BeCv7HFKDP8F4K/scUoM/wXgr+xxSgz/BeCv7HFKDP8F4K/scUoM/wXgr+xxSgz/BeCv7HFKDP8F4K/scUoM/wXgr+xxSgz/BeCv7HFKDP8F4K/scUoM/wXgr+xxSgz/BeCv7HFKDP8F4K/scUoM/wXgr+xxSgz/BeCv7HFKDP8F4K/scUoM/wXgr+xxSgz/BeCv7HFKDP8F4K/scUoM/wXgr+xxSgz/BeCv7HFKDP8F4K/scUoM/wXgr+xxSgz/BeCv7HFKDP8F4K/scUoM/wXgr+xxSgz/BeCv7HFKDP8F4K/scUoM/wXgr+xxSgz/BeCv7HFKDP8F4K/scUoM/wXgr+xxSgz/BeCv7HFKDP8F4K/scUoM/wXgr+xxSgz/BeCv7HFKDP8F4K/scUoM/wXgr+xxSgz/BeCv7HFKDP8F4K/scUoM/wXgr+xxSgz/BeCv7HFKDP8F4K/scUoM/wXgr+xxSgz/BeCv7HFKDP8F4K/scUoM/wXgr+xxSgz/BeCv7HFKDP8F4K/scUoM/wXgr+xxSgz/BeCv7HFKDP8F4K/scUoM/wXgr+xxSgz/BeCv7HFKDP8F4K/scUoM/wXgr+xxSgz/BeCv7HFKDP8F4K/scUoM/wXgr+xxSgz/BeCv7HFKDP8F4K/scUoM/wXgr+xxSgz/BeCv7HFKDP8F4K/scUoM/wXgr+xxSgz/BeCv7HFKDP8F4K/scUoM/wXgr+xxSgz/BeCv7HFKDP8F4K/scUoM/wXgr+xxSgz/BeCv7HFKDP8F4K/scUoM/wXgr+xxSgz/BeCv7HFKDP8F4K/scUoM/wXgr+xxSgz/BeCv7HFKDP8F4K/scUoM/wXgr+xxSgz/BeCv7HFKDP8F4K/scUoM/wXgr+xxSgz/BeCv7HFKDP8F4K/scUoM/wXgr+xxSgz/BeCv7HFKDP8F4K/scUoM/wXgr+xxSgz/BeCv7HFKDP8F4K/scUoM/wXgr+xxSgz/BeCv7HFKDP8F4K/scUoM/wXgr+xxSgz/BeCv7HFKDP8F4K/scUoM/wXgr+xxSgz/BeCv7HFKDPw==",
                "bandwidth": 3.7034579638365024
            },
            "phi_weights": "k05VTVBZAQB2AHsnZGVzY3InOiAnPGY4JywgJ2ZvcnRyYW5fb3JkZXInOiBGYWxzZSwgJ3NoYXBlJzogKDIwMCwpLCB9ICAgICAgICAgICAgICAgICAgICAgICAgICAgICAgICAgICAgICAgICAgICAgICAgICAgICAgICAgIAp7FK5H4Xp0P3sUrkfhenQ/exSuR+F6dD97FK5H4Xp0P3sUrkfhenQ/exSuR+F6dD97FK5H4Xp0P3sUrkfhenQ/exSuR+F6dD97FK5H4Xp0P3sUrkfhenQ/exSuR+F6dD97FK5H4Xp0P3sUrkfhenQ/exSuR+F6dD97FK5H4Xp0P3sUrkfhenQ/exSuR+F6dD97FK5H4Xp0P3sUrkfhenQ/exSuR+F6dD97FK5H4Xp0P3sUrkfhenQ/exSuR+F6dD97FK5H4Xp0P3sUrkfhenQ/exSuR+F6dD97FK5H4Xp0P3sUrkfhenQ/exSuR+F6dD97FK5H4Xp0P3sUrkfhenQ/exSuR+F6dD97FK5H4Xp0P3sUrkfhenQ/exSuR+F6dD97FK5H4Xp0P3sUrkfhenQ/exSuR+F6dD97FK5H4Xp0P3sUrkfhenQ/exSuR+F6dD97FK5H4Xp0P3sUrkfhenQ/exSuR+F6dD97FK5H4Xp0P3sUrkfhenQ/exSuR+F6dD97FK5H4Xp0P3sUrkfhenQ/exSuR+F6dD97FK5H4Xp0P3sUrkfhenQ/exSuR+F6dD97FK5H4Xp0P3sUrkfhenQ/exSuR+F6dD97FK5H4Xp0P3sUrkfhenQ/exSuR+F6dD97FK5H4Xp0P3sUrkfhenQ/exSuR+F6dD97FK5H4Xp0P3sUrkfhenQ/exSuR+F6dD97FK5H4Xp0P3sUrkfhenQ/exSuR+F6dD97FK5H4Xp0P3sUrkfhenQ/exSuR+F6dD97FK5H4Xp0P3sUrkfhenQ/exSuR+F6dD97FK5H4Xp0P3sUrkfhenQ/exSuR+F6dD97FK5H4Xp0P3sUrkfhenQ/exSuR+F6dD97FK5H4Xp0P3sUrkfhenQ/exSuR+F6dD97FK5H4Xp0P3sUrkfhenQ/exSuR+F6dD97FK5H4Xp0P3sUrkfhenQ/exSuR+F6dD97FK5H4Xp0P3sUrkfhenQ/exSuR+F6dD97FK5H4Xp0P3sUrkfhenQ/exSuR+F6dD97FK5H4Xp0P3sUrkfhenQ/exSuR+F6dD97FK5H4Xp0P3sUrkfhenQ/exSuR+F6dD97FK5H4Xp0P3sUrkfhenQ/exSuR+F6dD97FK5H4Xp0P3sUrkfhenQ/exSuR+F6dD97FK5H4Xp0P3sUrkfhenQ/exSuR+F6dD97FK5H4Xp0P3sUrkfhenQ/exSuR+F6dD97FK5H4Xp0P3sUrkfhenQ/exSuR+F6dD97FK5H4Xp0P3sUrkfhenQ/exSuR+F6dD97FK5H4Xp0P3sUrkfhenQ/exSuR+F6dD97FK5H4Xp0P3sUrkfhenQ/exSuR+F6dD97FK5H4Xp0P3sUrkfhenQ/exSuR+F6dD97FK5H4Xp0P3sUrkfhenQ/exSuR+F6dD97FK5H4Xp0P3sUrkfhenQ/exSuR+F6dD97FK5H4Xp0P3sUrkfhenQ/exSuR+F6dD97FK5H4Xp0P3sUrkfhenQ/exSuR+F6dD97FK5H4Xp0P3sUrkfhenQ/exSuR+F6dD97FK5H4Xp0P3sUrkfhenQ/exSuR+F6dD97FK5H4Xp0P3sUrkfhenQ/exSuR+F6dD97FK5H4Xp0P3sUrkfhenQ/exSuR+F6dD97FK5H4Xp0P3sUrkfhenQ/exSuR+F6dD97FK5H4Xp0P3sUrkfhenQ/exSuR+F6dD97FK5H4Xp0P3sUrkfhenQ/exSuR+F6dD97FK5H4Xp0P3sUrkfhenQ/exSuR+F6dD97FK5H4Xp0P3sUrkfhenQ/exSuR+F6dD97FK5H4Xp0P3sUrkfhenQ/exSuR+F6dD97FK5H4Xp0P3sUrkfhenQ/exSuR+F6dD97FK5H4Xp0P3sUrkfhenQ/exSuR+F6dD97FK5H4Xp0P3sUrkfhenQ/exSuR+F6dD97FK5H4Xp0P3sUrkfhenQ/exSuR+F6dD97FK5H4Xp0P3sUrkfhenQ/exSuR+F6dD97FK5H4Xp0P3sUrkfhenQ/exSuR+F6dD97FK5H4Xp0P3sUrkfhenQ/exSuR+F6dD97FK5H4Xp0P3sUrkfhenQ/exSuR+F6dD97FK5H4Xp0P3sUrkfhenQ/exSuR+F6dD97FK5H4Xp0P3sUrkfhenQ/"
        },
        "FUS-FCI": {
            "theta_kde": {
                "data": "k05VTVBZAQB2AHsnZGVzY3InOiAnPGY4JywgJ2ZvcnRyYW5fb3JkZXInOiBGYWxzZSwgJ3NoYXBlJzogKDEwMywpLCB9ICAgICAgICAgICAgICAgICAgICAgICAgICAgICAgICAgICAgICAgICAgICAgICAgICAgICAgICAgIAoP4ATCXb4twJU/8FivXifATFaPiorcKcC6Ww1+uJUowFhmOctMrS7AoWESKMU9J8AVrfNpO+wqwAt+4IUvoyXAy0o1adTmJ8Bq0wqm8mwmwDjJ7g0xmybAKYluzpi6K8BE/eeVuwswwGoKvqH7rjLA0HeOeK6aJsBXuMjLmwMvwM6RNNJOhCnA4pT53S5SKMAkEEA698MqwFsnEt8K5ynA0jSkeGSzLcB5dXvgH2UmwJY0jjmvOCfA8PQV+Ts7LMBnnx9EyGoqwI0wTAmFzSnAyt6Y0NqILsDjYLay5z4nwPbtpeN75SbApz++6399MMCX4qQSdZ8wwOEeIb+UnyfABx5q2OhvKcDY0gcVyvgqwLv4iATXYyvAx0YgY0zPKsCHqKoNx+ApwAdk77o+jSfAUVGuiXsoL8CsJwideu0pwGJXaEPj1SfAtHSBpyCPKsDhHlJr2RMowNdW4Q7zXSbA/jtXzIM+JsAFi0TF7BwtwDrMy5lONCbAquTK9ThzJ8CXKVQgTgknwN4RVKjBwCjAHdpESKafLMDkgQtvPK8ywCMh6cV/7yjAtnQSv3tbJsDymoDU3IInwEov31vxTjHAPw05h2DUJcAL832wFDcpwIlSRmxsjS7AAQqm8tQSKsDwNf65LLQywLbbpBdiSTPArulS8eZNJ8D5wbMbUNErwEnJhSpOPSXAYCFbIVSMJcAJ9y3OO3cqwNB1arQsIybAYTlvxGF3LsAnrS7Fj7kpwEjgcoI3EibApHdm6XLQK8DcrT9Trx0swGVtUgmCeCnAdrZ2Ht2MLcBG7N3u4FknwOIuDMgmzCjA1vAUr4a7K8AdCWFiW94wwLm1vJiMbCXAZLmpvbFZJsBq2TE0JGInwEQzXm/ufSjA76n3L5wHKcA3W3CqppUlwHG2wFtCiyfANZwLXD+WJsAF2z05sbQlwA2whr0mTSrAe5ELk1G6J8BuZ+hXQ7QlwAStmVOGACvARTTfkG2bMsC7T124gXglwGsibi3jaibA/dpcA0gbKMAhSoQ46KstwAHb9mc8MynAyEQkHkF5JsDfKh0A0zkpwByrMPlQMybAoCrF8O76JcAze1spkvQpwA==",
                "weights": "k05VTVBZAQB2AHsnZGVzY3InOiAnPGY4JywgJ2ZvcnRyYW5fb3JkZXInOiBGYWxzZSwgJ3NoYXBlJzogKDEwMywpLCB9ICAgICAgICAgICAgICAgICAgICAgICAgICAgICAgICAgICAgICAgICAgICAgICAgICAgICAgICAgIAoCqeS8LOKDPwKp5Lws4oM/AqnkvCzigz8CqeS8LOKDPwKp5Lws4oM/AqnkvCzigz8CqeS8LOKDPwKp5Lws4oM/AqnkvCzigz8CqeS8LOKDPwKp5Lws4oM/AqnkvCzigz8CqeS8LOKDPwKp5Lws4oM/AqnkvCzigz8CqeS8LOKDPwKp5Lws4oM/AqnkvCzigz8CqeS8LOKDPwKp5Lws4oM/AqnkvCzigz8CqeS8LOKDPwKp5Lws4oM/AqnkvCzigz8CqeS8LOKDPwKp5Lws4oM/AqnkvCzigz8CqeS8LOKDPwKp5Lws4oM/AqnkvCzigz8CqeS8LOKDPwKp5Lws4oM/AqnkvCzigz8CqeS8LOKDPwKp5Lws4oM/AqnkvCzigz8CqeS8LOKDPwKp5Lws4oM/AqnkvCzigz8CqeS8LOKDPwKp5Lws4oM/AqnkvCzigz8CqeS8LOKDPwKp5Lws4oM/AqnkvCzigz8CqeS8LOKDPwKp5Lws4oM/AqnkvCzigz8CqeS8LOKDPwKp5Lws4oM/AqnkvCzigz8CqeS8LOKDPwKp5Lws4oM/AqnkvCzigz8CqeS8LOKDPwKp5Lws4oM/AqnkvCzigz8CqeS8LOKDPwKp5Lws4oM/AqnkvCzigz8CqeS8LOKDPwKp5Lws4oM/AqnkvCzigz8CqeS8LOKDPwKp5Lws4oM/AqnkvCzigz8CqeS8LOKDPwKp5Lws4oM/AqnkvCzigz8CqeS8LOKDPwKp5Lws4oM/AqnkvCzigz8CqeS8LOKDPwKp5Lws4oM/AqnkvCzigz8CqeS8LOKDPwKp5Lws4oM/AqnkvCzigz8CqeS8LOKDPwKp5Lws4oM/AqnkvCzigz8CqeS8LOKDPwKp5Lws4oM/AqnkvCzigz8CqeS8LOKDPwKp5Lws4oM/AqnkvCzigz8CqeS8LOKDPwKp5Lws4oM/AqnkvCzigz8CqeS8LOKDPwKp5Lws4oM/AqnkvCzigz8CqeS8LOKDPwKp5Lws4oM/AqnkvCzigz8CqeS8LOKDPwKp5Lws4oM/AqnkvCzigz8CqeS8LOKDPwKp5Lws4oM/AqnkvCzigz8CqeS8LOKDPw==",
                "bandwidth": 0.8532542654920413
            },
            "theta_weights": "k05VTVBZAQB2AHsnZGVzY3InOiAnPGY4JywgJ2ZvcnRyYW5fb3JkZXInOiBGYWxzZSwgJ3NoYXBlJzogKDIwMCwpLCB9ICAgICAgICAgICAgICAgICAgICAgICAgICAgICAgICAgICAgICAgICAgICAgICAgICAgICAgICAgIAp7FK5H4Xp0P3sUrkfhenQ/exSuR+F6dD97FK5H4Xp0P3sUrkfhenQ/exSuR+F6dD97FK5H4Xp0P3sUrkfhenQ/exSuR+F6dD97FK5H4Xp0P3sUrkfhenQ/exSuR+F6dD97FK5H4Xp0P3sUrkfhenQ/exSuR+F6dD97FK5H4Xp0P3sUrkfhenQ/exSuR+F6dD97FK5H4Xp0P3sUrkfhenQ/exSuR+F6dD97FK5H4Xp0P3sUrkfhenQ/exSuR+F6dD97FK5H4Xp0P3sUrkfhenQ/exSuR+F6dD97FK5H4Xp0P3sUrkfhenQ/exSuR+F6dD97FK5H4Xp0P3sUrkfhenQ/exSuR+F6dD97FK5H4Xp0P3sUrkfhenQ/exSuR+F6dD97FK5H4Xp0P3sUrkfhenQ/exSuR+F6dD97FK5H4Xp0P3sUrkfhenQ/exSuR+F6dD97FK5H4Xp0P3sUrkfhenQ/exSuR+F6dD97FK5H4Xp0P3sUrkfhenQ/exSuR+F6dD97FK5H4Xp0P3sUrkfhenQ/exSuR+F6dD97FK5H4Xp0P3sUrkfhenQ/exSuR+F6dD97FK5H4Xp0P3sUrkfhenQ/exSuR+F6dD97FK5H4Xp0P3sUrkfhenQ/exSuR+F6dD97FK5H4Xp0P3sUrkfhenQ/exSuR+F6dD97FK5H4Xp0P3sUrkfhenQ/exSuR+F6dD97FK5H4Xp0P3sUrkfhenQ/exSuR+F6dD97FK5H4Xp0P3sUrkfhenQ/exSuR+F6dD97FK5H4Xp0P3sUrkfhenQ/exSuR+F6dD97FK5H4Xp0P3sUrkfhenQ/exSuR+F6dD97FK5H4Xp0P3sUrkfhenQ/exSuR+F6dD97FK5H4Xp0P3sUrkfhenQ/exSuR+F6dD97FK5H4Xp0P3sUrkfhenQ/exSuR+F6dD97FK5H4Xp0P3sUrkfhenQ/exSuR+F6dD97FK5H4Xp0P3sUrkfhenQ/exSuR+F6dD97FK5H4Xp0P3sUrkfhenQ/exSuR+F6dD97FK5H4Xp0P3sUrkfhenQ/exSuR+F6dD97FK5H4Xp0P3sUrkfhenQ/exSuR+F6dD97FK5H4Xp0P3sUrkfhenQ/exSuR+F6dD97FK5H4Xp0P3sUrkfhenQ/exSuR+F6dD97FK5H4Xp0P3sUrkfhenQ/exSuR+F6dD97FK5H4Xp0P3sUrkfhenQ/exSuR+F6dD97FK5H4Xp0P3sUrkfhenQ/exSuR+F6dD97FK5H4Xp0P3sUrkfhenQ/exSuR+F6dD97FK5H4Xp0P3sUrkfhenQ/exSuR+F6dD97FK5H4Xp0P3sUrkfhenQ/exSuR+F6dD97FK5H4Xp0P3sUrkfhenQ/exSuR+F6dD97FK5H4Xp0P3sUrkfhenQ/exSuR+F6dD97FK5H4Xp0P3sUrkfhenQ/exSuR+F6dD97FK5H4Xp0P3sUrkfhenQ/exSuR+F6dD97FK5H4Xp0P3sUrkfhenQ/exSuR+F6dD97FK5H4Xp0P3sUrkfhenQ/exSuR+F6dD97FK5H4Xp0P3sUrkfhenQ/exSuR+F6dD97FK5H4Xp0P3sUrkfhenQ/exSuR+F6dD97FK5H4Xp0P3sUrkfhenQ/exSuR+F6dD97FK5H4Xp0P3sUrkfhenQ/exSuR+F6dD97FK5H4Xp0P3sUrkfhenQ/exSuR+F6dD97FK5H4Xp0P3sUrkfhenQ/exSuR+F6dD97FK5H4Xp0P3sUrkfhenQ/exSuR+F6dD97FK5H4Xp0P3sUrkfhenQ/exSuR+F6dD97FK5H4Xp0P3sUrkfhenQ/exSuR+F6dD97FK5H4Xp0P3sUrkfhenQ/exSuR+F6dD97FK5H4Xp0P3sUrkfhenQ/exSuR+F6dD97FK5H4Xp0P3sUrkfhenQ/exSuR+F6dD97FK5H4Xp0P3sUrkfhenQ/exSuR+F6dD97FK5H4Xp0P3sUrkfhenQ/exSuR+F6dD97FK5H4Xp0P3sUrkfhenQ/exSuR+F6dD97FK5H4Xp0P3sUrkfhenQ/exSuR+F6dD97FK5H4Xp0P3sUrkfhenQ/exSuR+F6dD97FK5H4Xp0P3sUrkfhenQ/exSuR+F6dD97FK5H4Xp0P3sUrkfhenQ/",
            "phi_kde": {
                "data": "k05VTVBZAQB2AHsnZGVzY3InOiAnPGY4JywgJ2ZvcnRyYW5fb3JkZXInOiBGYWxzZSwgJ3NoYXBlJzogKDk3LCksIH0gICAgICAgICAgICAgICAgICAgICAgICAgICAgICAgICAgICAgICAgICAgICAgICAgICAgICAgICAgIAqeAjsS//IZwB2QzvlZtSTA2pN6c3UMIcDjngh2+H4kwJ7llZSI6BbAREIkPqwwF8Bf1N+g4kUdwMxPGYPZFiPAR7D3vV8TJMCqm+rQ+PEdwLogF3wCDSDAYBb8BQ5BIcCintbZM20dwDJPf9BnD/+/iitxEiOFI8C8pupoECIgwCLfOBXBWyPAS6ix1+0BIMDY5nNwnb0ewHbYfZ97ZB7AdvyxAPuwI8D+ATb/DcgjwHlpbP7U1xjAv/46LNp8JMALIYefm4sSwL1nAUWvJCHAKewJb4TpIcCVp8VkqdMkwCerhFPdiiPAS+vEo4zHIMD2PmhTBnAiwN0Cy+GnHSXAGsrCN7vBI8DdNvtRzMcjwIDIRRo9QiLA0VaSZqqqI8DAasYzMIgewIkZgzOMCyHAF+ZdNHc4I8AfTGiXZVUFwJb30AcE/B3Af61gHKukI8ARbC9qr1ojwDsfYYd1AiLA3QdEVv77IMDVMZfryZn8v8OP23agwSPAZlW3aZ1gF8AWJBjN5h0bwJGDuw7EXRrAY8uU8tP/IMDLAib3g44NwL906GT3fyTAZlmoF/xLHcAavdko1AUhwHdU0gHl9hTAMjSjwY4oEsCiQ00LGTMhwIn7FEB2QSTARStMXgAKEsDf68MhxVAiwEZ1Ijzz2h7AP8x2eYZ+IsAOSlhi4dD/v1XIpRCoJyPA+HxsSoPvGcCgm9s0+M8jwGgL03TwfCTAEFxqh0pyJMBjh4I1WzgjwLUrSM3ynSPALHUU4OK2JMC81JoV3RYjwAbb6twapB7AtBoi3gtdIsCJfjccyisiwBFW2HAg8BzAZTy378l/IsDebbJN7gEhwFwJB/qpXx7AdlgSJuCyIcCPjhkQUHkiwEfmGtzzxCPANjInuNBqIcDQATwof44jwGk/PS1erx/ADK3lsY1+IsBIITNzq8URwG3/REkh9B7A5nKagdL0E8BSAjovXiQgwPeOI4V/0SLARoE55n0hI8DahjEusOQhwKUyGEnbaB3A84kEwoQoJMDUCeurZ/wbwA==",
                "weights": "k05VTVBZAQB2AHsnZGVzY3InOiAnPGY4JywgJ2ZvcnRyYW5fb3JkZXInOiBGYWxzZSwgJ3NoYXBlJzogKDk3LCksIH0gICAgICAgICAgICAgICAgICAgICAgICAgICAgICAgICAgICAgICAgICAgICAgICAgICAgICAgICAgIAoV+OLqBx2FPxX44uoHHYU/Ffji6gcdhT8V+OLqBx2FPxX44uoHHYU/Ffji6gcdhT8V+OLqBx2FPxX44uoHHYU/Ffji6gcdhT8V+OLqBx2FPxX44uoHHYU/Ffji6gcdhT8V+OLqBx2FPxX44uoHHYU/Ffji6gcdhT8V+OLqBx2FPxX44uoHHYU/Ffji6gcdhT8V+OLqBx2FPxX44uoHHYU/Ffji6gcdhT8V+OLqBx2FPxX44uoHHYU/Ffji6gcdhT8V+OLqBx2FPxX44uoHHYU/Ffji6gcdhT8V+OLqBx2FPxX44uoHHYU/Ffji6gcdhT8V+OLqBx2FPxX44uoHHYU/Ffji6gcdhT8V+OLqBx2FPxX44uoHHYU/Ffji6gcdhT8V+OLqBx2FPxX44uoHHYU/Ffji6gcdhT8V+OLqBx2FPxX44uoHHYU/Ffji6gcdhT8V+OLqBx2FPxX44uoHHYU/Ffji6gcdhT8V+OLqBx2FPxX44uoHHYU/Ffji6gcdhT8V+OLqBx2FPxX44uoHHYU/Ffji6gcdhT8V+OLqBx2FPxX44uoHHYU/Ffji6gcdhT8V+OLqBx2FPxX44uoHHYU/Ffji6gcdhT8V+OLqBx2FPxX44uoHHYU/Ffji6gcdhT8V+OLqBx2FPxX44uoHHYU/Ffji6gcdhT8V+OLqBx2FPxX44uoHHYU/Ffji6gcdhT8V+OLqBx2FPxX44uoHHYU/Ffji6gcdhT8V+OLqBx2FPxX44uoHHYU/Ffji6gcdhT8V+OLqBx2FPxX44uoHHYU/Ffji6gcdhT8V+OLqBx2FPxX44uoHHYU/Ffji6gcdhT8V+OLqBx2FPxX44uoHHYU/Ffji6gcdhT8V+OLqBx2FPxX44uoHHYU/Ffji6gcdhT8V+OLqBx2FPxX44uoHHYU/Ffji6gcdhT8V+OLqBx2FPxX44uoHHYU/Ffji6gcdhT8V+OLqBx2FPxX44uoHHYU/Ffji6gcdhT8V+OLqBx2FPxX44uoHHYU/Ffji6gcdhT8V+OLqBx2FPw==",
                "bandwidth": 0.8605183235211648
            },
            "phi_weights": "k05VTVBZAQB2AHsnZGVzY3InOiAnPGY4JywgJ2ZvcnRyYW5fb3JkZXInOiBGYWxzZSwgJ3NoYXBlJzogKDIwMCwpLCB9ICAgICAgICAgICAgICAgICAgICAgICAgICAgICAgICAgICAgICAgICAgICAgICAgICAgICAgICAgIAp7FK5H4Xp0P3sUrkfhenQ/exSuR+F6dD97FK5H4Xp0P3sUrkfhenQ/exSuR+F6dD97FK5H4Xp0P3sUrkfhenQ/exSuR+F6dD97FK5H4Xp0P3sUrkfhenQ/exSuR+F6dD97FK5H4Xp0P3sUrkfhenQ/exSuR+F6dD97FK5H4Xp0P3sUrkfhenQ/exSuR+F6dD97FK5H4Xp0P3sUrkfhenQ/exSuR+F6dD97FK5H4Xp0P3sUrkfhenQ/exSuR+F6dD97FK5H4Xp0P3sUrkfhenQ/exSuR+F6dD97FK5H4Xp0P3sUrkfhenQ/exSuR+F6dD97FK5H4Xp0P3sUrkfhenQ/exSuR+F6dD97FK5H4Xp0P3sUrkfhenQ/exSuR+F6dD97FK5H4Xp0P3sUrkfhenQ/exSuR+F6dD97FK5H4Xp0P3sUrkfhenQ/exSuR+F6dD97FK5H4Xp0P3sUrkfhenQ/exSuR+F6dD97FK5H4Xp0P3sUrkfhenQ/exSuR+F6dD97FK5H4Xp0P3sUrkfhenQ/exSuR+F6dD97FK5H4Xp0P3sUrkfhenQ/exSuR+F6dD97FK5H4Xp0P3sUrkfhenQ/exSuR+F6dD97FK5H4Xp0P3sUrkfhenQ/exSuR+F6dD97FK5H4Xp0P3sUrkfhenQ/exSuR+F6dD97FK5H4Xp0P3sUrkfhenQ/exSuR+F6dD97FK5H4Xp0P3sUrkfhenQ/exSuR+F6dD97FK5H4Xp0P3sUrkfhenQ/exSuR+F6dD97FK5H4Xp0P3sUrkfhenQ/exSuR+F6dD97FK5H4Xp0P3sUrkfhenQ/exSuR+F6dD97FK5H4Xp0P3sUrkfhenQ/exSuR+F6dD97FK5H4Xp0P3sUrkfhenQ/exSuR+F6dD97FK5H4Xp0P3sUrkfhenQ/exSuR+F6dD97FK5H4Xp0P3sUrkfhenQ/exSuR+F6dD97FK5H4Xp0P3sUrkfhenQ/exSuR+F6dD97FK5H4Xp0P3sUrkfhenQ/exSuR+F6dD97FK5H4Xp0P3sUrkfhenQ/exSuR+F6dD97FK5H4Xp0P3sUrkfhenQ/exSuR+F6dD97FK5H4Xp0P3sUrkfhenQ/exSuR+F6dD97FK5H4Xp0P3sUrkfhenQ/exSuR+F6dD97FK5H4Xp0P3sUrkfhenQ/exSuR+F6dD97FK5H4Xp0P3sUrkfhenQ/exSuR+F6dD97FK5H4Xp0P3sUrkfhenQ/exSuR+F6dD97FK5H4Xp0P3sUrkfhenQ/exSuR+F6dD97FK5H4Xp0P3sUrkfhenQ/exSuR+F6dD97FK5H4Xp0P3sUrkfhenQ/exSuR+F6dD97FK5H4Xp0P3sUrkfhenQ/exSuR+F6dD97FK5H4Xp0P3sUrkfhenQ/exSuR+F6dD97FK5H4Xp0P3sUrkfhenQ/exSuR+F6dD97FK5H4Xp0P3sUrkfhenQ/exSuR+F6dD97FK5H4Xp0P3sUrkfhenQ/exSuR+F6dD97FK5H4Xp0P3sUrkfhenQ/exSuR+F6dD97FK5H4Xp0P3sUrkfhenQ/exSuR+F6dD97FK5H4Xp0P3sUrkfhenQ/exSuR+F6dD97FK5H4Xp0P3sUrkfhenQ/exSuR+F6dD97FK5H4Xp0P3sUrkfhenQ/exSuR+F6dD97FK5H4Xp0P3sUrkfhenQ/exSuR+F6dD97FK5H4Xp0P3sUrkfhenQ/exSuR+F6dD97FK5H4Xp0P3sUrkfhenQ/exSuR+F6dD97FK5H4Xp0P3sUrkfhenQ/exSuR+F6dD97FK5H4Xp0P3sUrkfhenQ/exSuR+F6dD97FK5H4Xp0P3sUrkfhenQ/exSuR+F6dD97FK5H4Xp0P3sUrkfhenQ/exSuR+F6dD97FK5H4Xp0P3sUrkfhenQ/exSuR+F6dD97FK5H4Xp0P3sUrkfhenQ/exSuR+F6dD97FK5H4Xp0P3sUrkfhenQ/exSuR+F6dD97FK5H4Xp0P3sUrkfhenQ/exSuR+F6dD97FK5H4Xp0P3sUrkfhenQ/exSuR+F6dD97FK5H4Xp0P3sUrkfhenQ/exSuR+F6dD97FK5H4Xp0P3sUrkfhenQ/exSuR+F6dD97FK5H4Xp0P3sUrkfhenQ/"
        },
        "FUS-GMI": {
            "theta_kde": {
                "data": "k05VTVBZAQB2AHsnZGVzY3InOiAnPGY4JywgJ2ZvcnRyYW5fb3JkZXInOiBGYWxzZSwgJ3NoYXBlJzogKDk1LCksIH0gICAgICAgICAgICAgICAgICAgICAgICAgICAgICAgICAgICAgICAgICAgICAgICAgICAgICAgICAgIArr4447cerkP6gQzBtYaeQ/83mwSWwR5D+EgrOwFsjmP6jGSPSpeuY/RsMY/Wmg4z8hUFoXCKzmP39HjUBRi+M/Lxz7tz7l4z/CpcckOpblP2Nex3/ng+M/R02KOiMe4z/2dYr69hvjP07SS9aCJeY/IMk/xyJw4z9hkqd6EijkPyZ2Y1fQw+U/e8VniVUd4z8tBH44ff3lP//1Vf+xVug/rt9hgc+g5T+j/PrEKaHlPw3suFoho+M/BMvmQOj94j/EprmoxqXjP42KqOcXW+Q/i/AAIC9t5D/c6j/dejzmP/OhP5LNW+U/nVztIHdK5T/FX4E4rADmP/inqCuS1eU/WQDC1SV75T+0tB044OLjP1cOEjkf5OU/vMx1H03C5j+XGxsRu9zjPy0/deCs1eM/tbAofHQI5j+euG/u6p/jPzVxcuoWjeM/AV5XgBmu5T96Cb1dqrrlP/KdHIofS+c/rupd1Htj5D81JJSATMTkP3LDihYxh+U/7Nyt+XZn5D8TEBA/yvrlPwzrb1gQ8+U/gROa+plN4z+l9GN3X7LkP3Ryno2T9OM/N48MYuhl4z9tZg2zeIjkP59IqJs33eY/BXVdI+pa4z/WuwqksLjlPx9KVZe0p+M/EYB33Rso5D/0rGVd9fXiP7cRgjQ6auM/lSgi5FzE5T8sXxCZXYvlP6X3LwLs6uM/Ww/rqssl4z+p4PfSk+/lP+rAQqts9OQ/qKbxutDP6T8Av62hyBbjPw0Pmt4nEuM/ixkBDV0b4z/WojjvTaLkPwx+mWb17+M/QUlBgQut4z+BmTZbwQfjPy0Q+SjqLec/SjWWwCs/5D9zIALt5iHlPw41hF8SFOU/kQU5s8TV4z8EtuFMESjkP/Pug2RwW+Y/7RdoqPS+4z8/ddcPVqDjP6xCRzZQy+M/WpgDpm0L5D+i7dFaH/3kPwYD3fMSyuU/fNHCnNuC4z+XrgTzboXmP9C063hZoOM/eXwm3tN15z//HkfvONrmP0x3dgO0zOU/",
                "weights": "k05VTVBZAQB2AHsnZGVzY3InOiAnPGY4JywgJ2ZvcnRyYW5fb3JkZXInOiBGYWxzZSwgJ3NoYXBlJzogKDk1LCksIH0gICAgICAgICAgICAgICAgICAgICAgICAgICAgICAgICAgICAgICAgICAgICAgICAgICAgICAgICAgIArtWIEw0o6FP+1YgTDSjoU/7ViBMNKOhT/tWIEw0o6FP+1YgTDSjoU/7ViBMNKOhT/tWIEw0o6FP+1YgTDSjoU/7ViBMNKOhT/tWIEw0o6FP+1YgTDSjoU/7ViBMNKOhT/tWIEw0o6FP+1YgTDSjoU/7ViBMNKOhT/tWIEw0o6FP+1YgTDSjoU/7ViBMNKOhT/tWIEw0o6FP+1YgTDSjoU/7ViBMNKOhT/tWIEw0o6FP+1YgTDSjoU/7ViBMNKOhT/tWIEw0o6FP+1YgTDSjoU/7ViBMNKOhT/tWIEw0o6FP+1YgTDSjoU/7ViBMNKOhT/tWIEw0o6FP+1YgTDSjoU/7ViBMNKOhT/tWIEw0o6FP+1YgTDSjoU/7ViBMNKOhT/tWIEw0o6FP+1YgTDSjoU/7ViBMNKOhT/tWIEw0o6FP+1YgTDSjoU/7ViBMNKOhT/tWIEw0o6FP+1YgTDSjoU/7ViBMNKOhT/tWIEw0o6FP+1YgTDSjoU/7ViBMNKOhT/tWIEw0o6FP+1YgTDSjoU/7ViBMNKOhT/tWIEw0o6FP+1YgTDSjoU/7ViBMNKOhT/tWIEw0o6FP+1YgTDSjoU/7ViBMNKOhT/tWIEw0o6FP+1YgTDSjoU/7ViBMNKOhT/tWIEw0o6FP+1YgTDSjoU/7ViBMNKOhT/tWIEw0o6FP+1YgTDSjoU/7ViBMNKOhT/tWIEw0o6FP+1YgTDSjoU/7ViBMNKOhT/tWIEw0o6FP+1YgTDSjoU/7ViBMNKOhT/tWIEw0o6FP+1YgTDSjoU/7ViBMNKOhT/tWIEw0o6FP+1YgTDSjoU/7ViBMNKOhT/tWIEw0o6FP+1YgTDSjoU/7ViBMNKOhT/tWIEw0o6FP+1YgTDSjoU/7ViBMNKOhT/tWIEw0o6FP+1YgTDSjoU/7ViBMNKOhT/tWIEw0o6FP+1YgTDSjoU/7ViBMNKOhT/tWIEw0o6FP+1YgTDSjoU/7ViBMNKOhT/tWIEw0o6FP+1YgTDSjoU/",
                "bandwidth": 0.018283430087503768
            },
            "theta_weights": "k05VTVBZAQB2AHsnZGVzY3InOiAnPGY4JywgJ2ZvcnRyYW5fb3JkZXInOiBGYWxzZSwgJ3NoYXBlJzogKDIwMCwpLCB9ICAgICAgICAgICAgICAgICAgICAgICAgICAgICAgICAgICAgICAgICAgICAgICAgICAgICAgICAgIAp7FK5H4Xp0P3sUrkfhenQ/exSuR+F6dD97FK5H4Xp0P3sUrkfhenQ/exSuR+F6dD97FK5H4Xp0P3sUrkfhenQ/exSuR+F6dD97FK5H4Xp0P3sUrkfhenQ/exSuR+F6dD97FK5H4Xp0P3sUrkfhenQ/exSuR+F6dD97FK5H4Xp0P3sUrkfhenQ/exSuR+F6dD97FK5H4Xp0P3sUrkfhenQ/exSuR+F6dD97FK5H4Xp0P3sUrkfhenQ/exSuR+F6dD97FK5H4Xp0P3sUrkfhenQ/exSuR+F6dD97FK5H4Xp0P3sUrkfhenQ/exSuR+F6dD97FK5H4Xp0P3sUrkfhenQ/exSuR+F6dD97FK5H4Xp0P3sUrkfhenQ/exSuR+F6dD97FK5H4Xp0P3sUrkfhenQ/exSuR+F6dD97FK5H4Xp0P3sUrkfhenQ/exSuR+F6dD97FK5H4Xp0P3sUrkfhenQ/exSuR+F6dD97FK5H4Xp0P3sUrkfhenQ/exSuR+F6dD97FK5H4Xp0P3sUrkfhenQ/exSuR+F6dD97FK5H4Xp0P3sUrkfhenQ/exSuR+F6dD97FK5H4Xp0P3sUrkfhenQ/exSuR+F6dD97FK5H4Xp0P3sUrkfhenQ/exSuR+F6dD97FK5H4Xp0P3sUrkfhenQ/exSuR+F6dD97FK5H4Xp0P3sUrkfhenQ/exSuR+F6dD97FK5H4Xp0P3sUrkfhenQ/exSuR+F6dD97FK5H4Xp0P3sUrkfhenQ/exSuR+F6dD97FK5H4Xp0P3sUrkfhenQ/exSuR+F6dD97FK5H4Xp0P3sUrkfhenQ/exSuR+F6dD97FK5H4Xp0P3sUrkfhenQ/exSuR+F6dD97FK5H4Xp0P3sUrkfhenQ/exSuR+F6dD97FK5H4Xp0P3sUrkfhenQ/exSuR+F6dD97FK5H4Xp0P3sUrkfhenQ/exSuR+F6dD97FK5H4Xp0P3sUrkfhenQ/exSuR+F6dD97FK5H4Xp0P3sUrkfhenQ/exSuR+F6dD97FK5H4Xp0P3sUrkfhenQ/exSuR+F6dD97FK5H4Xp0P3sUrkfhenQ/exSuR+F6dD97FK5H4Xp0P3sUrkfhenQ/exSuR+F6dD97FK5H4Xp0P3sUrkfhenQ/exSuR+F6dD97FK5H4Xp0P3sUrkfhenQ/exSuR+F6dD97FK5H4Xp0P3sUrkfhenQ/exSuR+F6dD97FK5H4Xp0P3sUrkfhenQ/exSuR+F6dD97FK5H4Xp0P3sUrkfhenQ/exSuR+F6dD97FK5H4Xp0P3sUrkfhenQ/exSuR+F6dD97FK5H4Xp0P3sUrkfhenQ/exSuR+F6dD97FK5H4Xp0P3sUrkfhenQ/exSuR+F6dD97FK5H4Xp0P3sUrkfhenQ/exSuR+F6dD97FK5H4Xp0P3sUrkfhenQ/exSuR+F6dD97FK5H4Xp0P3sUrkfhenQ/exSuR+F6dD97FK5H4Xp0P3sUrkfhenQ/exSuR+F6dD97FK5H4Xp0P3sUrkfhenQ/exSuR+F6dD97FK5H4Xp0P3sUrkfhenQ/exSuR+F6dD97FK5H4Xp0P3sUrkfhenQ/exSuR+F6dD97FK5H4Xp0P3sUrkfhenQ/exSuR+F6dD97FK5H4Xp0P3sUrkfhenQ/exSuR+F6dD97FK5H4Xp0P3sUrkfhenQ/exSuR+F6dD97FK5H4Xp0P3sUrkfhenQ/exSuR+F6dD97FK5H4Xp0P3sUrkfhenQ/exSuR+F6dD97FK5H4Xp0P3sUrkfhenQ/exSuR+F6dD97FK5H4Xp0P3sUrkfhenQ/exSuR+F6dD97FK5H4Xp0P3sUrkfhenQ/exSuR+F6dD97FK5H4Xp0P3sUrkfhenQ/exSuR+F6dD97FK5H4Xp0P3sUrkfhenQ/exSuR+F6dD97FK5H4Xp0P3sUrkfhenQ/exSuR+F6dD97FK5H4Xp0P3sUrkfhenQ/exSuR+F6dD97FK5H4Xp0P3sUrkfhenQ/exSuR+F6dD97FK5H4Xp0P3sUrkfhenQ/exSuR+F6dD97FK5H4Xp0P3sUrkfhenQ/exSuR+F6dD97FK5H4Xp0P3sUrkfhenQ/exSuR+F6dD97FK5H4Xp0P3sUrkfhenQ/",
            "phi_kde": {
                "data": "k05VTVBZAQB2AHsnZGVzY3InOiAnPGY4JywgJ2ZvcnRyYW5fb3JkZXInOiBGYWxzZSwgJ3NoYXBlJzogKDEwNSwpLCB9ICAgICAgICAgICAgICAgICAgICAgICAgICAgICAgICAgICAgICAgICAgICAgICAgICAgICAgICAgIAomCf1EiPXhP9WNKlYyM+I/4ma559/G3T/zA6XKlkTgP8vKDu0FleE/Tgr+E1qJ4j/vIIt2g3PgP7uSmfyQkeE/IWie3xzU4j+hz7Z/W5ziP9pi4h+P7d8/ps7GMxNZ4j/qD/sSrsfiP5vqHNxbPeE/asu0Gvsv3j9ID2ARdTHhPy932IsZmuA/Q/5YhGPu4T8MMjKxJJDhPy+19aW2mdw/HAxQbNbJ3z9k86d5X1viPyHz2h5H4t8/tKm45ZeK4D8EJQtNKePhP5sYsKaDnOE/O3/BCVB24D8SfJOTN3LdP8KK89XZtOE/zNpjbust4T/KWa6bIyXhP+hmsoGItuE/iLp3OczA4T/jZaAfqqfiP2kdmkIBBt4/YM2wAAct4j+I4AKrS/zbP93OmrXvOOE/76/fRJQT4D9MLejWpsPePwVRYuBar+E/kWTc4o+Z4D+GdPDSG/ThP0gsHpI3rt0/Tjz32AzP4T98VEq5xSfiP9nj+0IMLeA/clkuT6bf3z8nsalewX3fP66RaYVHPuE/lEE1xka13T/ygyrdPa7iP9Ek2Td/G94/whtQdHbF3j8+ZaLdwgriPzx+I62RauI/cuvUOFj73z97wyOVeuTiP4I/jxI2FOE/aJuBQ7Yt4j/QahUM+B/hPxtKPm8D+98/oc3ezBJi3z9YmDVygvPhP7wigoQAF+I/YDskw1hz3j9MYPyo4fHdP0VyxtyMS+I/Ieyfo1gA4j9fIU+MLGXhP476AR7ocd8/6OGTmAlW4j/hiPN9JKriPyMRinsGT98/su/xkoO84j/S9NXqhCrgPwRuB1KQFOA/Xttxled83T/wCdCFYDnhP+2kBmWqNN4/1s1B/0G64j/yZ0vY1drfP7B7K3hBzuI/uFrssITX4T9Jxw+to/PgP/e5msaBj+I/s1nagozb4D/uPOdcSRbgP4/AihF6p+I/XzsCo9dp4j9M6fFwawbgP5Mt7ny3NeE/e2ANdtG94j9vdsXSlLniP+3qDq0pVuE/NU+E9niF4D/gcNZNTLfhP380HhWGy+E/V3UVQa332j/ld5gNkDzhP+hiODxl+eA/LCsLQXIG3z8ZhuUz4eLgP1z91qNWt+I/e+ndem1p4j8=",
                "weights": "k05VTVBZAQB2AHsnZGVzY3InOiAnPGY4JywgJ2ZvcnRyYW5fb3JkZXInOiBGYWxzZSwgJ3NoYXBlJzogKDEwNSwpLCB9ICAgICAgICAgICAgICAgICAgICAgICAgICAgICAgICAgICAgICAgICAgICAgICAgICAgICAgICAgIAoUOIETOIGDPxQ4gRM4gYM/FDiBEziBgz8UOIETOIGDPxQ4gRM4gYM/FDiBEziBgz8UOIETOIGDPxQ4gRM4gYM/FDiBEziBgz8UOIETOIGDPxQ4gRM4gYM/FDiBEziBgz8UOIETOIGDPxQ4gRM4gYM/FDiBEziBgz8UOIETOIGDPxQ4gRM4gYM/FDiBEziBgz8UOIETOIGDPxQ4gRM4gYM/FDiBEziBgz8UOIETOIGDPxQ4gRM4gYM/FDiBEziBgz8UOIETOIGDPxQ4gRM4gYM/FDiBEziBgz8UOIETOIGDPxQ4gRM4gYM/FDiBEziBgz8UOIETOIGDPxQ4gRM4gYM/FDiBEziBgz8UOIETOIGDPxQ4gRM4gYM/FDiBEziBgz8UOIETOIGDPxQ4gRM4gYM/FDiBEziBgz8UOIETOIGDPxQ4gRM4gYM/FDiBEziBgz8UOIETOIGDPxQ4gRM4gYM/FDiBEziBgz8UOIETOIGDPxQ4gRM4gYM/FDiBEziBgz8UOIETOIGDPxQ4gRM4gYM/FDiBEziBgz8UOIETOIGDPxQ4gRM4gYM/FDiBEziBgz8UOIETOIGDPxQ4gRM4gYM/FDiBEziBgz8UOIETOIGDPxQ4gRM4gYM/FDiBEziBgz8UOIETOIGDPxQ4gRM4gYM/FDiBEziBgz8UOIETOIGDPxQ4gRM4gYM/FDiBEziBgz8UOIETOIGDPxQ4gRM4gYM/FDiBEziBgz8UOIETOIGDPxQ4gRM4gYM/FDiBEziBgz8UOIETOIGDPxQ4gRM4gYM/FDiBEziBgz8UOIETOIGDPxQ4gRM4gYM/FDiBEziBgz8UOIETOIGDPxQ4gRM4gYM/FDiBEziBgz8UOIETOIGDPxQ4gRM4gYM/FDiBEziBgz8UOIETOIGDPxQ4gRM4gYM/FDiBEziBgz8UOIETOIGDPxQ4gRM4gYM/FDiBEziBgz8UOIETOIGDPxQ4gRM4gYM/FDiBEziBgz8UOIETOIGDPxQ4gRM4gYM/FDiBEziBgz8UOIETOIGDPxQ4gRM4gYM/FDiBEziBgz8UOIETOIGDPxQ4gRM4gYM/FDiBEziBgz8UOIETOIGDPxQ4gRM4gYM/FDiBEziBgz8=",
                "bandwidth": 0.01723996251956798
            },
            "phi_weights": "k05VTVBZAQB2AHsnZGVzY3InOiAnPGY4JywgJ2ZvcnRyYW5fb3JkZXInOiBGYWxzZSwgJ3NoYXBlJzogKDIwMCwpLCB9ICAgICAgICAgICAgICAgICAgICAgICAgICAgICAgICAgICAgICAgICAgICAgICAgICAgICAgICAgIAp7FK5H4Xp0P3sUrkfhenQ/exSuR+F6dD97FK5H4Xp0P3sUrkfhenQ/exSuR+F6dD97FK5H4Xp0P3sUrkfhenQ/exSuR+F6dD97FK5H4Xp0P3sUrkfhenQ/exSuR+F6dD97FK5H4Xp0P3sUrkfhenQ/exSuR+F6dD97FK5H4Xp0P3sUrkfhenQ/exSuR+F6dD97FK5H4Xp0P3sUrkfhenQ/exSuR+F6dD97FK5H4Xp0P3sUrkfhenQ/exSuR+F6dD97FK5H4Xp0P3sUrkfhenQ/exSuR+F6dD97FK5H4Xp0P3sUrkfhenQ/exSuR+F6dD97FK5H4Xp0P3sUrkfhenQ/exSuR+F6dD97FK5H4Xp0P3sUrkfhenQ/exSuR+F6dD97FK5H4Xp0P3sUrkfhenQ/exSuR+F6dD97FK5H4Xp0P3sUrkfhenQ/exSuR+F6dD97FK5H4Xp0P3sUrkfhenQ/exSuR+F6dD97FK5H4Xp0P3sUrkfhenQ/exSuR+F6dD97FK5H4Xp0P3sUrkfhenQ/exSuR+F6dD97FK5H4Xp0P3sUrkfhenQ/exSuR+F6dD97FK5H4Xp0P3sUrkfhenQ/exSuR+F6dD97FK5H4Xp0P3sUrkfhenQ/exSuR+F6dD97FK5H4Xp0P3sUrkfhenQ/exSuR+F6dD97FK5H4Xp0P3sUrkfhenQ/exSuR+F6dD97FK5H4Xp0P3sUrkfhenQ/exSuR+F6dD97FK5H4Xp0P3sUrkfhenQ/exSuR+F6dD97FK5H4Xp0P3sUrkfhenQ/exSuR+F6dD97FK5H4Xp0P3sUrkfhenQ/exSuR+F6dD97FK5H4Xp0P3sUrkfhenQ/exSuR+F6dD97FK5H4Xp0P3sUrkfhenQ/exSuR+F6dD97FK5H4Xp0P3sUrkfhenQ/exSuR+F6dD97FK5H4Xp0P3sUrkfhenQ/exSuR+F6dD97FK5H4Xp0P3sUrkfhenQ/exSuR+F6dD97FK5H4Xp0P3sUrkfhenQ/exSuR+F6dD97FK5H4Xp0P3sUrkfhenQ/exSuR+F6dD97FK5H4Xp0P3sUrkfhenQ/exSuR+F6dD97FK5H4Xp0P3sUrkfhenQ/exSuR+F6dD97FK5H4Xp0P3sUrkfhenQ/exSuR+F6dD97FK5H4Xp0P3sUrkfhenQ/exSuR+F6dD97FK5H4Xp0P3sUrkfhenQ/exSuR+F6dD97FK5H4Xp0P3sUrkfhenQ/exSuR+F6dD97FK5H4Xp0P3sUrkfhenQ/exSuR+F6dD97FK5H4Xp0P3sUrkfhenQ/exSuR+F6dD97FK5H4Xp0P3sUrkfhenQ/exSuR+F6dD97FK5H4Xp0P3sUrkfhenQ/exSuR+F6dD97FK5H4Xp0P3sUrkfhenQ/exSuR+F6dD97FK5H4Xp0P3sUrkfhenQ/exSuR+F6dD97FK5H4Xp0P3sUrkfhenQ/exSuR+F6dD97FK5H4Xp0P3sUrkfhenQ/exSuR+F6dD97FK5H4Xp0P3sUrkfhenQ/exSuR+F6dD97FK5H4Xp0P3sUrkfhenQ/exSuR+F6dD97FK5H4Xp0P3sUrkfhenQ/exSuR+F6dD97FK5H4Xp0P3sUrkfhenQ/exSuR+F6dD97FK5H4Xp0P3sUrkfhenQ/exSuR+F6dD97FK5H4Xp0P3sUrkfhenQ/exSuR+F6dD97FK5H4Xp0P3sUrkfhenQ/exSuR+F6dD97FK5H4Xp0P3sUrkfhenQ/exSuR+F6dD97FK5H4Xp0P3sUrkfhenQ/exSuR+F6dD97FK5H4Xp0P3sUrkfhenQ/exSuR+F6dD97FK5H4Xp0P3sUrkfhenQ/exSuR+F6dD97FK5H4Xp0P3sUrkfhenQ/exSuR+F6dD97FK5H4Xp0P3sUrkfhenQ/exSuR+F6dD97FK5H4Xp0P3sUrkfhenQ/exSuR+F6dD97FK5H4Xp0P3sUrkfhenQ/exSuR+F6dD97FK5H4Xp0P3sUrkfhenQ/exSuR+F6dD97FK5H4Xp0P3sUrkfhenQ/exSuR+F6dD97FK5H4Xp0P3sUrkfhenQ/exSuR+F6dD97FK5H4Xp0P3sUrkfhenQ/exSuR+F6dD97FK5H4Xp0P3sUrkfhenQ/"
        },
        "HIP-FCI": {
            "theta_kde": {
                "data": "k05VTVBZAQB2AHsnZGVzY3InOiAnPGY4JywgJ2ZvcnRyYW5fb3JkZXInOiBGYWxzZSwgJ3NoYXBlJzogKDEzNCwpLCB9ICAgICAgICAgICAgICAgICAgICAgICAgICAgICAgICAgICAgICAgICAgICAgICAgICAgICAgICAgIAq/CD+G39ATwOgsdc6HXQzAljRE3nYlDcAo8kVHh+AWwDcdr0zqzhbA4GYPHbX1F8AHR9vpO5oTwOYSZLm8VhzAecP0Ke2pHsCmXuuI9ZodwO1UabfPsBjApHj1GV6kBMC2FFANsxYTwJ/15EtsfBXAaoN15aU1HMD66slcSWkawP3LurIg0RLAgRvDY32ZG8DQy8T971IUwJIRqqq+tgrAbEgZ8BqTE8BkoSUwfK4HwPLfmfkJeRDAoOOYIseXGsB3W9ymul0XwMM6JlO9oRjAzHZvxLG0FcA2WHDq808OwKYD4wYUoBbAsGmfD2RK9r/07HXVtYAgwDrBsWEQ9gDAF6raKzJ9IcDGqpAypeESwO1lYPKQ8hfAE8bSpPnuFMCYSOJFPrsdwBIeEAJskSLAMrDcXW4vFsCcw5wdZXALwF4yYTRs8AjALDTA20XgD8CETIA6I6YIwFNSdCuQ/BDAYrqXxUmDFMCBB3dZL6kawA2gdsk9HRXABga7lW8CFsBuPXOf/0f5vzjEjLJ5txnATwJVoCTFHsC0rwxWHpMiwBTtaFN95BHAkIJ6M4ARG8Bd5DPwtKgSwJI+OdUQqB3AahmkSRWNBMBOBTYrdCMVwOszXGdSXBvAGZhDhjcHE8Duxr5gdQ0LwCW1Ton39Q3AaPNENXJmFMANQqsuuHIQwHubWLxqoxPAy1SbXFISFcDowFnQfSf2vyLOLb7jFxbAUD0DaB62EsAqWJOsUZUZwG1Tg54ChyLAdjhACVeKDMCaZleJ3PUSwGpJQZmDaRTAzF52gcCQHMBdi3pxDQkhwNlz9fhsmfO/df7XRiyTEcCqzlVG553+v5ye3X2QQxPAHtW3HksaGsDSGO/FawUWwBJlR8b6exjAdGJTZ8RAE8An3jd7SIUWwM7Y7KWAfhvAYjfAqcNwDMBj+bVmFGERwDW+OHxlPBPAKil7UfQPFcB2TzWOMPYQwOtSK301+R3ASJN8xahzCMDeRHyDOAEHwNjLor0PrRnAwvLmDVTuEMCWd2VidkccwKoks9YFnxTAbANr1c5ZDMD9EV5xs84ZwBCQeRITbgPAC+WyeOWrEsDO6ss21nIQwFhDMkoK7RbAaOxf9T2pEsDSAl/bzNoPwJiUJBe9mAXA8GZAyE095b8meH35gwAbwDahT/+Z3RzAgEj4HPqAA8D4IqBir6wPwG6fiSHBqhbAOvDTrKS8FMB6rTTL/wkHwNS2JNGWJArA/b3ewXm6D8BN+NJbbU4NwOeTjhssiRnAFs1uiabuFsBqjHiXTukewFqH/nqKsAvAiYjg3GzN9L/4+9pwpLMYwFCQaLRMGQ/AlpTKwMYyGsBoxx1zW6USwA1FMI5XDSDAsgCYxTqjCMDtG42yJXsRwPlH6PWaXxDAriD+SsfVB8DLZVH8as8SwN1fIpNb9xHA",
                "weights": "k05VTVBZAQB2AHsnZGVzY3InOiAnPGY4JywgJ2ZvcnRyYW5fb3JkZXInOiBGYWxzZSwgJ3NoYXBlJzogKDEzNCwpLCB9ICAgICAgICAgICAgICAgICAgICAgICAgICAgICAgICAgICAgICAgICAgICAgICAgICAgICAgICAgIApnt/CrMZF+P2e38KsxkX4/Z7fwqzGRfj9nt/CrMZF+P2e38KsxkX4/Z7fwqzGRfj9nt/CrMZF+P2e38KsxkX4/Z7fwqzGRfj9nt/CrMZF+P2e38KsxkX4/Z7fwqzGRfj9nt/CrMZF+P2e38KsxkX4/Z7fwqzGRfj9nt/CrMZF+P2e38KsxkX4/Z7fwqzGRfj9nt/CrMZF+P2e38KsxkX4/Z7fwqzGRfj9nt/CrMZF+P2e38KsxkX4/Z7fwqzGRfj9nt/CrMZF+P2e38KsxkX4/Z7fwqzGRfj9nt/CrMZF+P2e38KsxkX4/Z7fwqzGRfj9nt/CrMZF+P2e38KsxkX4/Z7fwqzGRfj9nt/CrMZF+P2e38KsxkX4/Z7fwqzGRfj9nt/CrMZF+P2e38KsxkX4/Z7fwqzGRfj9nt/CrMZF+P2e38KsxkX4/Z7fwqzGRfj9nt/CrMZF+P2e38KsxkX4/Z7fwqzGRfj9nt/CrMZF+P2e38KsxkX4/Z7fwqzGRfj9nt/CrMZF+P2e38KsxkX4/Z7fwqzGRfj9nt/CrMZF+P2e38KsxkX4/Z7fwqzGRfj9nt/CrMZF+P2e38KsxkX4/Z7fwqzGRfj9nt/CrMZF+P2e38KsxkX4/Z7fwqzGRfj9nt/CrMZF+P2e38KsxkX4/Z7fwqzGRfj9nt/CrMZF+P2e38KsxkX4/Z7fwqzGRfj9nt/CrMZF+P2e38KsxkX4/Z7fwqzGRfj9nt/CrMZF+P2e38KsxkX4/Z7fwqzGRfj9nt/CrMZF+P2e38KsxkX4/Z7fwqzGRfj9nt/CrMZF+P2e38KsxkX4/Z7fwqzGRfj9nt/CrMZF+P2e38KsxkX4/Z7fwqzGRfj9nt/CrMZF+P2e38KsxkX4/Z7fwqzGRfj9nt/CrMZF+P2e38KsxkX4/Z7fwqzGRfj9nt/CrMZF+P2e38KsxkX4/Z7fwqzGRfj9nt/CrMZF+P2e38KsxkX4/Z7fwqzGRfj9nt/CrMZF+P2e38KsxkX4/Z7fwqzGRfj9nt/CrMZF+P2e38KsxkX4/Z7fwqzGRfj9nt/CrMZF+P2e38KsxkX4/Z7fwqzGRfj9nt/CrMZF+P2e38KsxkX4/Z7fwqzGRfj9nt/CrMZF+P2e38KsxkX4/Z7fwqzGRfj9nt/CrMZF+P2e38KsxkX4/Z7fwqzGRfj9nt/CrMZF+P2e38KsxkX4/Z7fwqzGRfj9nt/CrMZF+P2e38KsxkX4/Z7fwqzGRfj9nt/CrMZF+P2e38KsxkX4/Z7fwqzGRfj9nt/CrMZF+P2e38KsxkX4/Z7fwqzGRfj9nt/CrMZF+P2e38KsxkX4/Z7fwqzGRfj9nt/CrMZF+P2e38KsxkX4/Z7fwqzGRfj9nt/CrMZF+P2e38KsxkX4/Z7fwqzGRfj9nt/CrMZF+P2e38KsxkX4/",
                "bandwidth": 0.7104419758338011
            },
            "theta_weights": "k05VTVBZAQB2AHsnZGVzY3InOiAnPGY4JywgJ2ZvcnRyYW5fb3JkZXInOiBGYWxzZSwgJ3NoYXBlJzogKDIwMCwpLCB9ICAgICAgICAgICAgICAgICAgICAgICAgICAgICAgICAgICAgICAgICAgICAgICAgICAgICAgICAgIAp7FK5H4Xp0P3sUrkfhenQ/exSuR+F6dD97FK5H4Xp0P3sUrkfhenQ/exSuR+F6dD97FK5H4Xp0P3sUrkfhenQ/exSuR+F6dD97FK5H4Xp0P3sUrkfhenQ/exSuR+F6dD97FK5H4Xp0P3sUrkfhenQ/exSuR+F6dD97FK5H4Xp0P3sUrkfhenQ/exSuR+F6dD97FK5H4Xp0P3sUrkfhenQ/exSuR+F6dD97FK5H4Xp0P3sUrkfhenQ/exSuR+F6dD97FK5H4Xp0P3sUrkfhenQ/exSuR+F6dD97FK5H4Xp0P3sUrkfhenQ/exSuR+F6dD97FK5H4Xp0P3sUrkfhenQ/exSuR+F6dD97FK5H4Xp0P3sUrkfhenQ/exSuR+F6dD97FK5H4Xp0P3sUrkfhenQ/exSuR+F6dD97FK5H4Xp0P3sUrkfhenQ/exSuR+F6dD97FK5H4Xp0P3sUrkfhenQ/exSuR+F6dD97FK5H4Xp0P3sUrkfhenQ/exSuR+F6dD97FK5H4Xp0P3sUrkfhenQ/exSuR+F6dD97FK5H4Xp0P3sUrkfhenQ/exSuR+F6dD97FK5H4Xp0P3sUrkfhenQ/exSuR+F6dD97FK5H4Xp0P3sUrkfhenQ/exSuR+F6dD97FK5H4Xp0P3sUrkfhenQ/exSuR+F6dD97FK5H4Xp0P3sUrkfhenQ/exSuR+F6dD97FK5H4Xp0P3sUrkfhenQ/exSuR+F6dD97FK5H4Xp0P3sUrkfhenQ/exSuR+F6dD97FK5H4Xp0P3sUrkfhenQ/exSuR+F6dD97FK5H4Xp0P3sUrkfhenQ/exSuR+F6dD97FK5H4Xp0P3sUrkfhenQ/exSuR+F6dD97FK5H4Xp0P3sUrkfhenQ/exSuR+F6dD97FK5H4Xp0P3sUrkfhenQ/exSuR+F6dD97FK5H4Xp0P3sUrkfhenQ/exSuR+F6dD97FK5H4Xp0P3sUrkfhenQ/exSuR+F6dD97FK5H4Xp0P3sUrkfhenQ/exSuR+F6dD97FK5H4Xp0P3sUrkfhenQ/exSuR+F6dD97FK5H4Xp0P3sUrkfhenQ/exSuR+F6dD97FK5H4Xp0P3sUrkfhenQ/exSuR+F6dD97FK5H4Xp0P3sUrkfhenQ/exSuR+F6dD97FK5H4Xp0P3sUrkfhenQ/exSuR+F6dD97FK5H4Xp0P3sUrkfhenQ/exSuR+F6dD97FK5H4Xp0P3sUrkfhenQ/exSuR+F6dD97FK5H4Xp0P3sUrkfhenQ/exSuR+F6dD97FK5H4Xp0P3sUrkfhenQ/exSuR+F6dD97FK5H4Xp0P3sUrkfhenQ/exSuR+F6dD97FK5H4Xp0P3sUrkfhenQ/exSuR+F6dD97FK5H4Xp0P3sUrkfhenQ/exSuR+F6dD97FK5H4Xp0P3sUrkfhenQ/exSuR+F6dD97FK5H4Xp0P3sUrkfhenQ/exSuR+F6dD97FK5H4Xp0P3sUrkfhenQ/exSuR+F6dD97FK5H4Xp0P3sUrkfhenQ/exSuR+F6dD97FK5H4Xp0P3sUrkfhenQ/exSuR+F6dD97FK5H4Xp0P3sUrkfhenQ/exSuR+F6dD97FK5H4Xp0P3sUrkfhenQ/exSuR+F6dD97FK5H4Xp0P3sUrkfhenQ/exSuR+F6dD97FK5H4Xp0P3sUrkfhenQ/exSuR+F6dD97FK5H4Xp0P3sUrkfhenQ/exSuR+F6dD97FK5H4Xp0P3sUrkfhenQ/exSuR+F6dD97FK5H4Xp0P3sUrkfhenQ/exSuR+F6dD97FK5H4Xp0P3sUrkfhenQ/exSuR+F6dD97FK5H4Xp0P3sUrkfhenQ/exSuR+F6dD97FK5H4Xp0P3sUrkfhenQ/exSuR+F6dD97FK5H4Xp0P3sUrkfhenQ/exSuR+F6dD97FK5H4Xp0P3sUrkfhenQ/exSuR+F6dD97FK5H4Xp0P3sUrkfhenQ/exSuR+F6dD97FK5H4Xp0P3sUrkfhenQ/exSuR+F6dD97FK5H4Xp0P3sUrkfhenQ/exSuR+F6dD97FK5H4Xp0P3sUrkfhenQ/exSuR+F6dD97FK5H4Xp0P3sUrkfhenQ/exSuR+F6dD97FK5H4Xp0P3sUrkfhenQ/",
            "phi_kde": {
                "data": "k05VTVBZAQB2AHsnZGVzY3InOiAnPGY4JywgJ2ZvcnRyYW5fb3JkZXInOiBGYWxzZSwgJ3NoYXBlJzogKDY2LCksIH0gICAgICAgICAgICAgICAgICAgICAgICAgICAgICAgICAgICAgICAgICAgICAgICAgICAgICAgICAgIApeql60vm4RQEAdUsL0Q9S/zLk3zihA8D/4jEzCCaDlPyim8cEnJfI/XWYyINXKDED8jI84QnQUQHZk402HVxJARYQKH15aIEDAHKn+W90OQCMWbtBOAwxAGmwHxL73CkDmU+nhb4MSQLzNfg5/0BJAg1Yx4YaBF0BPXimM+QwXQNMNJnSsZA5Aj7wOJNBN079B55razbAVQFo9F+ctwhJAFU7UmLZbGUA/xiYiAN+wPwnICKJxRBlAyJja8oH++j/1j331Ec0NQOz92fX2XRVAQbKpC9xg8T+nVwaKaewXQD8DhvHRdA9A/3Aa8585E0D6d98ODFgXQGdG0mP5aBVAv6jev8467z/jo2yW0XEUQPP2f6KZ9BNAEBYxYtKlIkAUJL0YgwHzP4Azmu2We8s/h+22qXj9FEArQQylVsYSQMT2EihiBBpAA0LTOBj/D0CLAARbILkRQOaL/Ovbhw9AZolapPnhFkAEbIn0YGD2P1t7NfsjMAVAIxF41BgFGUA/FqIHLzMYQNbvELXRPRNAUGrLubGwGkCgLYGqWCrrPyczwBR5Nw1AZEWmPMZGE0AgeiO3PtPRv0DXUFTM78s/k2kkcgMLEkCPCbAZpbkQQANwR20qexNAXahoIr0YF0Dw6ROq38sZQLm33rqArhRA/mJzOSQ8GUC3C2CcE68aQGes8GcQ5x1A+vkTrza0tT8=",
                "weights": "k05VTVBZAQB2AHsnZGVzY3InOiAnPGY4JywgJ2ZvcnRyYW5fb3JkZXInOiBGYWxzZSwgJ3NoYXBlJzogKDY2LCksIH0gICAgICAgICAgICAgICAgICAgICAgICAgICAgICAgICAgICAgICAgICAgICAgICAgICAgICAgICAgIAoIH3zwwQePPwgffPDBB48/CB988MEHjz8IH3zwwQePPwgffPDBB48/CB988MEHjz8IH3zwwQePPwgffPDBB48/CB988MEHjz8IH3zwwQePPwgffPDBB48/CB988MEHjz8IH3zwwQePPwgffPDBB48/CB988MEHjz8IH3zwwQePPwgffPDBB48/CB988MEHjz8IH3zwwQePPwgffPDBB48/CB988MEHjz8IH3zwwQePPwgffPDBB48/CB988MEHjz8IH3zwwQePPwgffPDBB48/CB988MEHjz8IH3zwwQePPwgffPDBB48/CB988MEHjz8IH3zwwQePPwgffPDBB48/CB988MEHjz8IH3zwwQePPwgffPDBB48/CB988MEHjz8IH3zwwQePPwgffPDBB48/CB988MEHjz8IH3zwwQePPwgffPDBB48/CB988MEHjz8IH3zwwQePPwgffPDBB48/CB988MEHjz8IH3zwwQePPwgffPDBB48/CB988MEHjz8IH3zwwQePPwgffPDBB48/CB988MEHjz8IH3zwwQePPwgffPDBB48/CB988MEHjz8IH3zwwQePPwgffPDBB48/CB988MEHjz8IH3zwwQePPwgffPDBB48/CB988MEHjz8IH3zwwQePPwgffPDBB48/CB988MEHjz8IH3zwwQePPwgffPDBB48/CB988MEHjz8=",
                "bandwidth": 1.0409737188663504
            },
            "phi_weights": "k05VTVBZAQB2AHsnZGVzY3InOiAnPGY4JywgJ2ZvcnRyYW5fb3JkZXInOiBGYWxzZSwgJ3NoYXBlJzogKDIwMCwpLCB9ICAgICAgICAgICAgICAgICAgICAgICAgICAgICAgICAgICAgICAgICAgICAgICAgICAgICAgICAgIAp7FK5H4Xp0P3sUrkfhenQ/exSuR+F6dD97FK5H4Xp0P3sUrkfhenQ/exSuR+F6dD97FK5H4Xp0P3sUrkfhenQ/exSuR+F6dD97FK5H4Xp0P3sUrkfhenQ/exSuR+F6dD97FK5H4Xp0P3sUrkfhenQ/exSuR+F6dD97FK5H4Xp0P3sUrkfhenQ/exSuR+F6dD97FK5H4Xp0P3sUrkfhenQ/exSuR+F6dD97FK5H4Xp0P3sUrkfhenQ/exSuR+F6dD97FK5H4Xp0P3sUrkfhenQ/exSuR+F6dD97FK5H4Xp0P3sUrkfhenQ/exSuR+F6dD97FK5H4Xp0P3sUrkfhenQ/exSuR+F6dD97FK5H4Xp0P3sUrkfhenQ/exSuR+F6dD97FK5H4Xp0P3sUrkfhenQ/exSuR+F6dD97FK5H4Xp0P3sUrkfhenQ/exSuR+F6dD97FK5H4Xp0P3sUrkfhenQ/exSuR+F6dD97FK5H4Xp0P3sUrkfhenQ/exSuR+F6dD97FK5H4Xp0P3sUrkfhenQ/exSuR+F6dD97FK5H4Xp0P3sUrkfhenQ/exSuR+F6dD97FK5H4Xp0P3sUrkfhenQ/exSuR+F6dD97FK5H4Xp0P3sUrkfhenQ/exSuR+F6dD97FK5H4Xp0P3sUrkfhenQ/exSuR+F6dD97FK5H4Xp0P3sUrkfhenQ/exSuR+F6dD97FK5H4Xp0P3sUrkfhenQ/exSuR+F6dD97FK5H4Xp0P3sUrkfhenQ/exSuR+F6dD97FK5H4Xp0P3sUrkfhenQ/exSuR+F6dD97FK5H4Xp0P3sUrkfhenQ/exSuR+F6dD97FK5H4Xp0P3sUrkfhenQ/exSuR+F6dD97FK5H4Xp0P3sUrkfhenQ/exSuR+F6dD97FK5H4Xp0P3sUrkfhenQ/exSuR+F6dD97FK5H4Xp0P3sUrkfhenQ/exSuR+F6dD97FK5H4Xp0P3sUrkfhenQ/exSuR+F6dD97FK5H4Xp0P3sUrkfhenQ/exSuR+F6dD97FK5H4Xp0P3sUrkfhenQ/exSuR+F6dD97FK5H4Xp0P3sUrkfhenQ/exSuR+F6dD97FK5H4Xp0P3sUrkfhenQ/exSuR+F6dD97FK5H4Xp0P3sUrkfhenQ/exSuR+F6dD97FK5H4Xp0P3sUrkfhenQ/exSuR+F6dD97FK5H4Xp0P3sUrkfhenQ/exSuR+F6dD97FK5H4Xp0P3sUrkfhenQ/exSuR+F6dD97FK5H4Xp0P3sUrkfhenQ/exSuR+F6dD97FK5H4Xp0P3sUrkfhenQ/exSuR+F6dD97FK5H4Xp0P3sUrkfhenQ/exSuR+F6dD97FK5H4Xp0P3sUrkfhenQ/exSuR+F6dD97FK5H4Xp0P3sUrkfhenQ/exSuR+F6dD97FK5H4Xp0P3sUrkfhenQ/exSuR+F6dD97FK5H4Xp0P3sUrkfhenQ/exSuR+F6dD97FK5H4Xp0P3sUrkfhenQ/exSuR+F6dD97FK5H4Xp0P3sUrkfhenQ/exSuR+F6dD97FK5H4Xp0P3sUrkfhenQ/exSuR+F6dD97FK5H4Xp0P3sUrkfhenQ/exSuR+F6dD97FK5H4Xp0P3sUrkfhenQ/exSuR+F6dD97FK5H4Xp0P3sUrkfhenQ/exSuR+F6dD97FK5H4Xp0P3sUrkfhenQ/exSuR+F6dD97FK5H4Xp0P3sUrkfhenQ/exSuR+F6dD97FK5H4Xp0P3sUrkfhenQ/exSuR+F6dD97FK5H4Xp0P3sUrkfhenQ/exSuR+F6dD97FK5H4Xp0P3sUrkfhenQ/exSuR+F6dD97FK5H4Xp0P3sUrkfhenQ/exSuR+F6dD97FK5H4Xp0P3sUrkfhenQ/exSuR+F6dD97FK5H4Xp0P3sUrkfhenQ/exSuR+F6dD97FK5H4Xp0P3sUrkfhenQ/exSuR+F6dD97FK5H4Xp0P3sUrkfhenQ/exSuR+F6dD97FK5H4Xp0P3sUrkfhenQ/exSuR+F6dD97FK5H4Xp0P3sUrkfhenQ/exSuR+F6dD97FK5H4Xp0P3sUrkfhenQ/exSuR+F6dD97FK5H4Xp0P3sUrkfhenQ/exSuR+F6dD97FK5H4Xp0P3sUrkfhenQ/"
        },
        "HIP-GMI": {
            "theta_kde": {
                "data": "k05VTVBZAQB2AHsnZGVzY3InOiAnPGY4JywgJ2ZvcnRyYW5fb3JkZXInOiBGYWxzZSwgJ3NoYXBlJzogKDEwNiwpLCB9ICAgICAgICAgICAgICAgICAgICAgICAgICAgICAgICAgICAgICAgICAgICAgICAgICAgICAgICAgIAqjE7egcyTWP6k8qKerJcU/5l4RVtzhyz9ZxheuDqbIP7QlQ51YO9E/81Uv4DLA1T+7eqKwOzO7PygZeaY+scU/tvZcBmJ/1j+3+woHkinUP29pZwvWsc0/dkQhdUFwyT9A12FgfInUP/xvSV0Fs6o/UK5gr2nK1z/twhkdlF+mP49QwdTfidE/jv9QQGxd1D/r37n4G9+6v1mbaNSbIrU/V8yXDXt4xz+EMzGbsMGxP1lvnwOCtdM/6ad0DLt21j+C38UYjYjCPy3X8meHlc4/OAkRv7kJ2D9rmdsR5bvRP5l3yxZhutY/JMlwwB6ExD8RrJtnvovTP7oEjWBTJLc/cLjZFD7txT8OoN51a63QP/E+IeuW47m/JjqO+bn2xj9KRYmtSU23PxvHbtZKltA/LpOaH3OPvT8Vn1zWedHTPwOAUQPZKtM/raeL4yyJxD9rjSnJtOrEPzoMN5suFdY/5gvSKLVkzz9ZJKekLZDFP6cBq46XpcA/3c+bV+oIpL85ursP2iDAP/dltHCfDdQ/3RKIsLVv0j/nwD67KxfLP0HhthQHI70/q3tCB4+e0j/gQiNJYKPWP1Jqdwrxg84/87BaXrZQwD9xpaV/b+7LP19CMo7qv9c/nkFvp/8D0j8jegNvkCa8P/uAiMt6e9U/SNdQ2CQi0D+pQSsVcFrBPxulQIs1pso/qeLAZkntwT/IsFJBJebPP62lcPIJksE/Z9Y3m1f5yz8innAw6EezPyD7eDkrxtE/H2FkoMmW0j+pR0/tFT/WP/xr+pKUpcY/9sa11zC1tr+JnrY06RpRP42rm81F77c/L5yVvRes0j/JZRk9wbu1Pw+MXWLK1ZE/c3LX78621z9btJrcDvTTPzpUBE3CdJE/X/EEeev4ZL/f6d0Jx7K1P0DfulnGQNE/DgE5FqY40z9opyW/VQmrP0D4N4Muocw/vJZjrZE41T/wARWB77LXP66wk7VqH7y/modteKNOvr+qAESyG0q0vwcii747pLc/77ceg7iH1D8fBKEqGQfNPyz6GX/5ItQ/QyZh0pny0z+DVUq0Ix+8P4GiRPUm+9Q/8513Ngvyxr9dsJIskyLXv9YMDFbFL8i/wncTR2Sa0T9msKuKWLvHPw==",
                "weights": "k05VTVBZAQB2AHsnZGVzY3InOiAnPGY4JywgJ2ZvcnRyYW5fb3JkZXInOiBGYWxzZSwgJ3NoYXBlJzogKDEwNiwpLCB9ICAgICAgICAgICAgICAgICAgICAgICAgICAgICAgICAgICAgICAgICAgICAgICAgICAgICAgICAgIArBeCv7HFKDP8F4K/scUoM/wXgr+xxSgz/BeCv7HFKDP8F4K/scUoM/wXgr+xxSgz/BeCv7HFKDP8F4K/scUoM/wXgr+xxSgz/BeCv7HFKDP8F4K/scUoM/wXgr+xxSgz/BeCv7HFKDP8F4K/scUoM/wXgr+xxSgz/BeCv7HFKDP8F4K/scUoM/wXgr+xxSgz/BeCv7HFKDP8F4K/scUoM/wXgr+xxSgz/BeCv7HFKDP8F4K/scUoM/wXgr+xxSgz/BeCv7HFKDP8F4K/scUoM/wXgr+xxSgz/BeCv7HFKDP8F4K/scUoM/wXgr+xxSgz/BeCv7HFKDP8F4K/scUoM/wXgr+xxSgz/BeCv7HFKDP8F4K/scUoM/wXgr+xxSgz/BeCv7HFKDP8F4K/scUoM/wXgr+xxSgz/BeCv7HFKDP8F4K/scUoM/wXgr+xxSgz/BeCv7HFKDP8F4K/scUoM/wXgr+xxSgz/BeCv7HFKDP8F4K/scUoM/wXgr+xxSgz/BeCv7HFKDP8F4K/scUoM/wXgr+xxSgz/BeCv7HFKDP8F4K/scUoM/wXgr+xxSgz/BeCv7HFKDP8F4K/scUoM/wXgr+xxSgz/BeCv7HFKDP8F4K/scUoM/wXgr+xxSgz/BeCv7HFKDP8F4K/scUoM/wXgr+xxSgz/BeCv7HFKDP8F4K/scUoM/wXgr+xxSgz/BeCv7HFKDP8F4K/scUoM/wXgr+xxSgz/BeCv7HFKDP8F4K/scUoM/wXgr+xxSgz/BeCv7HFKDP8F4K/scUoM/wXgr+xxSgz/BeCv7HFKDP8F4K/scUoM/wXgr+xxSgz/BeCv7HFKDP8F4K/scUoM/wXgr+xxSgz/BeCv7HFKDP8F4K/scUoM/wXgr+xxSgz/BeCv7HFKDP8F4K/scUoM/wXgr+xxSgz/BeCv7HFKDP8F4K/scUoM/wXgr+xxSgz/BeCv7HFKDP8F4K/scUoM/wXgr+xxSgz/BeCv7HFKDP8F4K/scUoM/wXgr+xxSgz/BeCv7HFKDP8F4K/scUoM/wXgr+xxSgz/BeCv7HFKDP8F4K/scUoM/wXgr+xxSgz/BeCv7HFKDP8F4K/scUoM/wXgr+xxSgz/BeCv7HFKDPw==",
                "bandwidth": 0.06050093551465617
            },
            "theta_weights": "k05VTVBZAQB2AHsnZGVzY3InOiAnPGY4JywgJ2ZvcnRyYW5fb3JkZXInOiBGYWxzZSwgJ3NoYXBlJzogKDIwMCwpLCB9ICAgICAgICAgICAgICAgICAgICAgICAgICAgICAgICAgICAgICAgICAgICAgICAgICAgICAgICAgIAp7FK5H4Xp0P3sUrkfhenQ/exSuR+F6dD97FK5H4Xp0P3sUrkfhenQ/exSuR+F6dD97FK5H4Xp0P3sUrkfhenQ/exSuR+F6dD97FK5H4Xp0P3sUrkfhenQ/exSuR+F6dD97FK5H4Xp0P3sUrkfhenQ/exSuR+F6dD97FK5H4Xp0P3sUrkfhenQ/exSuR+F6dD97FK5H4Xp0P3sUrkfhenQ/exSuR+F6dD97FK5H4Xp0P3sUrkfhenQ/exSuR+F6dD97FK5H4Xp0P3sUrkfhenQ/exSuR+F6dD97FK5H4Xp0P3sUrkfhenQ/exSuR+F6dD97FK5H4Xp0P3sUrkfhenQ/exSuR+F6dD97FK5H4Xp0P3sUrkfhenQ/exSuR+F6dD97FK5H4Xp0P3sUrkfhenQ/exSuR+F6dD97FK5H4Xp0P3sUrkfhenQ/exSuR+F6dD97FK5H4Xp0P3sUrkfhenQ/exSuR+F6dD97FK5H4Xp0P3sUrkfhenQ/exSuR+F6dD97FK5H4Xp0P3sUrkfhenQ/exSuR+F6dD97FK5H4Xp0P3sUrkfhenQ/exSuR+F6dD97FK5H4Xp0P3sUrkfhenQ/exSuR+F6dD97FK5H4Xp0P3sUrkfhenQ/exSuR+F6dD97FK5H4Xp0P3sUrkfhenQ/exSuR+F6dD97FK5H4Xp0P3sUrkfhenQ/exSuR+F6dD97FK5H4Xp0P3sUrkfhenQ/exSuR+F6dD97FK5H4Xp0P3sUrkfhenQ/exSuR+F6dD97FK5H4Xp0P3sUrkfhenQ/exSuR+F6dD97FK5H4Xp0P3sUrkfhenQ/exSuR+F6dD97FK5H4Xp0P3sUrkfhenQ/exSuR+F6dD97FK5H4Xp0P3sUrkfhenQ/exSuR+F6dD97FK5H4Xp0P3sUrkfhenQ/exSuR+F6dD97FK5H4Xp0P3sUrkfhenQ/exSuR+F6dD97FK5H4Xp0P3sUrkfhenQ/exSuR+F6dD97FK5H4Xp0P3sUrkfhenQ/exSuR+F6dD97FK5H4Xp0P3sUrkfhenQ/exSuR+F6dD97FK5H4Xp0P3sUrkfhenQ/exSuR+F6dD97FK5H4Xp0P3sUrkfhenQ/exSuR+F6dD97FK5H4Xp0P3sUrkfhenQ/exSuR+F6dD97FK5H4Xp0P3sUrkfhenQ/exSuR+F6dD97FK5H4Xp0P3sUrkfhenQ/exSuR+F6dD97FK5H4Xp0P3sUrkfhenQ/exSuR+F6dD97FK5H4Xp0P3sUrkfhenQ/exSuR+F6dD97FK5H4Xp0P3sUrkfhenQ/exSuR+F6dD97FK5H4Xp0P3sUrkfhenQ/exSuR+F6dD97FK5H4Xp0P3sUrkfhenQ/exSuR+F6dD97FK5H4Xp0P3sUrkfhenQ/exSuR+F6dD97FK5H4Xp0P3sUrkfhenQ/exSuR+F6dD97FK5H4Xp0P3sUrkfhenQ/exSuR+F6dD97FK5H4Xp0P3sUrkfhenQ/exSuR+F6dD97FK5H4Xp0P3sUrkfhenQ/exSuR+F6dD97FK5H4Xp0P3sUrkfhenQ/exSuR+F6dD97FK5H4Xp0P3sUrkfhenQ/exSuR+F6dD97FK5H4Xp0P3sUrkfhenQ/exSuR+F6dD97FK5H4Xp0P3sUrkfhenQ/exSuR+F6dD97FK5H4Xp0P3sUrkfhenQ/exSuR+F6dD97FK5H4Xp0P3sUrkfhenQ/exSuR+F6dD97FK5H4Xp0P3sUrkfhenQ/exSuR+F6dD97FK5H4Xp0P3sUrkfhenQ/exSuR+F6dD97FK5H4Xp0P3sUrkfhenQ/exSuR+F6dD97FK5H4Xp0P3sUrkfhenQ/exSuR+F6dD97FK5H4Xp0P3sUrkfhenQ/exSuR+F6dD97FK5H4Xp0P3sUrkfhenQ/exSuR+F6dD97FK5H4Xp0P3sUrkfhenQ/exSuR+F6dD97FK5H4Xp0P3sUrkfhenQ/exSuR+F6dD97FK5H4Xp0P3sUrkfhenQ/exSuR+F6dD97FK5H4Xp0P3sUrkfhenQ/exSuR+F6dD97FK5H4Xp0P3sUrkfhenQ/exSuR+F6dD97FK5H4Xp0P3sUrkfhenQ/exSuR+F6dD97FK5H4Xp0P3sUrkfhenQ/",
            "phi_kde": {
                "data": "k05VTVBZAQB2AHsnZGVzY3InOiAnPGY4JywgJ2ZvcnRyYW5fb3JkZXInOiBGYWxzZSwgJ3NoYXBlJzogKDk0LCksIH0gICAgICAgICAgICAgICAgICAgICAgICAgICAgICAgICAgICAgICAgICAgICAgICAgICAgICAgICAgIAqE+vH6g+XlP1RWvSeCXeI/OnjTIb7t5j9+qBBkDizlP6F0WH4jVuU/k89asaSg4D9gciXcsenlP+wxA9VFs+A/4vw/NCRH2j9664j4J5vhP1CWYj7jRt4/vjAb1Cpc6T82lJYa1mvhP+afYF8g198/sAGzK8Ru2D90Hd1dahfhP8OG3kWQaOQ/ijaflVIZ5D/uvXPq4tTiP5xKGIRUe+s/LXwwSy1G4D85AJNjkXnhPwHzix5uReE/4WyFWZSK2T/1JQXRn6voP4W945DR79s/kXSX01o94j81ZWQ0ir3bPz0d2ohOF+E/Vv89X7W32D/jbLpFPN7bPxUggqiYDeE/HJi6PsdH3D/P6FovaHDqP7I0tpjXQOk/53L6kzXC3j8ATTj+OczaP2DgIg0ovdg/LaaV64GU3T+wpen37QffP8aTt61tltk/+AIPtSHW2j9FNhWWbQriP2BhExX/b+U/tnjLa68A5j/nwcecoFfcPxnc2dNjAt4/EFLO/ypm6T+RWx6VLanfP/0VYtPemuE/g2cocdmk2z8tOVF/yPbZP/L4lvm1kuI/03QNusuk3T9jqbNT3LboP1n3/Y1Jk+g/jy6iIvfb3D9j6UcH03riPw2FvyofdOA/EAkTho0p4T+4m603aLnqP/BpXssAJes/Hrw5suX14T8BfGG5TJLhPwRva75q49g/FwiPuxSl5z94jstS56bZP8qQzWMCP9s/wg6eMb8I5T/zGvP3We/aP1hGyvVkD9w/8cnLx1hD5j8btxrhsqbkP1hzKx1+UeI/yN3smg3g4z9ZJ3k9nFXhP+zvyKprYe0/oNMXwHRr6z8VwgmSfwzaP5N24aO0+uc/IzsFWo7L2T+oeQGXmhDlPzhxgnMSKt8/Z3Pcn2TS4D+VnmwT3BnjP4NkWJHaquA/gdVwZl8L4j+TdkRi1bzmP6qGSY2pyuo/STjUTw3u3z8C1FsPgRHbPzjj3PTpOeg/uODOa3a85D9gsh61kyDgPw==",
                "weights": "k05VTVBZAQB2AHsnZGVzY3InOiAnPGY4JywgJ2ZvcnRyYW5fb3JkZXInOiBGYWxzZSwgJ3NoYXBlJzogKDk0LCksIH0gICAgICAgICAgICAgICAgICAgICAgICAgICAgICAgICAgICAgICAgICAgICAgICAgICAgICAgICAgIApXEJMriMmFP1cQkyuIyYU/VxCTK4jJhT9XEJMriMmFP1cQkyuIyYU/VxCTK4jJhT9XEJMriMmFP1cQkyuIyYU/VxCTK4jJhT9XEJMriMmFP1cQkyuIyYU/VxCTK4jJhT9XEJMriMmFP1cQkyuIyYU/VxCTK4jJhT9XEJMriMmFP1cQkyuIyYU/VxCTK4jJhT9XEJMriMmFP1cQkyuIyYU/VxCTK4jJhT9XEJMriMmFP1cQkyuIyYU/VxCTK4jJhT9XEJMriMmFP1cQkyuIyYU/VxCTK4jJhT9XEJMriMmFP1cQkyuIyYU/VxCTK4jJhT9XEJMriMmFP1cQkyuIyYU/VxCTK4jJhT9XEJMriMmFP1cQkyuIyYU/VxCTK4jJhT9XEJMriMmFP1cQkyuIyYU/VxCTK4jJhT9XEJMriMmFP1cQkyuIyYU/VxCTK4jJhT9XEJMriMmFP1cQkyuIyYU/VxCTK4jJhT9XEJMriMmFP1cQkyuIyYU/VxCTK4jJhT9XEJMriMmFP1cQkyuIyYU/VxCTK4jJhT9XEJMriMmFP1cQkyuIyYU/VxCTK4jJhT9XEJMriMmFP1cQkyuIyYU/VxCTK4jJhT9XEJMriMmFP1cQkyuIyYU/VxCTK4jJhT9XEJMriMmFP1cQkyuIyYU/VxCTK4jJhT9XEJMriMmFP1cQkyuIyYU/VxCTK4jJhT9XEJMriMmFP1cQkyuIyYU/VxCTK4jJhT9XEJMriMmFP1cQkyuIyYU/VxCTK4jJhT9XEJMriMmFP1cQkyuIyYU/VxCTK4jJhT9XEJMriMmFP1cQkyuIyYU/VxCTK4jJhT9XEJMriMmFP1cQkyuIyYU/VxCTK4jJhT9XEJMriMmFP1cQkyuIyYU/VxCTK4jJhT9XEJMriMmFP1cQkyuIyYU/VxCTK4jJhT9XEJMriMmFP1cQkyuIyYU/VxCTK4jJhT9XEJMriMmFP1cQkyuIyYU/VxCTK4jJhT9XEJMriMmFPw==",
                "bandwidth": 0.05886735460472277
            },
            "phi_weights": "k05VTVBZAQB2AHsnZGVzY3InOiAnPGY4JywgJ2ZvcnRyYW5fb3JkZXInOiBGYWxzZSwgJ3NoYXBlJzogKDIwMCwpLCB9ICAgICAgICAgICAgICAgICAgICAgICAgICAgICAgICAgICAgICAgICAgICAgICAgICAgICAgICAgIAp7FK5H4Xp0P3sUrkfhenQ/exSuR+F6dD97FK5H4Xp0P3sUrkfhenQ/exSuR+F6dD97FK5H4Xp0P3sUrkfhenQ/exSuR+F6dD97FK5H4Xp0P3sUrkfhenQ/exSuR+F6dD97FK5H4Xp0P3sUrkfhenQ/exSuR+F6dD97FK5H4Xp0P3sUrkfhenQ/exSuR+F6dD97FK5H4Xp0P3sUrkfhenQ/exSuR+F6dD97FK5H4Xp0P3sUrkfhenQ/exSuR+F6dD97FK5H4Xp0P3sUrkfhenQ/exSuR+F6dD97FK5H4Xp0P3sUrkfhenQ/exSuR+F6dD97FK5H4Xp0P3sUrkfhenQ/exSuR+F6dD97FK5H4Xp0P3sUrkfhenQ/exSuR+F6dD97FK5H4Xp0P3sUrkfhenQ/exSuR+F6dD97FK5H4Xp0P3sUrkfhenQ/exSuR+F6dD97FK5H4Xp0P3sUrkfhenQ/exSuR+F6dD97FK5H4Xp0P3sUrkfhenQ/exSuR+F6dD97FK5H4Xp0P3sUrkfhenQ/exSuR+F6dD97FK5H4Xp0P3sUrkfhenQ/exSuR+F6dD97FK5H4Xp0P3sUrkfhenQ/exSuR+F6dD97FK5H4Xp0P3sUrkfhenQ/exSuR+F6dD97FK5H4Xp0P3sUrkfhenQ/exSuR+F6dD97FK5H4Xp0P3sUrkfhenQ/exSuR+F6dD97FK5H4Xp0P3sUrkfhenQ/exSuR+F6dD97FK5H4Xp0P3sUrkfhenQ/exSuR+F6dD97FK5H4Xp0P3sUrkfhenQ/exSuR+F6dD97FK5H4Xp0P3sUrkfhenQ/exSuR+F6dD97FK5H4Xp0P3sUrkfhenQ/exSuR+F6dD97FK5H4Xp0P3sUrkfhenQ/exSuR+F6dD97FK5H4Xp0P3sUrkfhenQ/exSuR+F6dD97FK5H4Xp0P3sUrkfhenQ/exSuR+F6dD97FK5H4Xp0P3sUrkfhenQ/exSuR+F6dD97FK5H4Xp0P3sUrkfhenQ/exSuR+F6dD97FK5H4Xp0P3sUrkfhenQ/exSuR+F6dD97FK5H4Xp0P3sUrkfhenQ/exSuR+F6dD97FK5H4Xp0P3sUrkfhenQ/exSuR+F6dD97FK5H4Xp0P3sUrkfhenQ/exSuR+F6dD97FK5H4Xp0P3sUrkfhenQ/exSuR+F6dD97FK5H4Xp0P3sUrkfhenQ/exSuR+F6dD97FK5H4Xp0P3sUrkfhenQ/exSuR+F6dD97FK5H4Xp0P3sUrkfhenQ/exSuR+F6dD97FK5H4Xp0P3sUrkfhenQ/exSuR+F6dD97FK5H4Xp0P3sUrkfhenQ/exSuR+F6dD97FK5H4Xp0P3sUrkfhenQ/exSuR+F6dD97FK5H4Xp0P3sUrkfhenQ/exSuR+F6dD97FK5H4Xp0P3sUrkfhenQ/exSuR+F6dD97FK5H4Xp0P3sUrkfhenQ/exSuR+F6dD97FK5H4Xp0P3sUrkfhenQ/exSuR+F6dD97FK5H4Xp0P3sUrkfhenQ/exSuR+F6dD97FK5H4Xp0P3sUrkfhenQ/exSuR+F6dD97FK5H4Xp0P3sUrkfhenQ/exSuR+F6dD97FK5H4Xp0P3sUrkfhenQ/exSuR+F6dD97FK5H4Xp0P3sUrkfhenQ/exSuR+F6dD97FK5H4Xp0P3sUrkfhenQ/exSuR+F6dD97FK5H4Xp0P3sUrkfhenQ/exSuR+F6dD97FK5H4Xp0P3sUrkfhenQ/exSuR+F6dD97FK5H4Xp0P3sUrkfhenQ/exSuR+F6dD97FK5H4Xp0P3sUrkfhenQ/exSuR+F6dD97FK5H4Xp0P3sUrkfhenQ/exSuR+F6dD97FK5H4Xp0P3sUrkfhenQ/exSuR+F6dD97FK5H4Xp0P3sUrkfhenQ/exSuR+F6dD97FK5H4Xp0P3sUrkfhenQ/exSuR+F6dD97FK5H4Xp0P3sUrkfhenQ/exSuR+F6dD97FK5H4Xp0P3sUrkfhenQ/exSuR+F6dD97FK5H4Xp0P3sUrkfhenQ/exSuR+F6dD97FK5H4Xp0P3sUrkfhenQ/exSuR+F6dD97FK5H4Xp0P3sUrkfhenQ/exSuR+F6dD97FK5H4Xp0P3sUrkfhenQ/"
        },
        "MMSE": {
            "theta_kde": {
                "data": "k05VTVBZAQB2AHsnZGVzY3InOiAnPGY4JywgJ2ZvcnRyYW5fb3JkZXInOiBGYWxzZSwgJ3NoYXBlJzogKDc4LCksIH0gICAgICAgICAgICAgICAgICAgICAgICAgICAgICAgICAgICAgICAgICAgICAgICAgICAgICAgICAgIAqXIU3FUHg2QLqfp5ovsTVAniJI22rRNkBenLWkmRw1QCbzKaSg8TVAkmw5dlZDNkC2nzinCTo2QNlweW00BjdAKPSLx/lHNkCIjaC1jAY2QPRwRkZpvDVAag72N+yfN0AnUi7t53k2QHaJP+HkhjhAYBbTz3YFOECzC3Q662c1QETIDRxlJTdAKVLAUHMyOUAAtFl6obw3QPPro2OPLDZA42LUCdmoNUAlW2T17TY3QGJFnpmd3zdAyuFuyHB3NUDlC3UTW4s2QAVFTVKJ3TVAwz5s9BK5NkBcNrPzE5c3QKHFLmzwljhA9oIDsYbANkCkQqnFLhc2QKjKWzoUhTZAi5TMOguANkC4lDvEdZk4QC74gEBr0zVAQLbbbGLXNkAp5mJSl7o2QHZ7MgyL+TZApCRz9trRNEDXohlxvqw1QPz0Hl5kCjZAUgHhzPwHNkASiwebHMo2QJYJnZrXqzVAEN6q8wQUNUAVW/+fLdY1QDOOFJQXijZAycQUP3sXNUB87+nbNsE4QKIUc/w3zjVARuO5lHZGOEAG8OeSDiU5QAnaZjJCxDVA/HRb3Wr5NECKis+4ArQ2QLV6z1PuUjZAcVJDJ7cXN0B6BoDNu0o3QKU80S23uzZAKsINmGO/NUC+2F6lgdo1QI+NtkhMZzVAc6z61CWONUAIR28K/mg1QM2kMFKxFzZAkvH2gue9NUDMgKkwzRM2QFnF/4JADDlA9jn1fko5OEDCRtjWttM0QOL54K1Y/jhARqzuQivINkBFLhJ9/tw2QBi+tG4XjzZAWYPWuJFXOECKatOOyWU4QOoydI7ooTVA3Zw35NyiNkA=",
                "weights": "k05VTVBZAQB2AHsnZGVzY3InOiAnPGY4JywgJ2ZvcnRyYW5fb3JkZXInOiBGYWxzZSwgJ3NoYXBlJzogKDc4LCksIH0gICAgICAgICAgICAgICAgICAgICAgICAgICAgICAgICAgICAgICAgICAgICAgICAgICAgICAgICAgIAoapEEapEGKPxqkQRqkQYo/GqRBGqRBij8apEEapEGKPxqkQRqkQYo/GqRBGqRBij8apEEapEGKPxqkQRqkQYo/GqRBGqRBij8apEEapEGKPxqkQRqkQYo/GqRBGqRBij8apEEapEGKPxqkQRqkQYo/GqRBGqRBij8apEEapEGKPxqkQRqkQYo/GqRBGqRBij8apEEapEGKPxqkQRqkQYo/GqRBGqRBij8apEEapEGKPxqkQRqkQYo/GqRBGqRBij8apEEapEGKPxqkQRqkQYo/GqRBGqRBij8apEEapEGKPxqkQRqkQYo/GqRBGqRBij8apEEapEGKPxqkQRqkQYo/GqRBGqRBij8apEEapEGKPxqkQRqkQYo/GqRBGqRBij8apEEapEGKPxqkQRqkQYo/GqRBGqRBij8apEEapEGKPxqkQRqkQYo/GqRBGqRBij8apEEapEGKPxqkQRqkQYo/GqRBGqRBij8apEEapEGKPxqkQRqkQYo/GqRBGqRBij8apEEapEGKPxqkQRqkQYo/GqRBGqRBij8apEEapEGKPxqkQRqkQYo/GqRBGqRBij8apEEapEGKPxqkQRqkQYo/GqRBGqRBij8apEEapEGKPxqkQRqkQYo/GqRBGqRBij8apEEapEGKPxqkQRqkQYo/GqRBGqRBij8apEEapEGKPxqkQRqkQYo/GqRBGqRBij8apEEapEGKPxqkQRqkQYo/GqRBGqRBij8apEEapEGKPxqkQRqkQYo/GqRBGqRBij8apEEapEGKPxqkQRqkQYo/GqRBGqRBij8apEEapEGKPxqkQRqkQYo/GqRBGqRBij8=",
                "bandwidth": 0.49513027640464635
            },
            "theta_weights": "k05VTVBZAQB2AHsnZGVzY3InOiAnPGY4JywgJ2ZvcnRyYW5fb3JkZXInOiBGYWxzZSwgJ3NoYXBlJzogKDIwMCwpLCB9ICAgICAgICAgICAgICAgICAgICAgICAgICAgICAgICAgICAgICAgICAgICAgICAgICAgICAgICAgIAp7FK5H4Xp0P3sUrkfhenQ/exSuR+F6dD97FK5H4Xp0P3sUrkfhenQ/exSuR+F6dD97FK5H4Xp0P3sUrkfhenQ/exSuR+F6dD97FK5H4Xp0P3sUrkfhenQ/exSuR+F6dD97FK5H4Xp0P3sUrkfhenQ/exSuR+F6dD97FK5H4Xp0P3sUrkfhenQ/exSuR+F6dD97FK5H4Xp0P3sUrkfhenQ/exSuR+F6dD97FK5H4Xp0P3sUrkfhenQ/exSuR+F6dD97FK5H4Xp0P3sUrkfhenQ/exSuR+F6dD97FK5H4Xp0P3sUrkfhenQ/exSuR+F6dD97FK5H4Xp0P3sUrkfhenQ/exSuR+F6dD97FK5H4Xp0P3sUrkfhenQ/exSuR+F6dD97FK5H4Xp0P3sUrkfhenQ/exSuR+F6dD97FK5H4Xp0P3sUrkfhenQ/exSuR+F6dD97FK5H4Xp0P3sUrkfhenQ/exSuR+F6dD97FK5H4Xp0P3sUrkfhenQ/exSuR+F6dD97FK5H4Xp0P3sUrkfhenQ/exSuR+F6dD97FK5H4Xp0P3sUrkfhenQ/exSuR+F6dD97FK5H4Xp0P3sUrkfhenQ/exSuR+F6dD97FK5H4Xp0P3sUrkfhenQ/exSuR+F6dD97FK5H4Xp0P3sUrkfhenQ/exSuR+F6dD97FK5H4Xp0P3sUrkfhenQ/exSuR+F6dD97FK5H4Xp0P3sUrkfhenQ/exSuR+F6dD97FK5H4Xp0P3sUrkfhenQ/exSuR+F6dD97FK5H4Xp0P3sUrkfhenQ/exSuR+F6dD97FK5H4Xp0P3sUrkfhenQ/exSuR+F6dD97FK5H4Xp0P3sUrkfhenQ/exSuR+F6dD97FK5H4Xp0P3sUrkfhenQ/exSuR+F6dD97FK5H4Xp0P3sUrkfhenQ/exSuR+F6dD97FK5H4Xp0P3sUrkfhenQ/exSuR+F6dD97FK5H4Xp0P3sUrkfhenQ/exSuR+F6dD97FK5H4Xp0P3sUrkfhenQ/exSuR+F6dD97FK5H4Xp0P3sUrkfhenQ/exSuR+F6dD97FK5H4Xp0P3sUrkfhenQ/exSuR+F6dD97FK5H4Xp0P3sUrkfhenQ/exSuR+F6dD97FK5H4Xp0P3sUrkfhenQ/exSuR+F6dD97FK5H4Xp0P3sUrkfhenQ/exSuR+F6dD97FK5H4Xp0P3sUrkfhenQ/exSuR+F6dD97FK5H4Xp0P3sUrkfhenQ/exSuR+F6dD97FK5H4Xp0P3sUrkfhenQ/exSuR+F6dD97FK5H4Xp0P3sUrkfhenQ/exSuR+F6dD97FK5H4Xp0P3sUrkfhenQ/exSuR+F6dD97FK5H4Xp0P3sUrkfhenQ/exSuR+F6dD97FK5H4Xp0P3sUrkfhenQ/exSuR+F6dD97FK5H4Xp0P3sUrkfhenQ/exSuR+F6dD97FK5H4Xp0P3sUrkfhenQ/exSuR+F6dD97FK5H4Xp0P3sUrkfhenQ/exSuR+F6dD97FK5H4Xp0P3sUrkfhenQ/exSuR+F6dD97FK5H4Xp0P3sUrkfhenQ/exSuR+F6dD97FK5H4Xp0P3sUrkfhenQ/exSuR+F6dD97FK5H4Xp0P3sUrkfhenQ/exSuR+F6dD97FK5H4Xp0P3sUrkfhenQ/exSuR+F6dD97FK5H4Xp0P3sUrkfhenQ/exSuR+F6dD97FK5H4Xp0P3sUrkfhenQ/exSuR+F6dD97FK5H4Xp0P3sUrkfhenQ/exSuR+F6dD97FK5H4Xp0P3sUrkfhenQ/exSuR+F6dD97FK5H4Xp0P3sUrkfhenQ/exSuR+F6dD97FK5H4Xp0P3sUrkfhenQ/exSuR+F6dD97FK5H4Xp0P3sUrkfhenQ/exSuR+F6dD97FK5H4Xp0P3sUrkfhenQ/exSuR+F6dD97FK5H4Xp0P3sUrkfhenQ/exSuR+F6dD97FK5H4Xp0P3sUrkfhenQ/exSuR+F6dD97FK5H4Xp0P3sUrkfhenQ/exSuR+F6dD97FK5H4Xp0P3sUrkfhenQ/exSuR+F6dD97FK5H4Xp0P3sUrkfhenQ/exSuR+F6dD97FK5H4Xp0P3sUrkfhenQ/exSuR+F6dD97FK5H4Xp0P3sUrkfhenQ/",
            "phi_kde": {
                "data": "k05VTVBZAQB2AHsnZGVzY3InOiAnPGY4JywgJ2ZvcnRyYW5fb3JkZXInOiBGYWxzZSwgJ3NoYXBlJzogKDEyMiwpLCB9ICAgICAgICAgICAgICAgICAgICAgICAgICAgICAgICAgICAgICAgICAgICAgICAgICAgICAgICAgIAo/ebU7iRI8QAJMfrKq9jtArBSDP0CjO0AsbkSx+Wg8QN8mIJJZhDpAe19OtBzvPEAWphJIV/U7QM+QVuzuYztA3aPRRRgdO0ARc6sDlDw8QCzVwj+jzT1AZBB4SC3RO0DxKZ54ghY8QKn5fFMWdjxAkY5whrNlPUDP+RwQToE8QDqASHDL1TlA2BiPwKrEO0C/+ps7JWs7QE+kEN/gjztAj58ifNe+O0AOr7GJMHs7QArw5LrdtzxAxFoAFQOeOkByhiLhl6s7QJdSI1st4TpAA7UcPA9lPEChvTtfD1w8QIVUNlZ41jxAt4H8TmpeOUDZ3rLNbHA9QORbB36AxjtAC8xHcvAcO0CqbWIceuI7QAHZjNH3rTtAfyE873LcO0Dtl5nqYyI9QM/wJ2BdcjxAdP8JrOpiO0BPwYcBrQI7QI0xS8olGTxAo9BcMILuO0DU0Nz0oSA9QLy67f7JrjtAtyiy7g/sO0AqwVOTAvE7QGGg91ucKT1A0dQek2OZO0AQZHNpHuw7QKEmn0F1KDxA2aT2AeLmO0DwuI7wlAo7QKYW0Qs/yDtAmsWkRpgfO0B2WVQ70nw7QMQ4K3hImDlApkfNciw/PEBOn9SV6LE7QPwym5DEMj1A5cMtCl2RO0AWBDWAxoY7QAla/F+izztAC8R7lLXWO0CIbICMkrM6QJ3ju9B4eTxAm4lYvnJhO0Dn5wi5WWo8QM2a/U2yYzxAvNqWb8p/OUD6gjibwgw9QDCebpWEhDpARn/LF3Z/PED95LdGMRM7QC7nIrrRND1ADyXR6FBxPEDKQc4r/GQ8QCdukUeaoDxA/nv5m0QUO0ALIkYwL3s7QPw1J32/cTxA1oAVMbaMO0C/VonXKyc8QBdl+4xATzxAx+zD0PNfO0AkIIW0JBU9QL+VrNR1eTlAjEseelOWO0C6zkLBrCw8QMnMjW12kztAlYtr5xzQPECj7NZx6MQ9QBaYdJtZ2DtA0mlg4fQKPEDz8ElZ0NI7QCqx1oG1bTlA/Dog461+PEBC0b/XumI7QGvGQa+aUzxAGrhdLOBEO0BY1NY3Z2o8QFvGb0JQyjxAWblG5PIxO0A+EYP8W0U9QA3X0Y2jxDtABdwKdOmxO0C2B/dfWHU7QK4sjKFAtTtA+cCsWhtrOUDGhK+gAs46QN/DLeEhezxAK91qMqo9PECINnADzXA7QJADy3oCkjxA4tUHs2H4O0DUzKUPcV07QNS3B+MYdjtAlb7nJEU3PEBQPqPVbjc7QG9UuotI6TtAlTztP2tWPECgbj8iPCM7QIkC2blH+jtA",
                "weights": "k05VTVBZAQB2AHsnZGVzY3InOiAnPGY4JywgJ2ZvcnRyYW5fb3JkZXInOiBGYWxzZSwgJ3NoYXBlJzogKDEyMiwpLCB9ICAgICAgICAgICAgICAgICAgICAgICAgICAgICAgICAgICAgICAgICAgICAgICAgICAgICAgICAgIAo72rxPccmAPzvavE9xyYA/O9q8T3HJgD872rxPccmAPzvavE9xyYA/O9q8T3HJgD872rxPccmAPzvavE9xyYA/O9q8T3HJgD872rxPccmAPzvavE9xyYA/O9q8T3HJgD872rxPccmAPzvavE9xyYA/O9q8T3HJgD872rxPccmAPzvavE9xyYA/O9q8T3HJgD872rxPccmAPzvavE9xyYA/O9q8T3HJgD872rxPccmAPzvavE9xyYA/O9q8T3HJgD872rxPccmAPzvavE9xyYA/O9q8T3HJgD872rxPccmAPzvavE9xyYA/O9q8T3HJgD872rxPccmAPzvavE9xyYA/O9q8T3HJgD872rxPccmAPzvavE9xyYA/O9q8T3HJgD872rxPccmAPzvavE9xyYA/O9q8T3HJgD872rxPccmAPzvavE9xyYA/O9q8T3HJgD872rxPccmAPzvavE9xyYA/O9q8T3HJgD872rxPccmAPzvavE9xyYA/O9q8T3HJgD872rxPccmAPzvavE9xyYA/O9q8T3HJgD872rxPccmAPzvavE9xyYA/O9q8T3HJgD872rxPccmAPzvavE9xyYA/O9q8T3HJgD872rxPccmAPzvavE9xyYA/O9q8T3HJgD872rxPccmAPzvavE9xyYA/O9q8T3HJgD872rxPccmAPzvavE9xyYA/O9q8T3HJgD872rxPccmAPzvavE9xyYA/O9q8T3HJgD872rxPccmAPzvavE9xyYA/O9q8T3HJgD872rxPccmAPzvavE9xyYA/O9q8T3HJgD872rxPccmAPzvavE9xyYA/O9q8T3HJgD872rxPccmAPzvavE9xyYA/O9q8T3HJgD872rxPccmAPzvavE9xyYA/O9q8T3HJgD872rxPccmAPzvavE9xyYA/O9q8T3HJgD872rxPccmAPzvavE9xyYA/O9q8T3HJgD872rxPccmAPzvavE9xyYA/O9q8T3HJgD872rxPccmAPzvavE9xyYA/O9q8T3HJgD872rxPccmAPzvavE9xyYA/O9q8T3HJgD872rxPccmAPzvavE9xyYA/O9q8T3HJgD872rxPccmAPzvavE9xyYA/O9q8T3HJgD872rxPccmAPzvavE9xyYA/O9q8T3HJgD872rxPccmAPzvavE9xyYA/O9q8T3HJgD872rxPccmAPzvavE9xyYA/O9q8T3HJgD872rxPccmAPzvavE9xyYA/O9q8T3HJgD872rxPccmAPzvavE9xyYA/O9q8T3HJgD872rxPccmAPzvavE9xyYA/",
                "bandwidth": 0.35763529596994087
            },
            "phi_weights": "k05VTVBZAQB2AHsnZGVzY3InOiAnPGY4JywgJ2ZvcnRyYW5fb3JkZXInOiBGYWxzZSwgJ3NoYXBlJzogKDIwMCwpLCB9ICAgICAgICAgICAgICAgICAgICAgICAgICAgICAgICAgICAgICAgICAgICAgICAgICAgICAgICAgIAp7FK5H4Xp0P3sUrkfhenQ/exSuR+F6dD97FK5H4Xp0P3sUrkfhenQ/exSuR+F6dD97FK5H4Xp0P3sUrkfhenQ/exSuR+F6dD97FK5H4Xp0P3sUrkfhenQ/exSuR+F6dD97FK5H4Xp0P3sUrkfhenQ/exSuR+F6dD97FK5H4Xp0P3sUrkfhenQ/exSuR+F6dD97FK5H4Xp0P3sUrkfhenQ/exSuR+F6dD97FK5H4Xp0P3sUrkfhenQ/exSuR+F6dD97FK5H4Xp0P3sUrkfhenQ/exSuR+F6dD97FK5H4Xp0P3sUrkfhenQ/exSuR+F6dD97FK5H4Xp0P3sUrkfhenQ/exSuR+F6dD97FK5H4Xp0P3sUrkfhenQ/exSuR+F6dD97FK5H4Xp0P3sUrkfhenQ/exSuR+F6dD97FK5H4Xp0P3sUrkfhenQ/exSuR+F6dD97FK5H4Xp0P3sUrkfhenQ/exSuR+F6dD97FK5H4Xp0P3sUrkfhenQ/exSuR+F6dD97FK5H4Xp0P3sUrkfhenQ/exSuR+F6dD97FK5H4Xp0P3sUrkfhenQ/exSuR+F6dD97FK5H4Xp0P3sUrkfhenQ/exSuR+F6dD97FK5H4Xp0P3sUrkfhenQ/exSuR+F6dD97FK5H4Xp0P3sUrkfhenQ/exSuR+F6dD97FK5H4Xp0P3sUrkfhenQ/exSuR+F6dD97FK5H4Xp0P3sUrkfhenQ/exSuR+F6dD97FK5H4Xp0P3sUrkfhenQ/exSuR+F6dD97FK5H4Xp0P3sUrkfhenQ/exSuR+F6dD97FK5H4Xp0P3sUrkfhenQ/exSuR+F6dD97FK5H4Xp0P3sUrkfhenQ/exSuR+F6dD97FK5H4Xp0P3sUrkfhenQ/exSuR+F6dD97FK5H4Xp0P3sUrkfhenQ/exSuR+F6dD97FK5H4Xp0P3sUrkfhenQ/exSuR+F6dD97FK5H4Xp0P3sUrkfhenQ/exSuR+F6dD97FK5H4Xp0P3sUrkfhenQ/exSuR+F6dD97FK5H4Xp0P3sUrkfhenQ/exSuR+F6dD97FK5H4Xp0P3sUrkfhenQ/exSuR+F6dD97FK5H4Xp0P3sUrkfhenQ/exSuR+F6dD97FK5H4Xp0P3sUrkfhenQ/exSuR+F6dD97FK5H4Xp0P3sUrkfhenQ/exSuR+F6dD97FK5H4Xp0P3sUrkfhenQ/exSuR+F6dD97FK5H4Xp0P3sUrkfhenQ/exSuR+F6dD97FK5H4Xp0P3sUrkfhenQ/exSuR+F6dD97FK5H4Xp0P3sUrkfhenQ/exSuR+F6dD97FK5H4Xp0P3sUrkfhenQ/exSuR+F6dD97FK5H4Xp0P3sUrkfhenQ/exSuR+F6dD97FK5H4Xp0P3sUrkfhenQ/exSuR+F6dD97FK5H4Xp0P3sUrkfhenQ/exSuR+F6dD97FK5H4Xp0P3sUrkfhenQ/exSuR+F6dD97FK5H4Xp0P3sUrkfhenQ/exSuR+F6dD97FK5H4Xp0P3sUrkfhenQ/exSuR+F6dD97FK5H4Xp0P3sUrkfhenQ/exSuR+F6dD97FK5H4Xp0P3sUrkfhenQ/exSuR+F6dD97FK5H4Xp0P3sUrkfhenQ/exSuR+F6dD97FK5H4Xp0P3sUrkfhenQ/exSuR+F6dD97FK5H4Xp0P3sUrkfhenQ/exSuR+F6dD97FK5H4Xp0P3sUrkfhenQ/exSuR+F6dD97FK5H4Xp0P3sUrkfhenQ/exSuR+F6dD97FK5H4Xp0P3sUrkfhenQ/exSuR+F6dD97FK5H4Xp0P3sUrkfhenQ/exSuR+F6dD97FK5H4Xp0P3sUrkfhenQ/exSuR+F6dD97FK5H4Xp0P3sUrkfhenQ/exSuR+F6dD97FK5H4Xp0P3sUrkfhenQ/exSuR+F6dD97FK5H4Xp0P3sUrkfhenQ/exSuR+F6dD97FK5H4Xp0P3sUrkfhenQ/exSuR+F6dD97FK5H4Xp0P3sUrkfhenQ/exSuR+F6dD97FK5H4Xp0P3sUrkfhenQ/exSuR+F6dD97FK5H4Xp0P3sUrkfhenQ/exSuR+F6dD97FK5H4Xp0P3sUrkfhenQ/exSuR+F6dD97FK5H4Xp0P3sUrkfhenQ/"
        },
        "P-Tau": {
            "theta_kde": {
                "data": "k05VTVBZAQB2AHsnZGVzY3InOiAnPGY4JywgJ2ZvcnRyYW5fb3JkZXInOiBGYWxzZSwgJ3NoYXBlJzogKDk3LCksIH0gICAgICAgICAgICAgICAgICAgICAgICAgICAgICAgICAgICAgICAgICAgICAgICAgICAgICAgICAgIAq+zkiXeuBQwDIkYb9DyUnA7FgtpwwDRcAM6O8IWYdCwEL6060N+E3Ams14RMgrTsAj1c1rfjNJwGBrC6kcIlLAvBPYdX8bS8AHRllsVBdFwATgz7yWQUPA14cQnANrRsAMBBbI1TZQwKULDdw601DAjoJ7pGQWTcB+MpiCYodQwAk89t4YnULAXl1fJGSFUsA7y53BKQtEwLjyhshto0TAF3TNhBJhRcAA7/xwxa1DwLTtA1hN0E/AlFub41JhSMBoJBaDfVFEwMgCatXR7EXAZPcckQnjQsATMMzncopHwGgtNpT7Jk7ASHNbLHOPTcCEH11HQYFJwAWwgbJSA0XAppwsepTMTMAM27k7g7BVwBAilzC/2kvArGHB20jXQ8Dt7yWqnYhTwFHeYGUbVUvAQto4AfriSsAD+tqLf6xHwKQzAfzXFU/A1NqUo7lJUMAkzlwrskZDwJTalGprikjAo5uROk5aQsBf27ZpsEBQwHTXqYrfHkrAWNcsPSIXRsD1nCh8YQFEwM768sONw07A8ijBf7dhT8APAwH0lCJHwGz41fHi6U3AtEnbvkCQUcDtRFrvp0JDwKxO2MdrEk3Ab+ACqFxIR8CsnQZ9GlJMwKTCzgbUI0fA1K6NxJrdRMC72xMlRtFDwGqt+2qVpkLAgtO/OrdNTsC8iSTp0xpFwPpCI4bddUnAhsV5DDSVScAgnXDRJddGwBeUBvXk01HAEHuf3qacScBa7chdfLtOwHYQQN+TUkTADKNltkgHRcBZVA92jihJwHt2kbyOc0nAgci+r/0pSMCI84LTfgpJwLrJS7afmUTA6oOeXFxNSsAOw9/KFPRDwNkuQXerD0vASpR6y2lyQ8D8Odkp9fhKwNNyZJaOAFPAMuv/JMs8Q8AxHui1byRLwEaEX5uCr1XAMxpPXv0vS8C+HYhQ5cNIwKQIWNkSyULABsHucuSHRsA9mBdQbxBJwOZvSo5fZk/AIUzKo7cATMBWzq3kUNdKwAnk8mOLlknAqTqo92ZkU8BIM8Fs+UBNwA==",
                "weights": "k05VTVBZAQB2AHsnZGVzY3InOiAnPGY4JywgJ2ZvcnRyYW5fb3JkZXInOiBGYWxzZSwgJ3NoYXBlJzogKDk3LCksIH0gICAgICAgICAgICAgICAgICAgICAgICAgICAgICAgICAgICAgICAgICAgICAgICAgICAgICAgICAgIAoV+OLqBx2FPxX44uoHHYU/Ffji6gcdhT8V+OLqBx2FPxX44uoHHYU/Ffji6gcdhT8V+OLqBx2FPxX44uoHHYU/Ffji6gcdhT8V+OLqBx2FPxX44uoHHYU/Ffji6gcdhT8V+OLqBx2FPxX44uoHHYU/Ffji6gcdhT8V+OLqBx2FPxX44uoHHYU/Ffji6gcdhT8V+OLqBx2FPxX44uoHHYU/Ffji6gcdhT8V+OLqBx2FPxX44uoHHYU/Ffji6gcdhT8V+OLqBx2FPxX44uoHHYU/Ffji6gcdhT8V+OLqBx2FPxX44uoHHYU/Ffji6gcdhT8V+OLqBx2FPxX44uoHHYU/Ffji6gcdhT8V+OLqBx2FPxX44uoHHYU/Ffji6gcdhT8V+OLqBx2FPxX44uoHHYU/Ffji6gcdhT8V+OLqBx2FPxX44uoHHYU/Ffji6gcdhT8V+OLqBx2FPxX44uoHHYU/Ffji6gcdhT8V+OLqBx2FPxX44uoHHYU/Ffji6gcdhT8V+OLqBx2FPxX44uoHHYU/Ffji6gcdhT8V+OLqBx2FPxX44uoHHYU/Ffji6gcdhT8V+OLqBx2FPxX44uoHHYU/Ffji6gcdhT8V+OLqBx2FPxX44uoHHYU/Ffji6gcdhT8V+OLqBx2FPxX44uoHHYU/Ffji6gcdhT8V+OLqBx2FPxX44uoHHYU/Ffji6gcdhT8V+OLqBx2FPxX44uoHHYU/Ffji6gcdhT8V+OLqBx2FPxX44uoHHYU/Ffji6gcdhT8V+OLqBx2FPxX44uoHHYU/Ffji6gcdhT8V+OLqBx2FPxX44uoHHYU/Ffji6gcdhT8V+OLqBx2FPxX44uoHHYU/Ffji6gcdhT8V+OLqBx2FPxX44uoHHYU/Ffji6gcdhT8V+OLqBx2FPxX44uoHHYU/Ffji6gcdhT8V+OLqBx2FPxX44uoHHYU/Ffji6gcdhT8V+OLqBx2FPxX44uoHHYU/Ffji6gcdhT8V+OLqBx2FPxX44uoHHYU/Ffji6gcdhT8V+OLqBx2FPw==",
                "bandwidth": 4.93328496981928
            },
            "theta_weights": "k05VTVBZAQB2AHsnZGVzY3InOiAnPGY4JywgJ2ZvcnRyYW5fb3JkZXInOiBGYWxzZSwgJ3NoYXBlJzogKDIwMCwpLCB9ICAgICAgICAgICAgICAgICAgICAgICAgICAgICAgICAgICAgICAgICAgICAgICAgICAgICAgICAgIAp7FK5H4Xp0P3sUrkfhenQ/exSuR+F6dD97FK5H4Xp0P3sUrkfhenQ/exSuR+F6dD97FK5H4Xp0P3sUrkfhenQ/exSuR+F6dD97FK5H4Xp0P3sUrkfhenQ/exSuR+F6dD97FK5H4Xp0P3sUrkfhenQ/exSuR+F6dD97FK5H4Xp0P3sUrkfhenQ/exSuR+F6dD97FK5H4Xp0P3sUrkfhenQ/exSuR+F6dD97FK5H4Xp0P3sUrkfhenQ/exSuR+F6dD97FK5H4Xp0P3sUrkfhenQ/exSuR+F6dD97FK5H4Xp0P3sUrkfhenQ/exSuR+F6dD97FK5H4Xp0P3sUrkfhenQ/exSuR+F6dD97FK5H4Xp0P3sUrkfhenQ/exSuR+F6dD97FK5H4Xp0P3sUrkfhenQ/exSuR+F6dD97FK5H4Xp0P3sUrkfhenQ/exSuR+F6dD97FK5H4Xp0P3sUrkfhenQ/exSuR+F6dD97FK5H4Xp0P3sUrkfhenQ/exSuR+F6dD97FK5H4Xp0P3sUrkfhenQ/exSuR+F6dD97FK5H4Xp0P3sUrkfhenQ/exSuR+F6dD97FK5H4Xp0P3sUrkfhenQ/exSuR+F6dD97FK5H4Xp0P3sUrkfhenQ/exSuR+F6dD97FK5H4Xp0P3sUrkfhenQ/exSuR+F6dD97FK5H4Xp0P3sUrkfhenQ/exSuR+F6dD97FK5H4Xp0P3sUrkfhenQ/exSuR+F6dD97FK5H4Xp0P3sUrkfhenQ/exSuR+F6dD97FK5H4Xp0P3sUrkfhenQ/exSuR+F6dD97FK5H4Xp0P3sUrkfhenQ/exSuR+F6dD97FK5H4Xp0P3sUrkfhenQ/exSuR+F6dD97FK5H4Xp0P3sUrkfhenQ/exSuR+F6dD97FK5H4Xp0P3sUrkfhenQ/exSuR+F6dD97FK5H4Xp0P3sUrkfhenQ/exSuR+F6dD97FK5H4Xp0P3sUrkfhenQ/exSuR+F6dD97FK5H4Xp0P3sUrkfhenQ/exSuR+F6dD97FK5H4Xp0P3sUrkfhenQ/exSuR+F6dD97FK5H4Xp0P3sUrkfhenQ/exSuR+F6dD97FK5H4Xp0P3sUrkfhenQ/exSuR+F6dD97FK5H4Xp0P3sUrkfhenQ/exSuR+F6dD97FK5H4Xp0P3sUrkfhenQ/exSuR+F6dD97FK5H4Xp0P3sUrkfhenQ/exSuR+F6dD97FK5H4Xp0P3sUrkfhenQ/exSuR+F6dD97FK5H4Xp0P3sUrkfhenQ/exSuR+F6dD97FK5H4Xp0P3sUrkfhenQ/exSuR+F6dD97FK5H4Xp0P3sUrkfhenQ/exSuR+F6dD97FK5H4Xp0P3sUrkfhenQ/exSuR+F6dD97FK5H4Xp0P3sUrkfhenQ/exSuR+F6dD97FK5H4Xp0P3sUrkfhenQ/exSuR+F6dD97FK5H4Xp0P3sUrkfhenQ/exSuR+F6dD97FK5H4Xp0P3sUrkfhenQ/exSuR+F6dD97FK5H4Xp0P3sUrkfhenQ/exSuR+F6dD97FK5H4Xp0P3sUrkfhenQ/exSuR+F6dD97FK5H4Xp0P3sUrkfhenQ/exSuR+F6dD97FK5H4Xp0P3sUrkfhenQ/exSuR+F6dD97FK5H4Xp0P3sUrkfhenQ/exSuR+F6dD97FK5H4Xp0P3sUrkfhenQ/exSuR+F6dD97FK5H4Xp0P3sUrkfhenQ/exSuR+F6dD97FK5H4Xp0P3sUrkfhenQ/exSuR+F6dD97FK5H4Xp0P3sUrkfhenQ/exSuR+F6dD97FK5H4Xp0P3sUrkfhenQ/exSuR+F6dD97FK5H4Xp0P3sUrkfhenQ/exSuR+F6dD97FK5H4Xp0P3sUrkfhenQ/exSuR+F6dD97FK5H4Xp0P3sUrkfhenQ/exSuR+F6dD97FK5H4Xp0P3sUrkfhenQ/exSuR+F6dD97FK5H4Xp0P3sUrkfhenQ/exSuR+F6dD97FK5H4Xp0P3sUrkfhenQ/exSuR+F6dD97FK5H4Xp0P3sUrkfhenQ/exSuR+F6dD97FK5H4Xp0P3sUrkfhenQ/exSuR+F6dD97FK5H4Xp0P3sUrkfhenQ/exSuR+F6dD97FK5H4Xp0P3sUrkfhenQ/",
            "phi_kde": {
                "data": "k05VTVBZAQB2AHsnZGVzY3InOiAnPGY4JywgJ2ZvcnRyYW5fb3JkZXInOiBGYWxzZSwgJ3NoYXBlJzogKDEwMywpLCB9ICAgICAgICAgICAgICAgICAgICAgICAgICAgICAgICAgICAgICAgICAgICAgICAgICAgICAgICAgIArx0LvAHLs/wOw4cg5t8TbAA1xmV/KpNcCHdTsL4CdBwEG3OsMxdDbAGf7vPSYCGMCmjxxafU4KQNYhyE656SHAZA/KUpP3KMAsLl8G1N0+wJA2tdpOyjPAA7QQXxAwIsAQeL0rWkExwNA2nOAAVyfAP/cHqb2hLMCDtxPsa6gFwJ/5j6qRTz7AYWkeEO1pO8Bz8y4ZzosZwLwhKTt1fQLAIeFSKUqsB8AAwe7evmIfQKPnKYusnD7ACiZNexpRNsDM+RbZYPIvwKV4uSJ9FTrA5+lTol0ZQMBjAhGe89YvwDhwCIk98zTArMnqxfejLsAOw3w9VX84wOzO0lOSADbAiWfPohLEJMDlppiertAwwFHnMgUjuUHAb32p4L9TP8CYb1hD4gc6wII9oL1WxzLA0gHKBUbVQMCCfDHWaEpBwPy5grB2TDzAYSKMqXhQN8BRPDWt1/MhwNgmuWoZtEHAyPnVv/p7MsDlQedeR+s/wE8/5VOAnDHAxfhy0BkLO8Drn19KOglBwD3p1qrMvi1AO1E3qpLsCcAi266glZ49wEiO+RjU7DvAUsJvwodZG8BUlhTFaXg9wA6iq6wbbz7A78aTFiG7N8DaNlb7ks5BwPVhQb2X9irAMH830pA9PMDnmCa5Qxk8wJdfiWB1N0DAqyiW0e/xO8C5XqL7hO4/wIf25uPM+j/AWr7ir09nNcCqcwL86W4AwFbqycJ+Hy7AjheTPGVsD8A7/O6oZqMvwO2Zmy4Kzj/AHABUObIgGsAPQUPCGqk+wO7tbz7YFkDA4uWztIQ2DMBKmUL5kKw+wFe8O9RbazDA3xHu/kG3P8A/HjsrKmk5wAZ5sqkLEhzA8rqOq7KXL8CRcz4c+QwxwAYVJK6U8hjA1QcaimeULcC1dYz0Wsg+wLZaIBLkMTfANCpm4O2tPsABJpZbxFb6v6p4zS5zcyjAlHKLkO5yOcAywM6pheU4wEOPodo2TjfAOvikDQJgQcByeldxtIw3wBUAdds8QzvACSvn81x6MMCeWxfnMvU2wJaLw1M6NjnAzzb9sb8cGsAjPcTBUzI4wHTqt+fg5RHAyfdxJ2TlJMCVKHST5R05wA==",
                "weights": "k05VTVBZAQB2AHsnZGVzY3InOiAnPGY4JywgJ2ZvcnRyYW5fb3JkZXInOiBGYWxzZSwgJ3NoYXBlJzogKDEwMywpLCB9ICAgICAgICAgICAgICAgICAgICAgICAgICAgICAgICAgICAgICAgICAgICAgICAgICAgICAgICAgIAoCqeS8LOKDPwKp5Lws4oM/AqnkvCzigz8CqeS8LOKDPwKp5Lws4oM/AqnkvCzigz8CqeS8LOKDPwKp5Lws4oM/AqnkvCzigz8CqeS8LOKDPwKp5Lws4oM/AqnkvCzigz8CqeS8LOKDPwKp5Lws4oM/AqnkvCzigz8CqeS8LOKDPwKp5Lws4oM/AqnkvCzigz8CqeS8LOKDPwKp5Lws4oM/AqnkvCzigz8CqeS8LOKDPwKp5Lws4oM/AqnkvCzigz8CqeS8LOKDPwKp5Lws4oM/AqnkvCzigz8CqeS8LOKDPwKp5Lws4oM/AqnkvCzigz8CqeS8LOKDPwKp5Lws4oM/AqnkvCzigz8CqeS8LOKDPwKp5Lws4oM/AqnkvCzigz8CqeS8LOKDPwKp5Lws4oM/AqnkvCzigz8CqeS8LOKDPwKp5Lws4oM/AqnkvCzigz8CqeS8LOKDPwKp5Lws4oM/AqnkvCzigz8CqeS8LOKDPwKp5Lws4oM/AqnkvCzigz8CqeS8LOKDPwKp5Lws4oM/AqnkvCzigz8CqeS8LOKDPwKp5Lws4oM/AqnkvCzigz8CqeS8LOKDPwKp5Lws4oM/AqnkvCzigz8CqeS8LOKDPwKp5Lws4oM/AqnkvCzigz8CqeS8LOKDPwKp5Lws4oM/AqnkvCzigz8CqeS8LOKDPwKp5Lws4oM/AqnkvCzigz8CqeS8LOKDPwKp5Lws4oM/AqnkvCzigz8CqeS8LOKDPwKp5Lws4oM/AqnkvCzigz8CqeS8LOKDPwKp5Lws4oM/AqnkvCzigz8CqeS8LOKDPwKp5Lws4oM/AqnkvCzigz8CqeS8LOKDPwKp5Lws4oM/AqnkvCzigz8CqeS8LOKDPwKp5Lws4oM/AqnkvCzigz8CqeS8LOKDPwKp5Lws4oM/AqnkvCzigz8CqeS8LOKDPwKp5Lws4oM/AqnkvCzigz8CqeS8LOKDPwKp5Lws4oM/AqnkvCzigz8CqeS8LOKDPwKp5Lws4oM/AqnkvCzigz8CqeS8LOKDPwKp5Lws4oM/AqnkvCzigz8CqeS8LOKDPwKp5Lws4oM/AqnkvCzigz8CqeS8LOKDPw==",
                "bandwidth": 4.619680420915405
            },
            "phi_weights": "k05VTVBZAQB2AHsnZGVzY3InOiAnPGY4JywgJ2ZvcnRyYW5fb3JkZXInOiBGYWxzZSwgJ3NoYXBlJzogKDIwMCwpLCB9ICAgICAgICAgICAgICAgICAgICAgICAgICAgICAgICAgICAgICAgICAgICAgICAgICAgICAgICAgIAp7FK5H4Xp0P3sUrkfhenQ/exSuR+F6dD97FK5H4Xp0P3sUrkfhenQ/exSuR+F6dD97FK5H4Xp0P3sUrkfhenQ/exSuR+F6dD97FK5H4Xp0P3sUrkfhenQ/exSuR+F6dD97FK5H4Xp0P3sUrkfhenQ/exSuR+F6dD97FK5H4Xp0P3sUrkfhenQ/exSuR+F6dD97FK5H4Xp0P3sUrkfhenQ/exSuR+F6dD97FK5H4Xp0P3sUrkfhenQ/exSuR+F6dD97FK5H4Xp0P3sUrkfhenQ/exSuR+F6dD97FK5H4Xp0P3sUrkfhenQ/exSuR+F6dD97FK5H4Xp0P3sUrkfhenQ/exSuR+F6dD97FK5H4Xp0P3sUrkfhenQ/exSuR+F6dD97FK5H4Xp0P3sUrkfhenQ/exSuR+F6dD97FK5H4Xp0P3sUrkfhenQ/exSuR+F6dD97FK5H4Xp0P3sUrkfhenQ/exSuR+F6dD97FK5H4Xp0P3sUrkfhenQ/exSuR+F6dD97FK5H4Xp0P3sUrkfhenQ/exSuR+F6dD97FK5H4Xp0P3sUrkfhenQ/exSuR+F6dD97FK5H4Xp0P3sUrkfhenQ/exSuR+F6dD97FK5H4Xp0P3sUrkfhenQ/exSuR+F6dD97FK5H4Xp0P3sUrkfhenQ/exSuR+F6dD97FK5H4Xp0P3sUrkfhenQ/exSuR+F6dD97FK5H4Xp0P3sUrkfhenQ/exSuR+F6dD97FK5H4Xp0P3sUrkfhenQ/exSuR+F6dD97FK5H4Xp0P3sUrkfhenQ/exSuR+F6dD97FK5H4Xp0P3sUrkfhenQ/exSuR+F6dD97FK5H4Xp0P3sUrkfhenQ/exSuR+F6dD97FK5H4Xp0P3sUrkfhenQ/exSuR+F6dD97FK5H4Xp0P3sUrkfhenQ/exSuR+F6dD97FK5H4Xp0P3sUrkfhenQ/exSuR+F6dD97FK5H4Xp0P3sUrkfhenQ/exSuR+F6dD97FK5H4Xp0P3sUrkfhenQ/exSuR+F6dD97FK5H4Xp0P3sUrkfhenQ/exSuR+F6dD97FK5H4Xp0P3sUrkfhenQ/exSuR+F6dD97FK5H4Xp0P3sUrkfhenQ/exSuR+F6dD97FK5H4Xp0P3sUrkfhenQ/exSuR+F6dD97FK5H4Xp0P3sUrkfhenQ/exSuR+F6dD97FK5H4Xp0P3sUrkfhenQ/exSuR+F6dD97FK5H4Xp0P3sUrkfhenQ/exSuR+F6dD97FK5H4Xp0P3sUrkfhenQ/exSuR+F6dD97FK5H4Xp0P3sUrkfhenQ/exSuR+F6dD97FK5H4Xp0P3sUrkfhenQ/exSuR+F6dD97FK5H4Xp0P3sUrkfhenQ/exSuR+F6dD97FK5H4Xp0P3sUrkfhenQ/exSuR+F6dD97FK5H4Xp0P3sUrkfhenQ/exSuR+F6dD97FK5H4Xp0P3sUrkfhenQ/exSuR+F6dD97FK5H4Xp0P3sUrkfhenQ/exSuR+F6dD97FK5H4Xp0P3sUrkfhenQ/exSuR+F6dD97FK5H4Xp0P3sUrkfhenQ/exSuR+F6dD97FK5H4Xp0P3sUrkfhenQ/exSuR+F6dD97FK5H4Xp0P3sUrkfhenQ/exSuR+F6dD97FK5H4Xp0P3sUrkfhenQ/exSuR+F6dD97FK5H4Xp0P3sUrkfhenQ/exSuR+F6dD97FK5H4Xp0P3sUrkfhenQ/exSuR+F6dD97FK5H4Xp0P3sUrkfhenQ/exSuR+F6dD97FK5H4Xp0P3sUrkfhenQ/exSuR+F6dD97FK5H4Xp0P3sUrkfhenQ/exSuR+F6dD97FK5H4Xp0P3sUrkfhenQ/exSuR+F6dD97FK5H4Xp0P3sUrkfhenQ/exSuR+F6dD97FK5H4Xp0P3sUrkfhenQ/exSuR+F6dD97FK5H4Xp0P3sUrkfhenQ/exSuR+F6dD97FK5H4Xp0P3sUrkfhenQ/exSuR+F6dD97FK5H4Xp0P3sUrkfhenQ/exSuR+F6dD97FK5H4Xp0P3sUrkfhenQ/exSuR+F6dD97FK5H4Xp0P3sUrkfhenQ/exSuR+F6dD97FK5H4Xp0P3sUrkfhenQ/exSuR+F6dD97FK5H4Xp0P3sUrkfhenQ/"
        },
        "PCC-FCI": {
            "theta_kde": {
                "data": "k05VTVBZAQB2AHsnZGVzY3InOiAnPGY4JywgJ2ZvcnRyYW5fb3JkZXInOiBGYWxzZSwgJ3NoYXBlJzogKDExMiwpLCB9ICAgICAgICAgICAgICAgICAgICAgICAgICAgICAgICAgICAgICAgICAgICAgICAgICAgICAgICAgIAoiUm82T+oJQDM/cPUqORZAyS883AmhFEBJKWL6QNgLQKjPXVDsOQZANqJCWUd9G0CKvndZGCsLQJmCXp2cSRxAx7Qv0DJLGkA6SzOQghUSQFkPEz4LehtAb4lHb98KAEDisXkmvGgbQI1BsEsQ9fC/n0CA1+4PEUA9Hy2UMbq5v7DETKUfwAvALofA/ttHEUApDBrHjgj9v/BMGgqVnds/WElS1qwJ5T+kH9HrjAMQQDD8cMWhwPU/H1R+p4jdGEDUHTg2CRAaQN6KS6FmpRhAWHIWeHy76z9tbfLHp6EQwKLXtBcWFRBAai4VIenxD0C3KKvhZVcRQMBH2Oapd/A/zj9xLzbCB0BtHJR8L4UaQOcUO2OdxxZAeDPQsYbvDEDWCXDXs6gCQLXwqs6uWhtAyjHf+IAHDkD9GXDL3H0ZQD5rOuG4gwBA6drZdcGcF0AYnLW+UrYaQGdT8DBgOR5AWLax/dqqF0DG1x/vzNEBQDpaDJRJiQLASLgI4UUS4j9iZ6OXoi4EQO/jR8XgLhxA5fSTC60fEkDRPAlAhF4cQHjTEL1HSxJA12Mth52P8j/7EHan5XQQQL+7mfYW1sg/H1rmqjss2b8vagYNTRQaQFrvxJaAWhFAEYnnGX1CHEBoldORCVDpPyDKUZYmbNQ/ZmbXFl06BkCSboqN7VAEQIvqwcHnuRtAGuoEkSmhBUDQ445ne1/cP2/7So48PBdAxCZNxKgO/L8pPCbNiy4ZQEI6sK5uqxNAKZoqzx6oEUBSzxSNkGUXQPcS9+B5mBFAXHswRxrXAkBoLzwJC+kZQI+VPyFtEBlA45QnyczFG0DwDGtA5Cfovx9BrYlJ7NK/EB1vuL4817/Fp1KalXcZQO8051CNhRNArhrtS8s1EkAt1meZ254XQCxH2QdRAgtAqtacShAmAEA0UbNJMFgSQNmkjiGAsxtALeytzSOKHMAQ7BlUgrHnvxe5i4i51f8/cp1aB8o4HEAeoOUz6jnAP86Th0bushpAkADJB0Q2HEBGxOob5TYSQGqRcpquchZA/czPHkf2DkCi5OS94wsSQP8hSsBtnh1AGl1WMvUJAEBDaTKHwEf0v3DkLE33NxBAxSzUwPkFEkDYarOvYbkUQLz4QToqA/s/eLn5kKh1/T/qRf8G/AgPQH6KA4mvvRxAeiqSs0WHFkBeZ26TjZXBvw==",
                "weights": "k05VTVBZAQB2AHsnZGVzY3InOiAnPGY4JywgJ2ZvcnRyYW5fb3JkZXInOiBGYWxzZSwgJ3NoYXBlJzogKDExMiwpLCB9ICAgICAgICAgICAgICAgICAgICAgICAgICAgICAgICAgICAgICAgICAgICAgICAgICAgICAgICAgIAqSJEmSJEmCP5IkSZIkSYI/kiRJkiRJgj+SJEmSJEmCP5IkSZIkSYI/kiRJkiRJgj+SJEmSJEmCP5IkSZIkSYI/kiRJkiRJgj+SJEmSJEmCP5IkSZIkSYI/kiRJkiRJgj+SJEmSJEmCP5IkSZIkSYI/kiRJkiRJgj+SJEmSJEmCP5IkSZIkSYI/kiRJkiRJgj+SJEmSJEmCP5IkSZIkSYI/kiRJkiRJgj+SJEmSJEmCP5IkSZIkSYI/kiRJkiRJgj+SJEmSJEmCP5IkSZIkSYI/kiRJkiRJgj+SJEmSJEmCP5IkSZIkSYI/kiRJkiRJgj+SJEmSJEmCP5IkSZIkSYI/kiRJkiRJgj+SJEmSJEmCP5IkSZIkSYI/kiRJkiRJgj+SJEmSJEmCP5IkSZIkSYI/kiRJkiRJgj+SJEmSJEmCP5IkSZIkSYI/kiRJkiRJgj+SJEmSJEmCP5IkSZIkSYI/kiRJkiRJgj+SJEmSJEmCP5IkSZIkSYI/kiRJkiRJgj+SJEmSJEmCP5IkSZIkSYI/kiRJkiRJgj+SJEmSJEmCP5IkSZIkSYI/kiRJkiRJgj+SJEmSJEmCP5IkSZIkSYI/kiRJkiRJgj+SJEmSJEmCP5IkSZIkSYI/kiRJkiRJgj+SJEmSJEmCP5IkSZIkSYI/kiRJkiRJgj+SJEmSJEmCP5IkSZIkSYI/kiRJkiRJgj+SJEmSJEmCP5IkSZIkSYI/kiRJkiRJgj+SJEmSJEmCP5IkSZIkSYI/kiRJkiRJgj+SJEmSJEmCP5IkSZIkSYI/kiRJkiRJgj+SJEmSJEmCP5IkSZIkSYI/kiRJkiRJgj+SJEmSJEmCP5IkSZIkSYI/kiRJkiRJgj+SJEmSJEmCP5IkSZIkSYI/kiRJkiRJgj+SJEmSJEmCP5IkSZIkSYI/kiRJkiRJgj+SJEmSJEmCP5IkSZIkSYI/kiRJkiRJgj+SJEmSJEmCP5IkSZIkSYI/kiRJkiRJgj+SJEmSJEmCP5IkSZIkSYI/kiRJkiRJgj+SJEmSJEmCP5IkSZIkSYI/kiRJkiRJgj+SJEmSJEmCP5IkSZIkSYI/kiRJkiRJgj+SJEmSJEmCP5IkSZIkSYI/kiRJkiRJgj+SJEmSJEmCP5IkSZIkSYI/kiRJkiRJgj+SJEmSJEmCP5IkSZIkSYI/kiRJkiRJgj+SJEmSJEmCPw==",
                "bandwidth": 1.212485164467377
            },
            "theta_weights": "k05VTVBZAQB2AHsnZGVzY3InOiAnPGY4JywgJ2ZvcnRyYW5fb3JkZXInOiBGYWxzZSwgJ3NoYXBlJzogKDIwMCwpLCB9ICAgICAgICAgICAgICAgICAgICAgICAgICAgICAgICAgICAgICAgICAgICAgICAgICAgICAgICAgIAp7FK5H4Xp0P3sUrkfhenQ/exSuR+F6dD97FK5H4Xp0P3sUrkfhenQ/exSuR+F6dD97FK5H4Xp0P3sUrkfhenQ/exSuR+F6dD97FK5H4Xp0P3sUrkfhenQ/exSuR+F6dD97FK5H4Xp0P3sUrkfhenQ/exSuR+F6dD97FK5H4Xp0P3sUrkfhenQ/exSuR+F6dD97FK5H4Xp0P3sUrkfhenQ/exSuR+F6dD97FK5H4Xp0P3sUrkfhenQ/exSuR+F6dD97FK5H4Xp0P3sUrkfhenQ/exSuR+F6dD97FK5H4Xp0P3sUrkfhenQ/exSuR+F6dD97FK5H4Xp0P3sUrkfhenQ/exSuR+F6dD97FK5H4Xp0P3sUrkfhenQ/exSuR+F6dD97FK5H4Xp0P3sUrkfhenQ/exSuR+F6dD97FK5H4Xp0P3sUrkfhenQ/exSuR+F6dD97FK5H4Xp0P3sUrkfhenQ/exSuR+F6dD97FK5H4Xp0P3sUrkfhenQ/exSuR+F6dD97FK5H4Xp0P3sUrkfhenQ/exSuR+F6dD97FK5H4Xp0P3sUrkfhenQ/exSuR+F6dD97FK5H4Xp0P3sUrkfhenQ/exSuR+F6dD97FK5H4Xp0P3sUrkfhenQ/exSuR+F6dD97FK5H4Xp0P3sUrkfhenQ/exSuR+F6dD97FK5H4Xp0P3sUrkfhenQ/exSuR+F6dD97FK5H4Xp0P3sUrkfhenQ/exSuR+F6dD97FK5H4Xp0P3sUrkfhenQ/exSuR+F6dD97FK5H4Xp0P3sUrkfhenQ/exSuR+F6dD97FK5H4Xp0P3sUrkfhenQ/exSuR+F6dD97FK5H4Xp0P3sUrkfhenQ/exSuR+F6dD97FK5H4Xp0P3sUrkfhenQ/exSuR+F6dD97FK5H4Xp0P3sUrkfhenQ/exSuR+F6dD97FK5H4Xp0P3sUrkfhenQ/exSuR+F6dD97FK5H4Xp0P3sUrkfhenQ/exSuR+F6dD97FK5H4Xp0P3sUrkfhenQ/exSuR+F6dD97FK5H4Xp0P3sUrkfhenQ/exSuR+F6dD97FK5H4Xp0P3sUrkfhenQ/exSuR+F6dD97FK5H4Xp0P3sUrkfhenQ/exSuR+F6dD97FK5H4Xp0P3sUrkfhenQ/exSuR+F6dD97FK5H4Xp0P3sUrkfhenQ/exSuR+F6dD97FK5H4Xp0P3sUrkfhenQ/exSuR+F6dD97FK5H4Xp0P3sUrkfhenQ/exSuR+F6dD97FK5H4Xp0P3sUrkfhenQ/exSuR+F6dD97FK5H4Xp0P3sUrkfhenQ/exSuR+F6dD97FK5H4Xp0P3sUrkfhenQ/exSuR+F6dD97FK5H4Xp0P3sUrkfhenQ/exSuR+F6dD97FK5H4Xp0P3sUrkfhenQ/exSuR+F6dD97FK5H4Xp0P3sUrkfhenQ/exSuR+F6dD97FK5H4Xp0P3sUrkfhenQ/exSuR+F6dD97FK5H4Xp0P3sUrkfhenQ/exSuR+F6dD97FK5H4Xp0P3sUrkfhenQ/exSuR+F6dD97FK5H4Xp0P3sUrkfhenQ/exSuR+F6dD97FK5H4Xp0P3sUrkfhenQ/exSuR+F6dD97FK5H4Xp0P3sUrkfhenQ/exSuR+F6dD97FK5H4Xp0P3sUrkfhenQ/exSuR+F6dD97FK5H4Xp0P3sUrkfhenQ/exSuR+F6dD97FK5H4Xp0P3sUrkfhenQ/exSuR+F6dD97FK5H4Xp0P3sUrkfhenQ/exSuR+F6dD97FK5H4Xp0P3sUrkfhenQ/exSuR+F6dD97FK5H4Xp0P3sUrkfhenQ/exSuR+F6dD97FK5H4Xp0P3sUrkfhenQ/exSuR+F6dD97FK5H4Xp0P3sUrkfhenQ/exSuR+F6dD97FK5H4Xp0P3sUrkfhenQ/exSuR+F6dD97FK5H4Xp0P3sUrkfhenQ/exSuR+F6dD97FK5H4Xp0P3sUrkfhenQ/exSuR+F6dD97FK5H4Xp0P3sUrkfhenQ/exSuR+F6dD97FK5H4Xp0P3sUrkfhenQ/exSuR+F6dD97FK5H4Xp0P3sUrkfhenQ/exSuR+F6dD97FK5H4Xp0P3sUrkfhenQ/exSuR+F6dD97FK5H4Xp0P3sUrkfhenQ/",
            "phi_kde": {
                "data": "k05VTVBZAQB2AHsnZGVzY3InOiAnPGY4JywgJ2ZvcnRyYW5fb3JkZXInOiBGYWxzZSwgJ3NoYXBlJzogKDg4LCksIH0gICAgICAgICAgICAgICAgICAgICAgICAgICAgICAgICAgICAgICAgICAgICAgICAgICAgICAgICAgIAqqR7veUW8rQKIpnLyQ/iFAWhEF/Pu8L0BUUIzNSCIrQLaz/KNuJyVAhML/IuErMEDyy4Q3rk8gQFVvXoYWVChAxPFJkYNOH0D+hq2yl4EvQGi7IdscUiVAQDOpT0T3K0Do1l3tj3oqQG+FmMKWsh9AhoDptnmdK0DyJLFndH8iQDBt4uGJNzhAchwbMfmtLEA14In8obQwQPTXvxsk9TBAGOxTsbizJEBPF5tyzUMsQNZXBuUpGidAwLkf67UVIkBwd+5LWWspQOeCgqTwhyBAgCmhK8NkJkDj2fLkBnAiQJCju+6X9SFAwwOY7OemIkBO5hyK7YoiQOLJTSg9xiZAwEtkeU2oIEBFpV1iVPYkQEOq3yHlLyNAFdOTW7leJkAihZHSnWIhQBX3+UIiqCdAwINYvRZcKkDNmTR76msmQDWA8FnnRyZAOsset5Y1I0BmVWQkokggQG0y26assSJA3RzW2hkDMkD5X/OpbpspQAwU2dGx9SpATEI5EZP8I0ChbgiQjAUnQKqj7uI3GCFAiPeNjWfSJUD2rd3SUrIpQA6hoo03jyxAHOemGCm0LUBPEH//JaMqQLC8eqL8+SRAf5UcPaNEKUCmISBBxWkkQHqZgtUdnDNAtKxHV5PPJECSHY3EUBgpQKbxPORIwiFAQ5HTg/RKLUC1aI97fd8qQD1tggcG7SpAQWSZ5NrTIEDEaLHNQUEwQCRZoBAjgzFAaB6D/wK4J0C2aQkxufowQAZaRCtA4yhAiOlVeOtuI0B8vnHf31UwQCPu4vg6+ylAitC5s9G3IkAoHobv1nYjQEk3OUU1jCVAgN9HkOCeJUCuMa/TG0goQAt02QuF/yBA3dTD9SYnJUDLTPKltBknQHf0VZadSihASDlaR1R9IkCEVZeafeUrQFWrbXvFDydA9K1M+oCsI0BlAo+x2L4sQA==",
                "weights": "k05VTVBZAQB2AHsnZGVzY3InOiAnPGY4JywgJ2ZvcnRyYW5fb3JkZXInOiBGYWxzZSwgJ3NoYXBlJzogKDg4LCksIH0gICAgICAgICAgICAgICAgICAgICAgICAgICAgICAgICAgICAgICAgICAgICAgICAgICAgICAgICAgIApGF1100UWHP0YXXXTRRYc/RhdddNFFhz9GF1100UWHP0YXXXTRRYc/RhdddNFFhz9GF1100UWHP0YXXXTRRYc/RhdddNFFhz9GF1100UWHP0YXXXTRRYc/RhdddNFFhz9GF1100UWHP0YXXXTRRYc/RhdddNFFhz9GF1100UWHP0YXXXTRRYc/RhdddNFFhz9GF1100UWHP0YXXXTRRYc/RhdddNFFhz9GF1100UWHP0YXXXTRRYc/RhdddNFFhz9GF1100UWHP0YXXXTRRYc/RhdddNFFhz9GF1100UWHP0YXXXTRRYc/RhdddNFFhz9GF1100UWHP0YXXXTRRYc/RhdddNFFhz9GF1100UWHP0YXXXTRRYc/RhdddNFFhz9GF1100UWHP0YXXXTRRYc/RhdddNFFhz9GF1100UWHP0YXXXTRRYc/RhdddNFFhz9GF1100UWHP0YXXXTRRYc/RhdddNFFhz9GF1100UWHP0YXXXTRRYc/RhdddNFFhz9GF1100UWHP0YXXXTRRYc/RhdddNFFhz9GF1100UWHP0YXXXTRRYc/RhdddNFFhz9GF1100UWHP0YXXXTRRYc/RhdddNFFhz9GF1100UWHP0YXXXTRRYc/RhdddNFFhz9GF1100UWHP0YXXXTRRYc/RhdddNFFhz9GF1100UWHP0YXXXTRRYc/RhdddNFFhz9GF1100UWHP0YXXXTRRYc/RhdddNFFhz9GF1100UWHP0YXXXTRRYc/RhdddNFFhz9GF1100UWHP0YXXXTRRYc/RhdddNFFhz9GF1100UWHP0YXXXTRRYc/RhdddNFFhz9GF1100UWHP0YXXXTRRYc/RhdddNFFhz9GF1100UWHP0YXXXTRRYc/RhdddNFFhz9GF1100UWHP0YXXXTRRYc/RhdddNFFhz9GF1100UWHPw==",
                "bandwidth": 1.2884580898892912
            },
