{
    "n_iter": 200,
    "n_shuffle": 2,
    "burn_in": 100,
    "thinning": 10,
    "most_likely_order": {
        "HIP-FCI": 1,
        "AB": 2,
        "FUS-FCI": 3,
        "PCC-FCI": 4,
        "P-Tau": 5,
        "MMSE": 6,
        "ADAS": 7,
        "AVLT-Sum": 8,
        "FUS-GMI": 9,
        "HIP-GMI": 10
    },
    "kendalls_tau": 0.5555555555555555,
    "p_value": 0.02860945767195767,
    "original_order": {
        "HIP-FCI": 1,
        "PCC-FCI": 2,
        "AB": 3,
        "P-Tau": 4,
        "MMSE": 5,
        "ADAS": 6,
        "HIP-GMI": 7,
        "AVLT-Sum": 8,
        "FUS-GMI": 9,
        "FUS-FCI": 10
    },
    "order_with_higest_ll": {
        "HIP-FCI": 1,
        "AB": 2,
        "FUS-FCI": 3,
        "PCC-FCI": 4,
        "P-Tau": 5,
        "MMSE": 6,
        "ADAS": 7,
        "AVLT-Sum": 8,
        "FUS-GMI": 9,
        "HIP-GMI": 10
    },
    "kendalls_tau2": 0.5555555555555555,
    "p_value2": 0.02860945767195767,
    "final_theta_phi_params": {
        "AB": {
            "theta_kde": {
                "data": "k05VTVBZAQB2AHsnZGVzY3InOiAnPGY4JywgJ2ZvcnRyYW5fb3JkZXInOiBGYWxzZSwgJ3NoYXBlJzogKDEyMSwpLCB9ICAgICAgICAgICAgICAgICAgICAgICAgICAgICAgICAgICAgICAgICAgICAgICAgICAgICAgICAgIAq2P0Zz3QVpQLa/7IZim2BA13oLk+ZUaEAKN5Bj2clmQAKk0MVS+GVAgHwjOYm9X0Cy0cF5Q7poQNZw6StCrWdAz5skoUSaZ0CWnxUm6q1kQAsU5gu0oWJAmQYUg1YpYUAmIsgSZodjQPxyRrHPf2lAHrjEfxwtZUAKPFBhU1hHQPeSGNjcqGFANuvUXtzGZkBEqG+r/lBiQKuRSv1+mmVAK7Wr717TZEBQ9RCN8s5dQEStwBPAaWRAIfWqx31hXkBCqPNfaHBkQGBc+gmlaV1AS1JbkYJuXECMvca9KxNoQPebEQjO/GhAxJExQPzLZkArnrCnB61dQHsgAK+xAmdA8NAKZPJQZ0CgQzFjKN1jQMOWZOCnKlBA5mNwYKjmZEBrPktELYdnQIiJ0dMI/2FAddoJQtHJWECvDRQZma1oQEduLunIX1FAVnK2y3JDakC6GbB0t/BlQPzbfDJmiWlA5Et8Vr7MYUAQEdPikA1NQLABe07gymVAzvzT9KE9VUBezHseixdLQKLbB8LyTWRA9gR1Pz2OT0Cs5rlGvchjQG6t/KDsL1lALJO7PEo3aUDx2rd50LFkQPvxeCaSUGVA7OXuOktbZUDZAtKIOGBmQOeFOzZgk1hA575A6ow0Y0BlRU2QdUBnQP4NdKCQ0khASWzZO1X9ZECgZUhgM+5ZQBivceSYImFAiIr1OgUDZ0BaqBYfr1JnQAKxXseAVWNA7U/N1WiBXkD9068blRhiQDC1LFtNR2pA0qYK1E2RZUCIDGR7ZjVYQIzkU00YNmFAOfo1MLhmYUDxGYoab0FfQJRFb7wNjWBAPmw0mAtdZUDNaMSsyDpkQOTnNsquo2FAHknI4Yb4Y0B7ZaR1JhNqQGk7CjBS0WlAjhvncQahYEDkCWmfah9jQFQQcyqBhWVAOKBDZ1fvYkDci+A8G41lQLj64YW84mNAMNDq0pmnZEA0Dv/ZJ6haQMWXA1XoaWNAMuaQbnGEZ0BAVae1xipmQJbJBnLsmldAqr0BHO1MZkCcmjYvPINiQA3ArxshhmhATOB0/7gvWUAhT+Z5c2dkQL4b2CsFtmBAyCCoHmVQYkDJwzfVrFhjQBgFtiHBeVxAOB610+L1Y0DgjocNLShiQMVtazfROGZArU4Se6LgaUDisubYZWJjQDo9Ns5h52VAPEYm2isLXUDV8kdE8m9eQGVBR9Sm5GdA9FBKI4WuY0CDzkrT3WZpQFhn50jj0F5AWaHrpL8bWkC6b1V0hBNlQHA2/zlJr2dAaulKqAFAWkDfGYVefg5pQA==",
                "weights": "k05VTVBZAQB2AHsnZGVzY3InOiAnPGY4JywgJ2ZvcnRyYW5fb3JkZXInOiBGYWxzZSwgJ3NoYXBlJzogKDEyMSwpLCB9ICAgICAgICAgICAgICAgICAgICAgICAgICAgICAgICAgICAgICAgICAgICAgICAgICAgICAgICAgIAqQnOZr9eyAP5Cc5mv17IA/kJzma/XsgD+QnOZr9eyAP5Cc5mv17IA/kJzma/XsgD+QnOZr9eyAP5Cc5mv17IA/kJzma/XsgD+QnOZr9eyAP5Cc5mv17IA/kJzma/XsgD+QnOZr9eyAP5Cc5mv17IA/kJzma/XsgD+QnOZr9eyAP5Cc5mv17IA/kJzma/XsgD+QnOZr9eyAP5Cc5mv17IA/kJzma/XsgD+QnOZr9eyAP5Cc5mv17IA/kJzma/XsgD+QnOZr9eyAP5Cc5mv17IA/kJzma/XsgD+QnOZr9eyAP5Cc5mv17IA/kJzma/XsgD+QnOZr9eyAP5Cc5mv17IA/kJzma/XsgD+QnOZr9eyAP5Cc5mv17IA/kJzma/XsgD+QnOZr9eyAP5Cc5mv17IA/kJzma/XsgD+QnOZr9eyAP5Cc5mv17IA/kJzma/XsgD+QnOZr9eyAP5Cc5mv17IA/kJzma/XsgD+QnOZr9eyAP5Cc5mv17IA/kJzma/XsgD+QnOZr9eyAP5Cc5mv17IA/kJzma/XsgD+QnOZr9eyAP5Cc5mv17IA/kJzma/XsgD+QnOZr9eyAP5Cc5mv17IA/kJzma/XsgD+QnOZr9eyAP5Cc5mv17IA/kJzma/XsgD+QnOZr9eyAP5Cc5mv17IA/kJzma/XsgD+QnOZr9eyAP5Cc5mv17IA/kJzma/XsgD+QnOZr9eyAP5Cc5mv17IA/kJzma/XsgD+QnOZr9eyAP5Cc5mv17IA/kJzma/XsgD+QnOZr9eyAP5Cc5mv17IA/kJzma/XsgD+QnOZr9eyAP5Cc5mv17IA/kJzma/XsgD+QnOZr9eyAP5Cc5mv17IA/kJzma/XsgD+QnOZr9eyAP5Cc5mv17IA/kJzma/XsgD+QnOZr9eyAP5Cc5mv17IA/kJzma/XsgD+QnOZr9eyAP5Cc5mv17IA/kJzma/XsgD+QnOZr9eyAP5Cc5mv17IA/kJzma/XsgD+QnOZr9eyAP5Cc5mv17IA/kJzma/XsgD+QnOZr9eyAP5Cc5mv17IA/kJzma/XsgD+QnOZr9eyAP5Cc5mv17IA/kJzma/XsgD+QnOZr9eyAP5Cc5mv17IA/kJzma/XsgD+QnOZr9eyAP5Cc5mv17IA/kJzma/XsgD+QnOZr9eyAP5Cc5mv17IA/kJzma/XsgD+QnOZr9eyAP5Cc5mv17IA/kJzma/XsgD+QnOZr9eyAP5Cc5mv17IA/kJzma/XsgD+QnOZr9eyAP5Cc5mv17IA/kJzma/XsgD+QnOZr9eyAPw==",
                "bandwidth": 15.581105221486354
            },
            "theta_weights": "k05VTVBZAQB2AHsnZGVzY3InOiAnPGY4JywgJ2ZvcnRyYW5fb3JkZXInOiBGYWxzZSwgJ3NoYXBlJzogKDIwMCwpLCB9ICAgICAgICAgICAgICAgICAgICAgICAgICAgICAgICAgICAgICAgICAgICAgICAgICAgICAgICAgIAp7FK5H4Xp0P3sUrkfhenQ/exSuR+F6dD97FK5H4Xp0P3sUrkfhenQ/exSuR+F6dD97FK5H4Xp0P3sUrkfhenQ/exSuR+F6dD97FK5H4Xp0P3sUrkfhenQ/exSuR+F6dD97FK5H4Xp0P3sUrkfhenQ/exSuR+F6dD97FK5H4Xp0P3sUrkfhenQ/exSuR+F6dD97FK5H4Xp0P3sUrkfhenQ/exSuR+F6dD97FK5H4Xp0P3sUrkfhenQ/exSuR+F6dD97FK5H4Xp0P3sUrkfhenQ/exSuR+F6dD97FK5H4Xp0P3sUrkfhenQ/exSuR+F6dD97FK5H4Xp0P3sUrkfhenQ/exSuR+F6dD97FK5H4Xp0P3sUrkfhenQ/exSuR+F6dD97FK5H4Xp0P3sUrkfhenQ/exSuR+F6dD97FK5H4Xp0P3sUrkfhenQ/exSuR+F6dD97FK5H4Xp0P3sUrkfhenQ/exSuR+F6dD97FK5H4Xp0P3sUrkfhenQ/exSuR+F6dD97FK5H4Xp0P3sUrkfhenQ/exSuR+F6dD97FK5H4Xp0P3sUrkfhenQ/exSuR+F6dD97FK5H4Xp0P3sUrkfhenQ/exSuR+F6dD97FK5H4Xp0P3sUrkfhenQ/exSuR+F6dD97FK5H4Xp0P3sUrkfhenQ/exSuR+F6dD97FK5H4Xp0P3sUrkfhenQ/exSuR+F6dD97FK5H4Xp0P3sUrkfhenQ/exSuR+F6dD97FK5H4Xp0P3sUrkfhenQ/exSuR+F6dD97FK5H4Xp0P3sUrkfhenQ/exSuR+F6dD97FK5H4Xp0P3sUrkfhenQ/exSuR+F6dD97FK5H4Xp0P3sUrkfhenQ/exSuR+F6dD97FK5H4Xp0P3sUrkfhenQ/exSuR+F6dD97FK5H4Xp0P3sUrkfhenQ/exSuR+F6dD97FK5H4Xp0P3sUrkfhenQ/exSuR+F6dD97FK5H4Xp0P3sUrkfhenQ/exSuR+F6dD97FK5H4Xp0P3sUrkfhenQ/exSuR+F6dD97FK5H4Xp0P3sUrkfhenQ/exSuR+F6dD97FK5H4Xp0P3sUrkfhenQ/exSuR+F6dD97FK5H4Xp0P3sUrkfhenQ/exSuR+F6dD97FK5H4Xp0P3sUrkfhenQ/exSuR+F6dD97FK5H4Xp0P3sUrkfhenQ/exSuR+F6dD97FK5H4Xp0P3sUrkfhenQ/exSuR+F6dD97FK5H4Xp0P3sUrkfhenQ/exSuR+F6dD97FK5H4Xp0P3sUrkfhenQ/exSuR+F6dD97FK5H4Xp0P3sUrkfhenQ/exSuR+F6dD97FK5H4Xp0P3sUrkfhenQ/exSuR+F6dD97FK5H4Xp0P3sUrkfhenQ/exSuR+F6dD97FK5H4Xp0P3sUrkfhenQ/exSuR+F6dD97FK5H4Xp0P3sUrkfhenQ/exSuR+F6dD97FK5H4Xp0P3sUrkfhenQ/exSuR+F6dD97FK5H4Xp0P3sUrkfhenQ/exSuR+F6dD97FK5H4Xp0P3sUrkfhenQ/exSuR+F6dD97FK5H4Xp0P3sUrkfhenQ/exSuR+F6dD97FK5H4Xp0P3sUrkfhenQ/exSuR+F6dD97FK5H4Xp0P3sUrkfhenQ/exSuR+F6dD97FK5H4Xp0P3sUrkfhenQ/exSuR+F6dD97FK5H4Xp0P3sUrkfhenQ/exSuR+F6dD97FK5H4Xp0P3sUrkfhenQ/exSuR+F6dD97FK5H4Xp0P3sUrkfhenQ/exSuR+F6dD97FK5H4Xp0P3sUrkfhenQ/exSuR+F6dD97FK5H4Xp0P3sUrkfhenQ/exSuR+F6dD97FK5H4Xp0P3sUrkfhenQ/exSuR+F6dD97FK5H4Xp0P3sUrkfhenQ/exSuR+F6dD97FK5H4Xp0P3sUrkfhenQ/exSuR+F6dD97FK5H4Xp0P3sUrkfhenQ/exSuR+F6dD97FK5H4Xp0P3sUrkfhenQ/exSuR+F6dD97FK5H4Xp0P3sUrkfhenQ/exSuR+F6dD97FK5H4Xp0P3sUrkfhenQ/exSuR+F6dD97FK5H4Xp0P3sUrkfhenQ/exSuR+F6dD97FK5H4Xp0P3sUrkfhenQ/exSuR+F6dD97FK5H4Xp0P3sUrkfhenQ/",
            "phi_kde": {
                "data": "k05VTVBZAQB2AHsnZGVzY3InOiAnPGY4JywgJ2ZvcnRyYW5fb3JkZXInOiBGYWxzZSwgJ3NoYXBlJzogKDc5LCksIH0gICAgICAgICAgICAgICAgICAgICAgICAgICAgICAgICAgICAgICAgICAgICAgICAgICAgICAgICAgIArqTdxGFRtsQIjmxg2r03BAE67EnIL7cUDeYMtXdUJsQNWcs0jPt2pAqj7eclZgbkB7bk2+9MNsQP0hBIRJRXJAaGdq2TeXbUA5Sfm98B1yQNy3mWiG+3RAlaizfhD+bEANusnBAYNwQBkJdDdzFHBAbXtsX8VKbEAIZ2GlvNxxQD0RXl9dMXNAFAQyRCZnc0AtUjbeM05xQA/k/oUhpG1AQ9tlLI/DcEB94G4vRqtyQF+xGtRKO3NAWGUOPR7UckBkgkHBiCd1QJbJhOhyIHJAilyWcPFvbUCAzs6x2mJuQLCpWR7CNW5A7EjnbpQkdkDvb0mXU41rQL6zLBIuFHBAbr0IFIKcdEBeHXqRMK5zQHglr6L6JnBARcZF1F04c0A9Jt6ExWBsQHhbM+siY3BAaLIu02MybkCIPhtBOkhuQP/3ggeRGm9AKSn6NuYrekBoygGnw9tyQDcP2OAqV3BAq+HfWSPzbEDVPee7zFlzQMZMLXBjnW1AAa+i2lxWc0BFkAN+tTZrQK2eQKCs6m5A/yAtwGbhbECDXaBqaGVyQM4UQpsaNW5AQ65NbtWhcUBCBG8M0stsQGjMoFKTaXFAHzEHqDYeckATJ7hII6twQFb7xzaIfnNAcT/jyMHZakDWznT+vhRsQIGfFb1DFXFAysYScWo+cUDntyvw/4JsQJllmkwWYXFAphFfOkWFc0B2sSHOMsFqQEllVmT8Z21AOFujws4Sc0CeSJ3SCX1qQHH/5N+nc2pA7GVEuuy/cEAIowMQZwR0QNKrAJaX2HJAGpNyWfzgakDY4qHKw2Z0QHxsLhTFiGtAVvCtsY40cEAwAJK15blwQA==",
                "weights": "k05VTVBZAQB2AHsnZGVzY3InOiAnPGY4JywgJ2ZvcnRyYW5fb3JkZXInOiBGYWxzZSwgJ3NoYXBlJzogKDc5LCksIH0gICAgICAgICAgICAgICAgICAgICAgICAgICAgICAgICAgICAgICAgICAgICAgICAgICAgICAgICAgIArZMxCVjuyJP9kzEJWO7Ik/2TMQlY7siT/ZMxCVjuyJP9kzEJWO7Ik/2TMQlY7siT/ZMxCVjuyJP9kzEJWO7Ik/2TMQlY7siT/ZMxCVjuyJP9kzEJWO7Ik/2TMQlY7siT/ZMxCVjuyJP9kzEJWO7Ik/2TMQlY7siT/ZMxCVjuyJP9kzEJWO7Ik/2TMQlY7siT/ZMxCVjuyJP9kzEJWO7Ik/2TMQlY7siT/ZMxCVjuyJP9kzEJWO7Ik/2TMQlY7siT/ZMxCVjuyJP9kzEJWO7Ik/2TMQlY7siT/ZMxCVjuyJP9kzEJWO7Ik/2TMQlY7siT/ZMxCVjuyJP9kzEJWO7Ik/2TMQlY7siT/ZMxCVjuyJP9kzEJWO7Ik/2TMQlY7siT/ZMxCVjuyJP9kzEJWO7Ik/2TMQlY7siT/ZMxCVjuyJP9kzEJWO7Ik/2TMQlY7siT/ZMxCVjuyJP9kzEJWO7Ik/2TMQlY7siT/ZMxCVjuyJP9kzEJWO7Ik/2TMQlY7siT/ZMxCVjuyJP9kzEJWO7Ik/2TMQlY7siT/ZMxCVjuyJP9kzEJWO7Ik/2TMQlY7siT/ZMxCVjuyJP9kzEJWO7Ik/2TMQlY7siT/ZMxCVjuyJP9kzEJWO7Ik/2TMQlY7siT/ZMxCVjuyJP9kzEJWO7Ik/2TMQlY7siT/ZMxCVjuyJP9kzEJWO7Ik/2TMQlY7siT/ZMxCVjuyJP9kzEJWO7Ik/2TMQlY7siT/ZMxCVjuyJP9kzEJWO7Ik/2TMQlY7siT/ZMxCVjuyJP9kzEJWO7Ik/2TMQlY7siT/ZMxCVjuyJP9kzEJWO7Ik/2TMQlY7siT/ZMxCVjuyJPw==",
                "bandwidth": 17.788968294463086
            },
            "phi_weights": "k05VTVBZAQB2AHsnZGVzY3InOiAnPGY4JywgJ2ZvcnRyYW5fb3JkZXInOiBGYWxzZSwgJ3NoYXBlJzogKDIwMCwpLCB9ICAgICAgICAgICAgICAgICAgICAgICAgICAgICAgICAgICAgICAgICAgICAgICAgICAgICAgICAgIAp7FK5H4Xp0P3sUrkfhenQ/exSuR+F6dD97FK5H4Xp0P3sUrkfhenQ/exSuR+F6dD97FK5H4Xp0P3sUrkfhenQ/exSuR+F6dD97FK5H4Xp0P3sUrkfhenQ/exSuR+F6dD97FK5H4Xp0P3sUrkfhenQ/exSuR+F6dD97FK5H4Xp0P3sUrkfhenQ/exSuR+F6dD97FK5H4Xp0P3sUrkfhenQ/exSuR+F6dD97FK5H4Xp0P3sUrkfhenQ/exSuR+F6dD97FK5H4Xp0P3sUrkfhenQ/exSuR+F6dD97FK5H4Xp0P3sUrkfhenQ/exSuR+F6dD97FK5H4Xp0P3sUrkfhenQ/exSuR+F6dD97FK5H4Xp0P3sUrkfhenQ/exSuR+F6dD97FK5H4Xp0P3sUrkfhenQ/exSuR+F6dD97FK5H4Xp0P3sUrkfhenQ/exSuR+F6dD97FK5H4Xp0P3sUrkfhenQ/exSuR+F6dD97FK5H4Xp0P3sUrkfhenQ/exSuR+F6dD97FK5H4Xp0P3sUrkfhenQ/exSuR+F6dD97FK5H4Xp0P3sUrkfhenQ/exSuR+F6dD97FK5H4Xp0P3sUrkfhenQ/exSuR+F6dD97FK5H4Xp0P3sUrkfhenQ/exSuR+F6dD97FK5H4Xp0P3sUrkfhenQ/exSuR+F6dD97FK5H4Xp0P3sUrkfhenQ/exSuR+F6dD97FK5H4Xp0P3sUrkfhenQ/exSuR+F6dD97FK5H4Xp0P3sUrkfhenQ/exSuR+F6dD97FK5H4Xp0P3sUrkfhenQ/exSuR+F6dD97FK5H4Xp0P3sUrkfhenQ/exSuR+F6dD97FK5H4Xp0P3sUrkfhenQ/exSuR+F6dD97FK5H4Xp0P3sUrkfhenQ/exSuR+F6dD97FK5H4Xp0P3sUrkfhenQ/exSuR+F6dD97FK5H4Xp0P3sUrkfhenQ/exSuR+F6dD97FK5H4Xp0P3sUrkfhenQ/exSuR+F6dD97FK5H4Xp0P3sUrkfhenQ/exSuR+F6dD97FK5H4Xp0P3sUrkfhenQ/exSuR+F6dD97FK5H4Xp0P3sUrkfhenQ/exSuR+F6dD97FK5H4Xp0P3sUrkfhenQ/exSuR+F6dD97FK5H4Xp0P3sUrkfhenQ/exSuR+F6dD97FK5H4Xp0P3sUrkfhenQ/exSuR+F6dD97FK5H4Xp0P3sUrkfhenQ/exSuR+F6dD97FK5H4Xp0P3sUrkfhenQ/exSuR+F6dD97FK5H4Xp0P3sUrkfhenQ/exSuR+F6dD97FK5H4Xp0P3sUrkfhenQ/exSuR+F6dD97FK5H4Xp0P3sUrkfhenQ/exSuR+F6dD97FK5H4Xp0P3sUrkfhenQ/exSuR+F6dD97FK5H4Xp0P3sUrkfhenQ/exSuR+F6dD97FK5H4Xp0P3sUrkfhenQ/exSuR+F6dD97FK5H4Xp0P3sUrkfhenQ/exSuR+F6dD97FK5H4Xp0P3sUrkfhenQ/exSuR+F6dD97FK5H4Xp0P3sUrkfhenQ/exSuR+F6dD97FK5H4Xp0P3sUrkfhenQ/exSuR+F6dD97FK5H4Xp0P3sUrkfhenQ/exSuR+F6dD97FK5H4Xp0P3sUrkfhenQ/exSuR+F6dD97FK5H4Xp0P3sUrkfhenQ/exSuR+F6dD97FK5H4Xp0P3sUrkfhenQ/exSuR+F6dD97FK5H4Xp0P3sUrkfhenQ/exSuR+F6dD97FK5H4Xp0P3sUrkfhenQ/exSuR+F6dD97FK5H4Xp0P3sUrkfhenQ/exSuR+F6dD97FK5H4Xp0P3sUrkfhenQ/exSuR+F6dD97FK5H4Xp0P3sUrkfhenQ/exSuR+F6dD97FK5H4Xp0P3sUrkfhenQ/exSuR+F6dD97FK5H4Xp0P3sUrkfhenQ/exSuR+F6dD97FK5H4Xp0P3sUrkfhenQ/exSuR+F6dD97FK5H4Xp0P3sUrkfhenQ/exSuR+F6dD97FK5H4Xp0P3sUrkfhenQ/exSuR+F6dD97FK5H4Xp0P3sUrkfhenQ/exSuR+F6dD97FK5H4Xp0P3sUrkfhenQ/exSuR+F6dD97FK5H4Xp0P3sUrkfhenQ/exSuR+F6dD97FK5H4Xp0P3sUrkfhenQ/"
        },
        "ADAS": {
            "theta_kde": {
                "data": "k05VTVBZAQB2AHsnZGVzY3InOiAnPGY4JywgJ2ZvcnRyYW5fb3JkZXInOiBGYWxzZSwgJ3NoYXBlJzogKDY1LCksIH0gICAgICAgICAgICAgICAgICAgICAgICAgICAgICAgICAgICAgICAgICAgICAgICAgICAgICAgICAgIAqkmVg0GaYzwBZ0sNnlgzHAA/pLCOwYMcB40JOODcIzwLYP93XmGjHAItdt0x5iM8BKD+aRVGw1wB+U4X1KyzTAzaQg5n6XNcA6L0wUMvg0wO0WGduQQDHAAB+MOMWCMMAAEzV3njYwwFz3VdUsCjPA3DoYDaKMNMB4CUnQe50zwAi0u0jq6jHA2DhoLzLyNcBRaGusPbAxwGOSzHk0HTHAX9+VTaUgK8B080djvyU0wEp4k4WVSCrACRRRFQsoMsDeX7h6ts8xwBhJDK6fITXAozCcK1KKNMCvapJ7UogswJi7d09bjTTALZFufQNyM8DEaqMhxpQywPN31YtXWCvA4ymJ3h1/K8DcULQcbkM0wOnJ0tI8EDPA27X2mGm7NcDQ6Cj+9l8swBlAi6lPOSzABiSpGvKQKcAvZFcUihMswJRQGEyTxzLATODtgm+YNMBrQ7nek0QywKZp0QgmhyzA4mRV3wn+KsASYG5C2xo2wFTcisbPKTPAGrFD8RGUM8ALZH7i1z40wAOmOnXSaDPAhxM4l7NcM8CxhWx2yeg0wAC11qs35DPAcLn54domKcBes8BfXjYwwGg+Q6A0XzXA1syIYp+ZM8CqWRzMrOkswNA/drVaHTLArjJbsQd1M8DAzqg/wegzwO7A+6zq4jbAhwub5Xi3MMDGuL7YIzwqwEcYytyiljHA",
                "weights": "k05VTVBZAQB2AHsnZGVzY3InOiAnPGY4JywgJ2ZvcnRyYW5fb3JkZXInOiBGYWxzZSwgJ3NoYXBlJzogKDY1LCksIH0gICAgICAgICAgICAgICAgICAgICAgICAgICAgICAgICAgICAgICAgICAgICAgICAgICAgICAgICAgIAog+IEf+IGPPyD4gR/4gY8/IPiBH/iBjz8g+IEf+IGPPyD4gR/4gY8/IPiBH/iBjz8g+IEf+IGPPyD4gR/4gY8/IPiBH/iBjz8g+IEf+IGPPyD4gR/4gY8/IPiBH/iBjz8g+IEf+IGPPyD4gR/4gY8/IPiBH/iBjz8g+IEf+IGPPyD4gR/4gY8/IPiBH/iBjz8g+IEf+IGPPyD4gR/4gY8/IPiBH/iBjz8g+IEf+IGPPyD4gR/4gY8/IPiBH/iBjz8g+IEf+IGPPyD4gR/4gY8/IPiBH/iBjz8g+IEf+IGPPyD4gR/4gY8/IPiBH/iBjz8g+IEf+IGPPyD4gR/4gY8/IPiBH/iBjz8g+IEf+IGPPyD4gR/4gY8/IPiBH/iBjz8g+IEf+IGPPyD4gR/4gY8/IPiBH/iBjz8g+IEf+IGPPyD4gR/4gY8/IPiBH/iBjz8g+IEf+IGPPyD4gR/4gY8/IPiBH/iBjz8g+IEf+IGPPyD4gR/4gY8/IPiBH/iBjz8g+IEf+IGPPyD4gR/4gY8/IPiBH/iBjz8g+IEf+IGPPyD4gR/4gY8/IPiBH/iBjz8g+IEf+IGPPyD4gR/4gY8/IPiBH/iBjz8g+IEf+IGPPyD4gR/4gY8/IPiBH/iBjz8g+IEf+IGPPyD4gR/4gY8/IPiBH/iBjz8g+IEf+IGPPyD4gR/4gY8/",
                "bandwidth": 1.2706337010001496
            },
            "theta_weights": "k05VTVBZAQB2AHsnZGVzY3InOiAnPGY4JywgJ2ZvcnRyYW5fb3JkZXInOiBGYWxzZSwgJ3NoYXBlJzogKDIwMCwpLCB9ICAgICAgICAgICAgICAgICAgICAgICAgICAgICAgICAgICAgICAgICAgICAgICAgICAgICAgICAgIAp7FK5H4Xp0P3sUrkfhenQ/exSuR+F6dD97FK5H4Xp0P3sUrkfhenQ/exSuR+F6dD97FK5H4Xp0P3sUrkfhenQ/exSuR+F6dD97FK5H4Xp0P3sUrkfhenQ/exSuR+F6dD97FK5H4Xp0P3sUrkfhenQ/exSuR+F6dD97FK5H4Xp0P3sUrkfhenQ/exSuR+F6dD97FK5H4Xp0P3sUrkfhenQ/exSuR+F6dD97FK5H4Xp0P3sUrkfhenQ/exSuR+F6dD97FK5H4Xp0P3sUrkfhenQ/exSuR+F6dD97FK5H4Xp0P3sUrkfhenQ/exSuR+F6dD97FK5H4Xp0P3sUrkfhenQ/exSuR+F6dD97FK5H4Xp0P3sUrkfhenQ/exSuR+F6dD97FK5H4Xp0P3sUrkfhenQ/exSuR+F6dD97FK5H4Xp0P3sUrkfhenQ/exSuR+F6dD97FK5H4Xp0P3sUrkfhenQ/exSuR+F6dD97FK5H4Xp0P3sUrkfhenQ/exSuR+F6dD97FK5H4Xp0P3sUrkfhenQ/exSuR+F6dD97FK5H4Xp0P3sUrkfhenQ/exSuR+F6dD97FK5H4Xp0P3sUrkfhenQ/exSuR+F6dD97FK5H4Xp0P3sUrkfhenQ/exSuR+F6dD97FK5H4Xp0P3sUrkfhenQ/exSuR+F6dD97FK5H4Xp0P3sUrkfhenQ/exSuR+F6dD97FK5H4Xp0P3sUrkfhenQ/exSuR+F6dD97FK5H4Xp0P3sUrkfhenQ/exSuR+F6dD97FK5H4Xp0P3sUrkfhenQ/exSuR+F6dD97FK5H4Xp0P3sUrkfhenQ/exSuR+F6dD97FK5H4Xp0P3sUrkfhenQ/exSuR+F6dD97FK5H4Xp0P3sUrkfhenQ/exSuR+F6dD97FK5H4Xp0P3sUrkfhenQ/exSuR+F6dD97FK5H4Xp0P3sUrkfhenQ/exSuR+F6dD97FK5H4Xp0P3sUrkfhenQ/exSuR+F6dD97FK5H4Xp0P3sUrkfhenQ/exSuR+F6dD97FK5H4Xp0P3sUrkfhenQ/exSuR+F6dD97FK5H4Xp0P3sUrkfhenQ/exSuR+F6dD97FK5H4Xp0P3sUrkfhenQ/exSuR+F6dD97FK5H4Xp0P3sUrkfhenQ/exSuR+F6dD97FK5H4Xp0P3sUrkfhenQ/exSuR+F6dD97FK5H4Xp0P3sUrkfhenQ/exSuR+F6dD97FK5H4Xp0P3sUrkfhenQ/exSuR+F6dD97FK5H4Xp0P3sUrkfhenQ/exSuR+F6dD97FK5H4Xp0P3sUrkfhenQ/exSuR+F6dD97FK5H4Xp0P3sUrkfhenQ/exSuR+F6dD97FK5H4Xp0P3sUrkfhenQ/exSuR+F6dD97FK5H4Xp0P3sUrkfhenQ/exSuR+F6dD97FK5H4Xp0P3sUrkfhenQ/exSuR+F6dD97FK5H4Xp0P3sUrkfhenQ/exSuR+F6dD97FK5H4Xp0P3sUrkfhenQ/exSuR+F6dD97FK5H4Xp0P3sUrkfhenQ/exSuR+F6dD97FK5H4Xp0P3sUrkfhenQ/exSuR+F6dD97FK5H4Xp0P3sUrkfhenQ/exSuR+F6dD97FK5H4Xp0P3sUrkfhenQ/exSuR+F6dD97FK5H4Xp0P3sUrkfhenQ/exSuR+F6dD97FK5H4Xp0P3sUrkfhenQ/exSuR+F6dD97FK5H4Xp0P3sUrkfhenQ/exSuR+F6dD97FK5H4Xp0P3sUrkfhenQ/exSuR+F6dD97FK5H4Xp0P3sUrkfhenQ/exSuR+F6dD97FK5H4Xp0P3sUrkfhenQ/exSuR+F6dD97FK5H4Xp0P3sUrkfhenQ/exSuR+F6dD97FK5H4Xp0P3sUrkfhenQ/exSuR+F6dD97FK5H4Xp0P3sUrkfhenQ/exSuR+F6dD97FK5H4Xp0P3sUrkfhenQ/exSuR+F6dD97FK5H4Xp0P3sUrkfhenQ/exSuR+F6dD97FK5H4Xp0P3sUrkfhenQ/exSuR+F6dD97FK5H4Xp0P3sUrkfhenQ/exSuR+F6dD97FK5H4Xp0P3sUrkfhenQ/exSuR+F6dD97FK5H4Xp0P3sUrkfhenQ/exSuR+F6dD97FK5H4Xp0P3sUrkfhenQ/",
            "phi_kde": {
                "data": "k05VTVBZAQB2AHsnZGVzY3InOiAnPGY4JywgJ2ZvcnRyYW5fb3JkZXInOiBGYWxzZSwgJ3NoYXBlJzogKDEzNSwpLCB9ICAgICAgICAgICAgICAgICAgICAgICAgICAgICAgICAgICAgICAgICAgICAgICAgICAgICAgICAgIAozzgyjYYMWwPpAB7nWRx3AZUepB9ujIsBt3jHgWCQdwO4sFXZ/nxzAhD+Gp1vRIcBX5peCLloawDHD8Du1hhDAKc/0mgpTDcAmnpGEEVknwPG0h6oW0B/At0wfq0qGFMAGN87sq6IawETFo1qPCxvA0LdO5TnJGcALJUuTDnEewC3xI8I0lBvAMPEg+aiCJsAMV4t9iYEowJVNAN8ZVyDA7cfMVHXJIsAZWYXBtS8UwOef6ghbMyLAZnQHxC0MGcDbMfU888UVwNMiGDRaEiPADML39VTyH8By2mQ13CofwAhMKbtP6B/A8iz2SSA/GcCcy5JzBLsgwIR06Qd5HxzAvZp17rDGGMB1dEsD6fgWwE/rQgUsyCDAPzbBy5icIsDpiS82PBMgwFuLpFikxhbA8spSHQXkGcAaiQ8Wi9MZwIHRfQjITw/A0ooOSpC+F8AC0SOAIC8SwDxWfsLDoiHA9sGyBcQ6FMBKmKvBPOUVwETcYGIXLSPAZ9VtGezfGcA6x+H/KR8SwBEQ2owyphnAMW6ienywGsBdNczCD30UwIVUBmAWXyjAVdW4SoVdGsBYKEx/BdUlwGIMB+/rSiLAR4BlfArKHsCJxUeteLkQwNdnS7YyxxLAefk4LqK9FcAM0jJjEFIUwAMro5f0AhjA8/mw7T8+GcCkrXEEtToMwERedohLzhfAqzJAJZGvEcBUgnjfQ0UjwDhpyQkTNhrAIK8b7wmLHcAoshNTKoIQwCH1mU6P5xPAqCcR+930F8CM48k7lLUYwJCg9VvvLxTA3d/cRFTRFMD8nU/wgTUdwD67h8GJLRfA/qhTBaYrIMDOTviB+FcfwP5kjNvMZhfAvvMQMioMGcAFTIkiXJMWwOEbml/IwxrAvGLJ5RHKGsC/cIj2Nq8hwDpJdO7BaxbA3tQgHWUdIMB5aRESM+8dwI5HuzyFtBrAvQhGPT1rIMBMuNVJnhUbwI9JQFA5hyTAlcsSahKHG8DM0aaCNF8UwCmhkjqIKhDAAWp+gniRIMBJuJPNDOITwL7FcXF1gB/AoVr0rcnJGMBN6PAS/G8ZwCKanYwz0BPAZ3yi3emRFcBwplm2G6wawGu7ISgNXhXA+YhcVjZfIMAXjJKCbFIhwFTdJIsGhx3Aj4mvGop5GsBilDSuXaIewH2lzVGWuRzAGd1ljvb3HMDO7uTWH9gXwBk83gltrBHApNMAE+H7FsC26x0EctUUwOpOH7aWugvACpjY2jMlIMBuO6xk9QkdwEylHbz82hPAaPLGKt/xJcDCKFPa1QIVwIaIBnRHmCLAM+EJB6A5FsDfymadh5oewPYQTvSKVhjAbR1PPezIGcDsDwL3G1kSwPLZpRh3uBbATt1seLWVH8CHeIjzHB0kwLw+H7qECh7ACJxOM5lTIMBaberlfAwiwP7DcJfxeCDAj7r1jD3fGcA=",
                "weights": "k05VTVBZAQB2AHsnZGVzY3InOiAnPGY4JywgJ2ZvcnRyYW5fb3JkZXInOiBGYWxzZSwgJ3NoYXBlJzogKDEzNSwpLCB9ICAgICAgICAgICAgICAgICAgICAgICAgICAgICAgICAgICAgICAgICAgICAgICAgICAgICAgICAgIAp05QHJOld+P3TlAck6V34/dOUByTpXfj905QHJOld+P3TlAck6V34/dOUByTpXfj905QHJOld+P3TlAck6V34/dOUByTpXfj905QHJOld+P3TlAck6V34/dOUByTpXfj905QHJOld+P3TlAck6V34/dOUByTpXfj905QHJOld+P3TlAck6V34/dOUByTpXfj905QHJOld+P3TlAck6V34/dOUByTpXfj905QHJOld+P3TlAck6V34/dOUByTpXfj905QHJOld+P3TlAck6V34/dOUByTpXfj905QHJOld+P3TlAck6V34/dOUByTpXfj905QHJOld+P3TlAck6V34/dOUByTpXfj905QHJOld+P3TlAck6V34/dOUByTpXfj905QHJOld+P3TlAck6V34/dOUByTpXfj905QHJOld+P3TlAck6V34/dOUByTpXfj905QHJOld+P3TlAck6V34/dOUByTpXfj905QHJOld+P3TlAck6V34/dOUByTpXfj905QHJOld+P3TlAck6V34/dOUByTpXfj905QHJOld+P3TlAck6V34/dOUByTpXfj905QHJOld+P3TlAck6V34/dOUByTpXfj905QHJOld+P3TlAck6V34/dOUByTpXfj905QHJOld+P3TlAck6V34/dOUByTpXfj905QHJOld+P3TlAck6V34/dOUByTpXfj905QHJOld+P3TlAck6V34/dOUByTpXfj905QHJOld+P3TlAck6V34/dOUByTpXfj905QHJOld+P3TlAck6V34/dOUByTpXfj905QHJOld+P3TlAck6V34/dOUByTpXfj905QHJOld+P3TlAck6V34/dOUByTpXfj905QHJOld+P3TlAck6V34/dOUByTpXfj905QHJOld+P3TlAck6V34/dOUByTpXfj905QHJOld+P3TlAck6V34/dOUByTpXfj905QHJOld+P3TlAck6V34/dOUByTpXfj905QHJOld+P3TlAck6V34/dOUByTpXfj905QHJOld+P3TlAck6V34/dOUByTpXfj905QHJOld+P3TlAck6V34/dOUByTpXfj905QHJOld+P3TlAck6V34/dOUByTpXfj905QHJOld+P3TlAck6V34/dOUByTpXfj905QHJOld+P3TlAck6V34/dOUByTpXfj905QHJOld+P3TlAck6V34/dOUByTpXfj905QHJOld+P3TlAck6V34/dOUByTpXfj905QHJOld+P3TlAck6V34/dOUByTpXfj905QHJOld+P3TlAck6V34/dOUByTpXfj905QHJOld+P3TlAck6V34/dOUByTpXfj905QHJOld+P3TlAck6V34/dOUByTpXfj905QHJOld+P3TlAck6V34/dOUByTpXfj905QHJOld+P3TlAck6V34/dOUByTpXfj8=",
                "bandwidth": 0.723211473945281
            },
            "phi_weights": "k05VTVBZAQB2AHsnZGVzY3InOiAnPGY4JywgJ2ZvcnRyYW5fb3JkZXInOiBGYWxzZSwgJ3NoYXBlJzogKDIwMCwpLCB9ICAgICAgICAgICAgICAgICAgICAgICAgICAgICAgICAgICAgICAgICAgICAgICAgICAgICAgICAgIAp7FK5H4Xp0P3sUrkfhenQ/exSuR+F6dD97FK5H4Xp0P3sUrkfhenQ/exSuR+F6dD97FK5H4Xp0P3sUrkfhenQ/exSuR+F6dD97FK5H4Xp0P3sUrkfhenQ/exSuR+F6dD97FK5H4Xp0P3sUrkfhenQ/exSuR+F6dD97FK5H4Xp0P3sUrkfhenQ/exSuR+F6dD97FK5H4Xp0P3sUrkfhenQ/exSuR+F6dD97FK5H4Xp0P3sUrkfhenQ/exSuR+F6dD97FK5H4Xp0P3sUrkfhenQ/exSuR+F6dD97FK5H4Xp0P3sUrkfhenQ/exSuR+F6dD97FK5H4Xp0P3sUrkfhenQ/exSuR+F6dD97FK5H4Xp0P3sUrkfhenQ/exSuR+F6dD97FK5H4Xp0P3sUrkfhenQ/exSuR+F6dD97FK5H4Xp0P3sUrkfhenQ/exSuR+F6dD97FK5H4Xp0P3sUrkfhenQ/exSuR+F6dD97FK5H4Xp0P3sUrkfhenQ/exSuR+F6dD97FK5H4Xp0P3sUrkfhenQ/exSuR+F6dD97FK5H4Xp0P3sUrkfhenQ/exSuR+F6dD97FK5H4Xp0P3sUrkfhenQ/exSuR+F6dD97FK5H4Xp0P3sUrkfhenQ/exSuR+F6dD97FK5H4Xp0P3sUrkfhenQ/exSuR+F6dD97FK5H4Xp0P3sUrkfhenQ/exSuR+F6dD97FK5H4Xp0P3sUrkfhenQ/exSuR+F6dD97FK5H4Xp0P3sUrkfhenQ/exSuR+F6dD97FK5H4Xp0P3sUrkfhenQ/exSuR+F6dD97FK5H4Xp0P3sUrkfhenQ/exSuR+F6dD97FK5H4Xp0P3sUrkfhenQ/exSuR+F6dD97FK5H4Xp0P3sUrkfhenQ/exSuR+F6dD97FK5H4Xp0P3sUrkfhenQ/exSuR+F6dD97FK5H4Xp0P3sUrkfhenQ/exSuR+F6dD97FK5H4Xp0P3sUrkfhenQ/exSuR+F6dD97FK5H4Xp0P3sUrkfhenQ/exSuR+F6dD97FK5H4Xp0P3sUrkfhenQ/exSuR+F6dD97FK5H4Xp0P3sUrkfhenQ/exSuR+F6dD97FK5H4Xp0P3sUrkfhenQ/exSuR+F6dD97FK5H4Xp0P3sUrkfhenQ/exSuR+F6dD97FK5H4Xp0P3sUrkfhenQ/exSuR+F6dD97FK5H4Xp0P3sUrkfhenQ/exSuR+F6dD97FK5H4Xp0P3sUrkfhenQ/exSuR+F6dD97FK5H4Xp0P3sUrkfhenQ/exSuR+F6dD97FK5H4Xp0P3sUrkfhenQ/exSuR+F6dD97FK5H4Xp0P3sUrkfhenQ/exSuR+F6dD97FK5H4Xp0P3sUrkfhenQ/exSuR+F6dD97FK5H4Xp0P3sUrkfhenQ/exSuR+F6dD97FK5H4Xp0P3sUrkfhenQ/exSuR+F6dD97FK5H4Xp0P3sUrkfhenQ/exSuR+F6dD97FK5H4Xp0P3sUrkfhenQ/exSuR+F6dD97FK5H4Xp0P3sUrkfhenQ/exSuR+F6dD97FK5H4Xp0P3sUrkfhenQ/exSuR+F6dD97FK5H4Xp0P3sUrkfhenQ/exSuR+F6dD97FK5H4Xp0P3sUrkfhenQ/exSuR+F6dD97FK5H4Xp0P3sUrkfhenQ/exSuR+F6dD97FK5H4Xp0P3sUrkfhenQ/exSuR+F6dD97FK5H4Xp0P3sUrkfhenQ/exSuR+F6dD97FK5H4Xp0P3sUrkfhenQ/exSuR+F6dD97FK5H4Xp0P3sUrkfhenQ/exSuR+F6dD97FK5H4Xp0P3sUrkfhenQ/exSuR+F6dD97FK5H4Xp0P3sUrkfhenQ/exSuR+F6dD97FK5H4Xp0P3sUrkfhenQ/exSuR+F6dD97FK5H4Xp0P3sUrkfhenQ/exSuR+F6dD97FK5H4Xp0P3sUrkfhenQ/exSuR+F6dD97FK5H4Xp0P3sUrkfhenQ/exSuR+F6dD97FK5H4Xp0P3sUrkfhenQ/exSuR+F6dD97FK5H4Xp0P3sUrkfhenQ/exSuR+F6dD97FK5H4Xp0P3sUrkfhenQ/exSuR+F6dD97FK5H4Xp0P3sUrkfhenQ/exSuR+F6dD97FK5H4Xp0P3sUrkfhenQ/"
        },
        "AVLT-Sum": {
            "theta_kde": {
                "data": "k05VTVBZAQB2AHsnZGVzY3InOiAnPGY4JywgJ2ZvcnRyYW5fb3JkZXInOiBGYWxzZSwgJ3NoYXBlJzogKDEwMCwpLCB9ICAgICAgICAgICAgICAgICAgICAgICAgICAgICAgICAgICAgICAgICAgICAgICAgICAgICAgICAgIAosp2kjIVAkQDwr6vaEgTdAgEY0DYIfO0C9pNDc82Q6QPn8QNG5WDRAfDiaxOrhKUAwxZkaM29BQC5o7ikBi0FAS1KxQWXFO0DrILSgnXRBQOq8OHA0VkFAIHlavPbKGECj0gIBRhxAQAgAXEEFqEFAqn5Sz1JBQEDDmdzs1UhAQKpZPhwQiD9AgF/y4z+s5D+dhw3GTv5AQAY1nvngb0JA8Fk5L2PxQUCFWDhz0q44QCoffpfd20BAnbrPR+SXPkCxRDH8d9kNQJABMZL/NwbAIB7CiTNGNUCHaX32oBhCQGMskT7u/TDAlyzK+aqjK0D8iNQuEdw+QJalLqGdjEJAExBHqKPuQkD1ar3nPDsywFwCpvPGti9A/u8us0BMPkDkJE5RwZY8QIBeUbGWPzhA4tukJHppQUC43gQuYW1AQHD/Gx3/80BAiwnnPruLN0DZo/6a7HE4QMsKNdyP/DxATb0uJ8a5M0BoWj61974/QH4BbaqdKThAcwlFqJm3P0Bd4KsvcJo5QJE/ZJvpmRtA7Ob/7WvqQkBJZyOWT9Q6QIo0x46U/D1AzIm/MuUyOUAmDfcWypQyQMDzEXVXxjlAH0O0Z7qDQECF6F+SvdNCQJK4nZlB8DRA4L5lSnIfP0Aj28XyadFBQJ7k0TcxPjFArCnIA6i6O0C+aT7d07gwQHBnn9qoGTNA+M5CXsuwP0DRWyNAEPA8QOhDPXN1HDZA6v+F8sQlMkDh7jj0z4APQEZ+7WDhC0JAtPcfE40sE0Aw+OawSfI3QKQAaX2tZj9AuGhF1VMoE8CQsfbRjfw8QDwPL4abGz1AdCsks/gNOUBeuhqlazs/QGYCUgmM0ipA+tveFONEMEBvM8c3o343QMiDGqM3/jxARe16cuLoQkDDhOqTMdI5QC/XZL7vfUJApTnAupMqPkBkM2i70vYnQGavAn6idSlAmOjKG9z5L0C4fFtdi0pAQHCtNBPDHDlAHk0k9RjnP0ATOH9tXo4yQECbo9dBYjRAUG6cD0LyP0AkR0bVWc9AQItHQA/WVEJAlXuo4VAlPkA0W17wpto1QA==",
                "weights": "k05VTVBZAQB2AHsnZGVzY3InOiAnPGY4JywgJ2ZvcnRyYW5fb3JkZXInOiBGYWxzZSwgJ3NoYXBlJzogKDEwMCwpLCB9ICAgICAgICAgICAgICAgICAgICAgICAgICAgICAgICAgICAgICAgICAgICAgICAgICAgICAgICAgIAp7FK5H4XqEP3sUrkfheoQ/exSuR+F6hD97FK5H4XqEP3sUrkfheoQ/exSuR+F6hD97FK5H4XqEP3sUrkfheoQ/exSuR+F6hD97FK5H4XqEP3sUrkfheoQ/exSuR+F6hD97FK5H4XqEP3sUrkfheoQ/exSuR+F6hD97FK5H4XqEP3sUrkfheoQ/exSuR+F6hD97FK5H4XqEP3sUrkfheoQ/exSuR+F6hD97FK5H4XqEP3sUrkfheoQ/exSuR+F6hD97FK5H4XqEP3sUrkfheoQ/exSuR+F6hD97FK5H4XqEP3sUrkfheoQ/exSuR+F6hD97FK5H4XqEP3sUrkfheoQ/exSuR+F6hD97FK5H4XqEP3sUrkfheoQ/exSuR+F6hD97FK5H4XqEP3sUrkfheoQ/exSuR+F6hD97FK5H4XqEP3sUrkfheoQ/exSuR+F6hD97FK5H4XqEP3sUrkfheoQ/exSuR+F6hD97FK5H4XqEP3sUrkfheoQ/exSuR+F6hD97FK5H4XqEP3sUrkfheoQ/exSuR+F6hD97FK5H4XqEP3sUrkfheoQ/exSuR+F6hD97FK5H4XqEP3sUrkfheoQ/exSuR+F6hD97FK5H4XqEP3sUrkfheoQ/exSuR+F6hD97FK5H4XqEP3sUrkfheoQ/exSuR+F6hD97FK5H4XqEP3sUrkfheoQ/exSuR+F6hD97FK5H4XqEP3sUrkfheoQ/exSuR+F6hD97FK5H4XqEP3sUrkfheoQ/exSuR+F6hD97FK5H4XqEP3sUrkfheoQ/exSuR+F6hD97FK5H4XqEP3sUrkfheoQ/exSuR+F6hD97FK5H4XqEP3sUrkfheoQ/exSuR+F6hD97FK5H4XqEP3sUrkfheoQ/exSuR+F6hD97FK5H4XqEP3sUrkfheoQ/exSuR+F6hD97FK5H4XqEP3sUrkfheoQ/exSuR+F6hD97FK5H4XqEP3sUrkfheoQ/exSuR+F6hD97FK5H4XqEP3sUrkfheoQ/exSuR+F6hD97FK5H4XqEP3sUrkfheoQ/exSuR+F6hD97FK5H4XqEPw==",
                "bandwidth": 4.827055092403803
            },
            "theta_weights": "k05VTVBZAQB2AHsnZGVzY3InOiAnPGY4JywgJ2ZvcnRyYW5fb3JkZXInOiBGYWxzZSwgJ3NoYXBlJzogKDIwMCwpLCB9ICAgICAgICAgICAgICAgICAgICAgICAgICAgICAgICAgICAgICAgICAgICAgICAgICAgICAgICAgIAp7FK5H4Xp0P3sUrkfhenQ/exSuR+F6dD97FK5H4Xp0P3sUrkfhenQ/exSuR+F6dD97FK5H4Xp0P3sUrkfhenQ/exSuR+F6dD97FK5H4Xp0P3sUrkfhenQ/exSuR+F6dD97FK5H4Xp0P3sUrkfhenQ/exSuR+F6dD97FK5H4Xp0P3sUrkfhenQ/exSuR+F6dD97FK5H4Xp0P3sUrkfhenQ/exSuR+F6dD97FK5H4Xp0P3sUrkfhenQ/exSuR+F6dD97FK5H4Xp0P3sUrkfhenQ/exSuR+F6dD97FK5H4Xp0P3sUrkfhenQ/exSuR+F6dD97FK5H4Xp0P3sUrkfhenQ/exSuR+F6dD97FK5H4Xp0P3sUrkfhenQ/exSuR+F6dD97FK5H4Xp0P3sUrkfhenQ/exSuR+F6dD97FK5H4Xp0P3sUrkfhenQ/exSuR+F6dD97FK5H4Xp0P3sUrkfhenQ/exSuR+F6dD97FK5H4Xp0P3sUrkfhenQ/exSuR+F6dD97FK5H4Xp0P3sUrkfhenQ/exSuR+F6dD97FK5H4Xp0P3sUrkfhenQ/exSuR+F6dD97FK5H4Xp0P3sUrkfhenQ/exSuR+F6dD97FK5H4Xp0P3sUrkfhenQ/exSuR+F6dD97FK5H4Xp0P3sUrkfhenQ/exSuR+F6dD97FK5H4Xp0P3sUrkfhenQ/exSuR+F6dD97FK5H4Xp0P3sUrkfhenQ/exSuR+F6dD97FK5H4Xp0P3sUrkfhenQ/exSuR+F6dD97FK5H4Xp0P3sUrkfhenQ/exSuR+F6dD97FK5H4Xp0P3sUrkfhenQ/exSuR+F6dD97FK5H4Xp0P3sUrkfhenQ/exSuR+F6dD97FK5H4Xp0P3sUrkfhenQ/exSuR+F6dD97FK5H4Xp0P3sUrkfhenQ/exSuR+F6dD97FK5H4Xp0P3sUrkfhenQ/exSuR+F6dD97FK5H4Xp0P3sUrkfhenQ/exSuR+F6dD97FK5H4Xp0P3sUrkfhenQ/exSuR+F6dD97FK5H4Xp0P3sUrkfhenQ/exSuR+F6dD97FK5H4Xp0P3sUrkfhenQ/exSuR+F6dD97FK5H4Xp0P3sUrkfhenQ/exSuR+F6dD97FK5H4Xp0P3sUrkfhenQ/exSuR+F6dD97FK5H4Xp0P3sUrkfhenQ/exSuR+F6dD97FK5H4Xp0P3sUrkfhenQ/exSuR+F6dD97FK5H4Xp0P3sUrkfhenQ/exSuR+F6dD97FK5H4Xp0P3sUrkfhenQ/exSuR+F6dD97FK5H4Xp0P3sUrkfhenQ/exSuR+F6dD97FK5H4Xp0P3sUrkfhenQ/exSuR+F6dD97FK5H4Xp0P3sUrkfhenQ/exSuR+F6dD97FK5H4Xp0P3sUrkfhenQ/exSuR+F6dD97FK5H4Xp0P3sUrkfhenQ/exSuR+F6dD97FK5H4Xp0P3sUrkfhenQ/exSuR+F6dD97FK5H4Xp0P3sUrkfhenQ/exSuR+F6dD97FK5H4Xp0P3sUrkfhenQ/exSuR+F6dD97FK5H4Xp0P3sUrkfhenQ/exSuR+F6dD97FK5H4Xp0P3sUrkfhenQ/exSuR+F6dD97FK5H4Xp0P3sUrkfhenQ/exSuR+F6dD97FK5H4Xp0P3sUrkfhenQ/exSuR+F6dD97FK5H4Xp0P3sUrkfhenQ/exSuR+F6dD97FK5H4Xp0P3sUrkfhenQ/exSuR+F6dD97FK5H4Xp0P3sUrkfhenQ/exSuR+F6dD97FK5H4Xp0P3sUrkfhenQ/exSuR+F6dD97FK5H4Xp0P3sUrkfhenQ/exSuR+F6dD97FK5H4Xp0P3sUrkfhenQ/exSuR+F6dD97FK5H4Xp0P3sUrkfhenQ/exSuR+F6dD97FK5H4Xp0P3sUrkfhenQ/exSuR+F6dD97FK5H4Xp0P3sUrkfhenQ/exSuR+F6dD97FK5H4Xp0P3sUrkfhenQ/exSuR+F6dD97FK5H4Xp0P3sUrkfhenQ/exSuR+F6dD97FK5H4Xp0P3sUrkfhenQ/exSuR+F6dD97FK5H4Xp0P3sUrkfhenQ/exSuR+F6dD97FK5H4Xp0P3sUrkfhenQ/exSuR+F6dD97FK5H4Xp0P3sUrkfhenQ/",
            "phi_kde": {
                "data": "k05VTVBZAQB2AHsnZGVzY3InOiAnPGY4JywgJ2ZvcnRyYW5fb3JkZXInOiBGYWxzZSwgJ3NoYXBlJzogKDEwMCwpLCB9ICAgICAgICAgICAgICAgICAgICAgICAgICAgICAgICAgICAgICAgICAgICAgICAgICAgICAgICAgIAoGxnHABvhJQNu5smuR8UxA892aZI9QQ0Bit0S+0JhHQDqsW1ie4EZABq089ebPSUDrwMBPTSFGQNe6a1sInUlAyPaX6BCXUkC0dOe4JjFEQJdhfkOZp0tAd+mC9bBFSUCr6eJBI85PQADGNsD840VAUdUGTN9wRUBJmU0KdFFKQBHmPHK3qUtAO+XC7HlBRED7UF18VRVFQHLMKaJVeURATK5YGvPBU0AnndbXeE9HQAV+l5LC7EhAt4QaW15RREAGVKFNmJpLQP4a8QC6IkdARfbgrgdhRECYr/7wq9NPQGSX3vHUfUlAXwSknVj4SkBMH/OG7PtGQIyUUIg//kxA7gIp1bXKRkB8vZOof3JSQGwW7uVbrElA1CQM2kv9RUBALR5+0zxEQM9fraHXcEtAUxmSE2XHT0CcjgCB3gBLQFUpCnoa0ERAj91rhopCS0DZmPLSQTVMQBkN1I4pj1FAoRSe8TP9UEDAFylbO/VJQEsVuyq1bEZAmmmWdkX7RUAyQ2UGSxBLQDLaSgaVv0dA3nNpKFHnRkBr71AMD8RGQN0HmsIxjUNAsXYjdgSMRkD0uLpsTl9HQF9cLWGuvUlA2jTXx10ZR0C8V7Bn5NxFQH4NRLpJ3E5A+hHG1CQkR0CniUvbAgVKQMzmaK9fC0RAaDXEkJo7UEDwbgqQksVOQMd7Ppdd7UtAU0lTZsLiQ0DdRY2PprJEQEcboowcvUpAaJ5DnPK0UEBJ7QfTWKZDQKbe9q/24kNAVHEtZiyNSkBbzRlN6vRLQCGJIxOXD05Ao7wEGe9uTED0msa3/1hNQDgjvDrewUdAZyXp4JQ0S0CW2ZpQpNZJQH7ZHNddT0tAuSIOXbtzTkBhHVHn3whIQOYHFPAb+01Ai0HovzhnSEBudrSw7CdHQErUhUVlaVJA/vR7KlGERECk78zEyexJQDpOns46U0RAUrMsdvUqRUAMrDCi3dxNQM+DWNLXH0VAaCgJhJbVQ0DQ/uCZQEVJQENsLTwN1U5A4fHuY+KSRUCYRLqzkxxQQCbjEl71J0pAWUsTUS+HSEBFHhLmc/BKQA==",
                "weights": "k05VTVBZAQB2AHsnZGVzY3InOiAnPGY4JywgJ2ZvcnRyYW5fb3JkZXInOiBGYWxzZSwgJ3NoYXBlJzogKDEwMCwpLCB9ICAgICAgICAgICAgICAgICAgICAgICAgICAgICAgICAgICAgICAgICAgICAgICAgICAgICAgICAgIAp7FK5H4XqEP3sUrkfheoQ/exSuR+F6hD97FK5H4XqEP3sUrkfheoQ/exSuR+F6hD97FK5H4XqEP3sUrkfheoQ/exSuR+F6hD97FK5H4XqEP3sUrkfheoQ/exSuR+F6hD97FK5H4XqEP3sUrkfheoQ/exSuR+F6hD97FK5H4XqEP3sUrkfheoQ/exSuR+F6hD97FK5H4XqEP3sUrkfheoQ/exSuR+F6hD97FK5H4XqEP3sUrkfheoQ/exSuR+F6hD97FK5H4XqEP3sUrkfheoQ/exSuR+F6hD97FK5H4XqEP3sUrkfheoQ/exSuR+F6hD97FK5H4XqEP3sUrkfheoQ/exSuR+F6hD97FK5H4XqEP3sUrkfheoQ/exSuR+F6hD97FK5H4XqEP3sUrkfheoQ/exSuR+F6hD97FK5H4XqEP3sUrkfheoQ/exSuR+F6hD97FK5H4XqEP3sUrkfheoQ/exSuR+F6hD97FK5H4XqEP3sUrkfheoQ/exSuR+F6hD97FK5H4XqEP3sUrkfheoQ/exSuR+F6hD97FK5H4XqEP3sUrkfheoQ/exSuR+F6hD97FK5H4XqEP3sUrkfheoQ/exSuR+F6hD97FK5H4XqEP3sUrkfheoQ/exSuR+F6hD97FK5H4XqEP3sUrkfheoQ/exSuR+F6hD97FK5H4XqEP3sUrkfheoQ/exSuR+F6hD97FK5H4XqEP3sUrkfheoQ/exSuR+F6hD97FK5H4XqEP3sUrkfheoQ/exSuR+F6hD97FK5H4XqEP3sUrkfheoQ/exSuR+F6hD97FK5H4XqEP3sUrkfheoQ/exSuR+F6hD97FK5H4XqEP3sUrkfheoQ/exSuR+F6hD97FK5H4XqEP3sUrkfheoQ/exSuR+F6hD97FK5H4XqEP3sUrkfheoQ/exSuR+F6hD97FK5H4XqEP3sUrkfheoQ/exSuR+F6hD97FK5H4XqEP3sUrkfheoQ/exSuR+F6hD97FK5H4XqEP3sUrkfheoQ/exSuR+F6hD97FK5H4XqEP3sUrkfheoQ/exSuR+F6hD97FK5H4XqEPw==",
                "bandwidth": 3.8156129803212475
            },
            "phi_weights": "k05VTVBZAQB2AHsnZGVzY3InOiAnPGY4JywgJ2ZvcnRyYW5fb3JkZXInOiBGYWxzZSwgJ3NoYXBlJzogKDIwMCwpLCB9ICAgICAgICAgICAgICAgICAgICAgICAgICAgICAgICAgICAgICAgICAgICAgICAgICAgICAgICAgIAp7FK5H4Xp0P3sUrkfhenQ/exSuR+F6dD97FK5H4Xp0P3sUrkfhenQ/exSuR+F6dD97FK5H4Xp0P3sUrkfhenQ/exSuR+F6dD97FK5H4Xp0P3sUrkfhenQ/exSuR+F6dD97FK5H4Xp0P3sUrkfhenQ/exSuR+F6dD97FK5H4Xp0P3sUrkfhenQ/exSuR+F6dD97FK5H4Xp0P3sUrkfhenQ/exSuR+F6dD97FK5H4Xp0P3sUrkfhenQ/exSuR+F6dD97FK5H4Xp0P3sUrkfhenQ/exSuR+F6dD97FK5H4Xp0P3sUrkfhenQ/exSuR+F6dD97FK5H4Xp0P3sUrkfhenQ/exSuR+F6dD97FK5H4Xp0P3sUrkfhenQ/exSuR+F6dD97FK5H4Xp0P3sUrkfhenQ/exSuR+F6dD97FK5H4Xp0P3sUrkfhenQ/exSuR+F6dD97FK5H4Xp0P3sUrkfhenQ/exSuR+F6dD97FK5H4Xp0P3sUrkfhenQ/exSuR+F6dD97FK5H4Xp0P3sUrkfhenQ/exSuR+F6dD97FK5H4Xp0P3sUrkfhenQ/exSuR+F6dD97FK5H4Xp0P3sUrkfhenQ/exSuR+F6dD97FK5H4Xp0P3sUrkfhenQ/exSuR+F6dD97FK5H4Xp0P3sUrkfhenQ/exSuR+F6dD97FK5H4Xp0P3sUrkfhenQ/exSuR+F6dD97FK5H4Xp0P3sUrkfhenQ/exSuR+F6dD97FK5H4Xp0P3sUrkfhenQ/exSuR+F6dD97FK5H4Xp0P3sUrkfhenQ/exSuR+F6dD97FK5H4Xp0P3sUrkfhenQ/exSuR+F6dD97FK5H4Xp0P3sUrkfhenQ/exSuR+F6dD97FK5H4Xp0P3sUrkfhenQ/exSuR+F6dD97FK5H4Xp0P3sUrkfhenQ/exSuR+F6dD97FK5H4Xp0P3sUrkfhenQ/exSuR+F6dD97FK5H4Xp0P3sUrkfhenQ/exSuR+F6dD97FK5H4Xp0P3sUrkfhenQ/exSuR+F6dD97FK5H4Xp0P3sUrkfhenQ/exSuR+F6dD97FK5H4Xp0P3sUrkfhenQ/exSuR+F6dD97FK5H4Xp0P3sUrkfhenQ/exSuR+F6dD97FK5H4Xp0P3sUrkfhenQ/exSuR+F6dD97FK5H4Xp0P3sUrkfhenQ/exSuR+F6dD97FK5H4Xp0P3sUrkfhenQ/exSuR+F6dD97FK5H4Xp0P3sUrkfhenQ/exSuR+F6dD97FK5H4Xp0P3sUrkfhenQ/exSuR+F6dD97FK5H4Xp0P3sUrkfhenQ/exSuR+F6dD97FK5H4Xp0P3sUrkfhenQ/exSuR+F6dD97FK5H4Xp0P3sUrkfhenQ/exSuR+F6dD97FK5H4Xp0P3sUrkfhenQ/exSuR+F6dD97FK5H4Xp0P3sUrkfhenQ/exSuR+F6dD97FK5H4Xp0P3sUrkfhenQ/exSuR+F6dD97FK5H4Xp0P3sUrkfhenQ/exSuR+F6dD97FK5H4Xp0P3sUrkfhenQ/exSuR+F6dD97FK5H4Xp0P3sUrkfhenQ/exSuR+F6dD97FK5H4Xp0P3sUrkfhenQ/exSuR+F6dD97FK5H4Xp0P3sUrkfhenQ/exSuR+F6dD97FK5H4Xp0P3sUrkfhenQ/exSuR+F6dD97FK5H4Xp0P3sUrkfhenQ/exSuR+F6dD97FK5H4Xp0P3sUrkfhenQ/exSuR+F6dD97FK5H4Xp0P3sUrkfhenQ/exSuR+F6dD97FK5H4Xp0P3sUrkfhenQ/exSuR+F6dD97FK5H4Xp0P3sUrkfhenQ/exSuR+F6dD97FK5H4Xp0P3sUrkfhenQ/exSuR+F6dD97FK5H4Xp0P3sUrkfhenQ/exSuR+F6dD97FK5H4Xp0P3sUrkfhenQ/exSuR+F6dD97FK5H4Xp0P3sUrkfhenQ/exSuR+F6dD97FK5H4Xp0P3sUrkfhenQ/exSuR+F6dD97FK5H4Xp0P3sUrkfhenQ/exSuR+F6dD97FK5H4Xp0P3sUrkfhenQ/exSuR+F6dD97FK5H4Xp0P3sUrkfhenQ/exSuR+F6dD97FK5H4Xp0P3sUrkfhenQ/exSuR+F6dD97FK5H4Xp0P3sUrkfhenQ/"
        },
        "FUS-FCI": {
            "theta_kde": {
                "data": "k05VTVBZAQB2AHsnZGVzY3InOiAnPGY4JywgJ2ZvcnRyYW5fb3JkZXInOiBGYWxzZSwgJ3NoYXBlJzogKDkzLCksIH0gICAgICAgICAgICAgICAgICAgICAgICAgICAgICAgICAgICAgICAgICAgICAgICAgICAgICAgICAgIArzvmp4rd8nwCoIfA4LiSbAERRukRYkKcC8NRBtieQnwMX75mu1sCvAkFdMy7MtKsACB5Ixy8AvwKDjNoIaMjPAE1rDA8GhKcD1zYi0io8mwLs/DQQVNy/A6mkxb4IkKMApARilyYAmwEDIcjBjrjDACW79OEqaNMACgoYGzjQpwHC5IrIxvCjAN6rx7HeQLsAYWsKtlAMowKopX4hZejTAoGRPtA3LMsBMWo/eDVAvwJHCak2vtCfAZZF8ZPckKMCF4etf3u0lwD8YDMZ5fyrAGi7cN6SOJ8DGNs1Dy1UowO4VL5hIuyjA71ggsy+hJsCsJ9Og7ygmwKHg3bMFYSvAY7/OhSGfJ8AsWJfkqMslwLPJfpcvgibAfFYdFZ12JcAhggPPssclwDuBf+jjgybAa2JHARMrKsB2n7c0oZ0mwHQs92AMuSvAjIKYGyWbK8Bw8kYkft8mwGOqOMGDcijAWBCtEx6IK8CDFTMI184nwKTUXncT4SbAN2V4DZGLLMDDhMNW/n4wwKhL3hG25CnA3lGDt32ZJsDmXmw8KzkwwFQa+Q62QCjAbmbtuEnIMcCOGP1K6W0zwJbvN2rLUinABtxInmzmLMA2/Lo83KguwO4rE3uTDSzAv9HO/mrZJcBnhCqDcA0xwD8Q1PeegSnAD0yMWApIL8Aq5Ni8yRAuwD26nb/CESjAwBMJB/9ZMsAkWGvdniEmwErKokkk0CzAfymIfM5jJsC2uyVNMv8nwA4h2g+aMyvACcNn6Gq+JcBK4vUK6SIswLODfJ0zqybAMQH+Wlj7KMCX0CRccw4swDmhZJGSiyrAwilsrT0CLcDtjlh1lFQrwEUXc4xdJS7A2IZhshPzJsDoe+p0CGMqwKPK0knoCizAJ7jyTEPhJ8A9DFOZCcErwODxOGoiVCbA7KIA1SA/KMAQawk0NcAnwB4uYHvxOC3AlyZiFSBhJcDG4zCstKkswEATcJ6gcC3AnL8DKJofMMA=",
                "weights": "k05VTVBZAQB2AHsnZGVzY3InOiAnPGY4JywgJ2ZvcnRyYW5fb3JkZXInOiBGYWxzZSwgJ3NoYXBlJzogKDkzLCksIH0gICAgICAgICAgICAgICAgICAgICAgICAgICAgICAgICAgICAgICAgICAgICAgICAgICAgICAgICAgIAoGFlhggQWGPwYWWGCBBYY/BhZYYIEFhj8GFlhggQWGPwYWWGCBBYY/BhZYYIEFhj8GFlhggQWGPwYWWGCBBYY/BhZYYIEFhj8GFlhggQWGPwYWWGCBBYY/BhZYYIEFhj8GFlhggQWGPwYWWGCBBYY/BhZYYIEFhj8GFlhggQWGPwYWWGCBBYY/BhZYYIEFhj8GFlhggQWGPwYWWGCBBYY/BhZYYIEFhj8GFlhggQWGPwYWWGCBBYY/BhZYYIEFhj8GFlhggQWGPwYWWGCBBYY/BhZYYIEFhj8GFlhggQWGPwYWWGCBBYY/BhZYYIEFhj8GFlhggQWGPwYWWGCBBYY/BhZYYIEFhj8GFlhggQWGPwYWWGCBBYY/BhZYYIEFhj8GFlhggQWGPwYWWGCBBYY/BhZYYIEFhj8GFlhggQWGPwYWWGCBBYY/BhZYYIEFhj8GFlhggQWGPwYWWGCBBYY/BhZYYIEFhj8GFlhggQWGPwYWWGCBBYY/BhZYYIEFhj8GFlhggQWGPwYWWGCBBYY/BhZYYIEFhj8GFlhggQWGPwYWWGCBBYY/BhZYYIEFhj8GFlhggQWGPwYWWGCBBYY/BhZYYIEFhj8GFlhggQWGPwYWWGCBBYY/BhZYYIEFhj8GFlhggQWGPwYWWGCBBYY/BhZYYIEFhj8GFlhggQWGPwYWWGCBBYY/BhZYYIEFhj8GFlhggQWGPwYWWGCBBYY/BhZYYIEFhj8GFlhggQWGPwYWWGCBBYY/BhZYYIEFhj8GFlhggQWGPwYWWGCBBYY/BhZYYIEFhj8GFlhggQWGPwYWWGCBBYY/BhZYYIEFhj8GFlhggQWGPwYWWGCBBYY/BhZYYIEFhj8GFlhggQWGPwYWWGCBBYY/BhZYYIEFhj8GFlhggQWGPwYWWGCBBYY/BhZYYIEFhj8GFlhggQWGPwYWWGCBBYY/BhZYYIEFhj8GFlhggQWGPwYWWGCBBYY/BhZYYIEFhj8=",
                "bandwidth": 0.9884705895273312
            },
            "theta_weights": "k05VTVBZAQB2AHsnZGVzY3InOiAnPGY4JywgJ2ZvcnRyYW5fb3JkZXInOiBGYWxzZSwgJ3NoYXBlJzogKDIwMCwpLCB9ICAgICAgICAgICAgICAgICAgICAgICAgICAgICAgICAgICAgICAgICAgICAgICAgICAgICAgICAgIAp7FK5H4Xp0P3sUrkfhenQ/exSuR+F6dD97FK5H4Xp0P3sUrkfhenQ/exSuR+F6dD97FK5H4Xp0P3sUrkfhenQ/exSuR+F6dD97FK5H4Xp0P3sUrkfhenQ/exSuR+F6dD97FK5H4Xp0P3sUrkfhenQ/exSuR+F6dD97FK5H4Xp0P3sUrkfhenQ/exSuR+F6dD97FK5H4Xp0P3sUrkfhenQ/exSuR+F6dD97FK5H4Xp0P3sUrkfhenQ/exSuR+F6dD97FK5H4Xp0P3sUrkfhenQ/exSuR+F6dD97FK5H4Xp0P3sUrkfhenQ/exSuR+F6dD97FK5H4Xp0P3sUrkfhenQ/exSuR+F6dD97FK5H4Xp0P3sUrkfhenQ/exSuR+F6dD97FK5H4Xp0P3sUrkfhenQ/exSuR+F6dD97FK5H4Xp0P3sUrkfhenQ/exSuR+F6dD97FK5H4Xp0P3sUrkfhenQ/exSuR+F6dD97FK5H4Xp0P3sUrkfhenQ/exSuR+F6dD97FK5H4Xp0P3sUrkfhenQ/exSuR+F6dD97FK5H4Xp0P3sUrkfhenQ/exSuR+F6dD97FK5H4Xp0P3sUrkfhenQ/exSuR+F6dD97FK5H4Xp0P3sUrkfhenQ/exSuR+F6dD97FK5H4Xp0P3sUrkfhenQ/exSuR+F6dD97FK5H4Xp0P3sUrkfhenQ/exSuR+F6dD97FK5H4Xp0P3sUrkfhenQ/exSuR+F6dD97FK5H4Xp0P3sUrkfhenQ/exSuR+F6dD97FK5H4Xp0P3sUrkfhenQ/exSuR+F6dD97FK5H4Xp0P3sUrkfhenQ/exSuR+F6dD97FK5H4Xp0P3sUrkfhenQ/exSuR+F6dD97FK5H4Xp0P3sUrkfhenQ/exSuR+F6dD97FK5H4Xp0P3sUrkfhenQ/exSuR+F6dD97FK5H4Xp0P3sUrkfhenQ/exSuR+F6dD97FK5H4Xp0P3sUrkfhenQ/exSuR+F6dD97FK5H4Xp0P3sUrkfhenQ/exSuR+F6dD97FK5H4Xp0P3sUrkfhenQ/exSuR+F6dD97FK5H4Xp0P3sUrkfhenQ/exSuR+F6dD97FK5H4Xp0P3sUrkfhenQ/exSuR+F6dD97FK5H4Xp0P3sUrkfhenQ/exSuR+F6dD97FK5H4Xp0P3sUrkfhenQ/exSuR+F6dD97FK5H4Xp0P3sUrkfhenQ/exSuR+F6dD97FK5H4Xp0P3sUrkfhenQ/exSuR+F6dD97FK5H4Xp0P3sUrkfhenQ/exSuR+F6dD97FK5H4Xp0P3sUrkfhenQ/exSuR+F6dD97FK5H4Xp0P3sUrkfhenQ/exSuR+F6dD97FK5H4Xp0P3sUrkfhenQ/exSuR+F6dD97FK5H4Xp0P3sUrkfhenQ/exSuR+F6dD97FK5H4Xp0P3sUrkfhenQ/exSuR+F6dD97FK5H4Xp0P3sUrkfhenQ/exSuR+F6dD97FK5H4Xp0P3sUrkfhenQ/exSuR+F6dD97FK5H4Xp0P3sUrkfhenQ/exSuR+F6dD97FK5H4Xp0P3sUrkfhenQ/exSuR+F6dD97FK5H4Xp0P3sUrkfhenQ/exSuR+F6dD97FK5H4Xp0P3sUrkfhenQ/exSuR+F6dD97FK5H4Xp0P3sUrkfhenQ/exSuR+F6dD97FK5H4Xp0P3sUrkfhenQ/exSuR+F6dD97FK5H4Xp0P3sUrkfhenQ/exSuR+F6dD97FK5H4Xp0P3sUrkfhenQ/exSuR+F6dD97FK5H4Xp0P3sUrkfhenQ/exSuR+F6dD97FK5H4Xp0P3sUrkfhenQ/exSuR+F6dD97FK5H4Xp0P3sUrkfhenQ/exSuR+F6dD97FK5H4Xp0P3sUrkfhenQ/exSuR+F6dD97FK5H4Xp0P3sUrkfhenQ/exSuR+F6dD97FK5H4Xp0P3sUrkfhenQ/exSuR+F6dD97FK5H4Xp0P3sUrkfhenQ/exSuR+F6dD97FK5H4Xp0P3sUrkfhenQ/exSuR+F6dD97FK5H4Xp0P3sUrkfhenQ/exSuR+F6dD97FK5H4Xp0P3sUrkfhenQ/exSuR+F6dD97FK5H4Xp0P3sUrkfhenQ/exSuR+F6dD97FK5H4Xp0P3sUrkfhenQ/",
            "phi_kde": {
                "data": "k05VTVBZAQB2AHsnZGVzY3InOiAnPGY4JywgJ2ZvcnRyYW5fb3JkZXInOiBGYWxzZSwgJ3NoYXBlJzogKDEwNywpLCB9ICAgICAgICAgICAgICAgICAgICAgICAgICAgICAgICAgICAgICAgICAgICAgICAgICAgICAgICAgIApeA3LkLScXwFD3NQSk+SLAPkcPmCNYI8CniZG0MokYwPou1H+xTBLAI8AXmvzxJMD6mRW0lSQZwL0HIej3GR/A1fhvL9QgIsDi066kNvUewPFsotg5YxfAQqbgoMnSIsApRZj0LjsiwO+zW143mSDAIoH2TWnfHcAW+oT3RIQjwOlry30H6CPAYhzr5F2hHcCkjeOzkOwhwCzrH+nZGx7AUERomJUSJcDBa9Uj/s0hwFiIEiPg4hLAk5HSdZoXIMC4c/p570ghwP2XWIForyHATjsZa7vzDsCt9vl/Z0QQwJmh9qUrohPA+D/9yow3JMBY7nFpw3QZwFZf8lfZwyDArv8DKi/EI8BDk4uUlVYiwFdBK183nCDALwgf/vf/G8CT2XEsYe8gwIh6UfyxshHAmNj1YBFSIMBxPkKBKrcfwLWis4S71BHAJiuR3w2nHsBgKxaIrgYkwD5U+Cjx4CDAAFibYWhlHcDcbkkHHOsjwKABelbMGiHAirGEttlf9r8DWXbRvhwVwHvKXeD8qRTAJlFqqWMlGsDAHa93kzokwO9KKUWbFyTAIPXvrk0PJMBrwAbnYgMjwBWqAguQOg/AdeAILQ9OIMAefv57KDIVwAay4QsH0hjARATC+lDAHcBRnfi4b/QjwIfnHTIVgCPA0DEs7NJCIcB6/WA2JIEhwBO0K0TgaSLAHgDzmNyXIcBVexaZWjYhwH28UyqYICLAYvuLxtlnFsDzv3x6pWIkwEK0fp7whyLAovvEEX5cIcACp/kEsr8cwKAkgHMS2RrA+HIwY8D4G8BjTgu01SgjwO2i9zG8SSDAIHEiCC/fG8CiAtJxcnshwBZGP8KAhh3AsR9X1OD1H8AHyrLGweT3vyqOSBhrXhrAXc25UqhjFMDdhy8Rs+0hwErs5uDLuhXA9sUGP4RFG8Ao91V2PrEiwC9476YQbSTARFDLD/oHI8DEIv6LtU0jwGZqe05Gmx3AU6rvnZ+iIcAr8GmxuZIewMqO8oAqmAPA0d13S+fWG8D0V4B0tOAiwAd19c9OWx/A8ttqcrjdGcDqnt2ca5ILwMklL/TgjBLAyp13QMveI8D4BhLX3lgiwNOqQ+Qc1STAPI/xL7JjIMC3TmgbrrEhwBOU/rT5iCPA",
                "weights": "k05VTVBZAQB2AHsnZGVzY3InOiAnPGY4JywgJ2ZvcnRyYW5fb3JkZXInOiBGYWxzZSwgJ3NoYXBlJzogKDEwNywpLCB9ICAgICAgICAgICAgICAgICAgICAgICAgICAgICAgICAgICAgICAgICAgICAgICAgICAgICAgICAgIAq/ECtK4yODP78QK0rjI4M/vxArSuMjgz+/ECtK4yODP78QK0rjI4M/vxArSuMjgz+/ECtK4yODP78QK0rjI4M/vxArSuMjgz+/ECtK4yODP78QK0rjI4M/vxArSuMjgz+/ECtK4yODP78QK0rjI4M/vxArSuMjgz+/ECtK4yODP78QK0rjI4M/vxArSuMjgz+/ECtK4yODP78QK0rjI4M/vxArSuMjgz+/ECtK4yODP78QK0rjI4M/vxArSuMjgz+/ECtK4yODP78QK0rjI4M/vxArSuMjgz+/ECtK4yODP78QK0rjI4M/vxArSuMjgz+/ECtK4yODP78QK0rjI4M/vxArSuMjgz+/ECtK4yODP78QK0rjI4M/vxArSuMjgz+/ECtK4yODP78QK0rjI4M/vxArSuMjgz+/ECtK4yODP78QK0rjI4M/vxArSuMjgz+/ECtK4yODP78QK0rjI4M/vxArSuMjgz+/ECtK4yODP78QK0rjI4M/vxArSuMjgz+/ECtK4yODP78QK0rjI4M/vxArSuMjgz+/ECtK4yODP78QK0rjI4M/vxArSuMjgz+/ECtK4yODP78QK0rjI4M/vxArSuMjgz+/ECtK4yODP78QK0rjI4M/vxArSuMjgz+/ECtK4yODP78QK0rjI4M/vxArSuMjgz+/ECtK4yODP78QK0rjI4M/vxArSuMjgz+/ECtK4yODP78QK0rjI4M/vxArSuMjgz+/ECtK4yODP78QK0rjI4M/vxArSuMjgz+/ECtK4yODP78QK0rjI4M/vxArSuMjgz+/ECtK4yODP78QK0rjI4M/vxArSuMjgz+/ECtK4yODP78QK0rjI4M/vxArSuMjgz+/ECtK4yODP78QK0rjI4M/vxArSuMjgz+/ECtK4yODP78QK0rjI4M/vxArSuMjgz+/ECtK4yODP78QK0rjI4M/vxArSuMjgz+/ECtK4yODP78QK0rjI4M/vxArSuMjgz+/ECtK4yODP78QK0rjI4M/vxArSuMjgz+/ECtK4yODP78QK0rjI4M/vxArSuMjgz+/ECtK4yODP78QK0rjI4M/vxArSuMjgz+/ECtK4yODP78QK0rjI4M/vxArSuMjgz+/ECtK4yODP78QK0rjI4M/",
                "bandwidth": 0.8505216367600541
            },
            "phi_weights": "k05VTVBZAQB2AHsnZGVzY3InOiAnPGY4JywgJ2ZvcnRyYW5fb3JkZXInOiBGYWxzZSwgJ3NoYXBlJzogKDIwMCwpLCB9ICAgICAgICAgICAgICAgICAgICAgICAgICAgICAgICAgICAgICAgICAgICAgICAgICAgICAgICAgIAp7FK5H4Xp0P3sUrkfhenQ/exSuR+F6dD97FK5H4Xp0P3sUrkfhenQ/exSuR+F6dD97FK5H4Xp0P3sUrkfhenQ/exSuR+F6dD97FK5H4Xp0P3sUrkfhenQ/exSuR+F6dD97FK5H4Xp0P3sUrkfhenQ/exSuR+F6dD97FK5H4Xp0P3sUrkfhenQ/exSuR+F6dD97FK5H4Xp0P3sUrkfhenQ/exSuR+F6dD97FK5H4Xp0P3sUrkfhenQ/exSuR+F6dD97FK5H4Xp0P3sUrkfhenQ/exSuR+F6dD97FK5H4Xp0P3sUrkfhenQ/exSuR+F6dD97FK5H4Xp0P3sUrkfhenQ/exSuR+F6dD97FK5H4Xp0P3sUrkfhenQ/exSuR+F6dD97FK5H4Xp0P3sUrkfhenQ/exSuR+F6dD97FK5H4Xp0P3sUrkfhenQ/exSuR+F6dD97FK5H4Xp0P3sUrkfhenQ/exSuR+F6dD97FK5H4Xp0P3sUrkfhenQ/exSuR+F6dD97FK5H4Xp0P3sUrkfhenQ/exSuR+F6dD97FK5H4Xp0P3sUrkfhenQ/exSuR+F6dD97FK5H4Xp0P3sUrkfhenQ/exSuR+F6dD97FK5H4Xp0P3sUrkfhenQ/exSuR+F6dD97FK5H4Xp0P3sUrkfhenQ/exSuR+F6dD97FK5H4Xp0P3sUrkfhenQ/exSuR+F6dD97FK5H4Xp0P3sUrkfhenQ/exSuR+F6dD97FK5H4Xp0P3sUrkfhenQ/exSuR+F6dD97FK5H4Xp0P3sUrkfhenQ/exSuR+F6dD97FK5H4Xp0P3sUrkfhenQ/exSuR+F6dD97FK5H4Xp0P3sUrkfhenQ/exSuR+F6dD97FK5H4Xp0P3sUrkfhenQ/exSuR+F6dD97FK5H4Xp0P3sUrkfhenQ/exSuR+F6dD97FK5H4Xp0P3sUrkfhenQ/exSuR+F6dD97FK5H4Xp0P3sUrkfhenQ/exSuR+F6dD97FK5H4Xp0P3sUrkfhenQ/exSuR+F6dD97FK5H4Xp0P3sUrkfhenQ/exSuR+F6dD97FK5H4Xp0P3sUrkfhenQ/exSuR+F6dD97FK5H4Xp0P3sUrkfhenQ/exSuR+F6dD97FK5H4Xp0P3sUrkfhenQ/exSuR+F6dD97FK5H4Xp0P3sUrkfhenQ/exSuR+F6dD97FK5H4Xp0P3sUrkfhenQ/exSuR+F6dD97FK5H4Xp0P3sUrkfhenQ/exSuR+F6dD97FK5H4Xp0P3sUrkfhenQ/exSuR+F6dD97FK5H4Xp0P3sUrkfhenQ/exSuR+F6dD97FK5H4Xp0P3sUrkfhenQ/exSuR+F6dD97FK5H4Xp0P3sUrkfhenQ/exSuR+F6dD97FK5H4Xp0P3sUrkfhenQ/exSuR+F6dD97FK5H4Xp0P3sUrkfhenQ/exSuR+F6dD97FK5H4Xp0P3sUrkfhenQ/exSuR+F6dD97FK5H4Xp0P3sUrkfhenQ/exSuR+F6dD97FK5H4Xp0P3sUrkfhenQ/exSuR+F6dD97FK5H4Xp0P3sUrkfhenQ/exSuR+F6dD97FK5H4Xp0P3sUrkfhenQ/exSuR+F6dD97FK5H4Xp0P3sUrkfhenQ/exSuR+F6dD97FK5H4Xp0P3sUrkfhenQ/exSuR+F6dD97FK5H4Xp0P3sUrkfhenQ/exSuR+F6dD97FK5H4Xp0P3sUrkfhenQ/exSuR+F6dD97FK5H4Xp0P3sUrkfhenQ/exSuR+F6dD97FK5H4Xp0P3sUrkfhenQ/exSuR+F6dD97FK5H4Xp0P3sUrkfhenQ/exSuR+F6dD97FK5H4Xp0P3sUrkfhenQ/exSuR+F6dD97FK5H4Xp0P3sUrkfhenQ/exSuR+F6dD97FK5H4Xp0P3sUrkfhenQ/exSuR+F6dD97FK5H4Xp0P3sUrkfhenQ/exSuR+F6dD97FK5H4Xp0P3sUrkfhenQ/exSuR+F6dD97FK5H4Xp0P3sUrkfhenQ/exSuR+F6dD97FK5H4Xp0P3sUrkfhenQ/exSuR+F6dD97FK5H4Xp0P3sUrkfhenQ/exSuR+F6dD97FK5H4Xp0P3sUrkfhenQ/exSuR+F6dD97FK5H4Xp0P3sUrkfhenQ/"
        },
        "FUS-GMI": {
            "theta_kde": {
                "data": "k05VTVBZAQB2AHsnZGVzY3InOiAnPGY4JywgJ2ZvcnRyYW5fb3JkZXInOiBGYWxzZSwgJ3NoYXBlJzogKDk3LCksIH0gICAgICAgICAgICAgICAgICAgICAgICAgICAgICAgICAgICAgICAgICAgICAgICAgICAgICAgICAgIAot/5GCcYzgP8iWRmGCguI/9z4zo3mV4D8iSGIAKNLiP0DTxZqZ9eE/W5y1OJVg4D9Su1cWSt7iP+WNg7f1weA/zOJTT2tq3j+Z+5qRiiriP4OByZMEruI/jkk80rKn4j/1oY8lRcTfP8RUbt0JP+A//68VSH/J4D/3sPTJJwDgP2Sx6MKjq+A//KcOXq144D9ioyhWBDjhP4P8bvyKjd0/zPELf//u2j/T5+m/RJ3gP8icKGC86uE/K87DNZn74j8vWxq7kAHiP4BVQfAN4OE/di+oqwnE3D+4afqGR+XhPySYa/GJ9eA/SVNiTxWl4j/RrQcMY+biP3Zb1wP7v+I/Uu2kRgg54T+qC2nhemHgP/6LWT/HQeI/6tbb67g73j/yGOk07GzfPx/az0jecOI/8SV7s/e+4j9NDz9Z5R3hP148glf4Vd0/PEinVl9g4j/ASJN2yivhP6PHpY5F5+E/N87qIUIg4D+4DkUOaXDiP4MKaSl80eE/UX277e0d4T+qMIeUJCDiPxd7QrJrsOE/hh8qDFY+3T8a1bzRtP/iP5c2pz6Zwd0/XKG6y7ZQ4j9G+b5TPbfgPyjebLwd4uI/zuCMUhcB4D+GkY+bd1PhP2lNfPmLouE/vNqlLesD4z9xpcwZ7e7hP1gUDCfM6eA/RvyxoxZQ4D+mEBMJGNXhP/WSoCKPH+I/HD4SXODS4D/9pY9rwzDhPwuTSIK46eE/AxBGEPVz4D9+Rjlqh6viP4WhO5vMR+I/0oay8DYl4T8byQ0QRgLhP38dWzVFadw/7JxGYk4e4j/3eG9fbV3hP0OYT/i1rNs/LSE8Nx0C4T+cBbDBlPzcP4yrD8dSnt8/8PBksFqn4T+58dadSXPhPwVJMJcBcds/5RbzTSdY4j9pOmlfGOjiP8n5EAW/geE/M73Nd3p54T+Q56rWnbPhP+aFiecmDN8/W8E29W0o4T/nwndWS8jiP8yV+SbNT+I/PzTxUlJi4T/SZSDAx0PhP1gYKsnRh+E/UY5Yr/EN4j+b8zqYXZzhPw==",
                "weights": "k05VTVBZAQB2AHsnZGVzY3InOiAnPGY4JywgJ2ZvcnRyYW5fb3JkZXInOiBGYWxzZSwgJ3NoYXBlJzogKDk3LCksIH0gICAgICAgICAgICAgICAgICAgICAgICAgICAgICAgICAgICAgICAgICAgICAgICAgICAgICAgICAgIAoV+OLqBx2FPxX44uoHHYU/Ffji6gcdhT8V+OLqBx2FPxX44uoHHYU/Ffji6gcdhT8V+OLqBx2FPxX44uoHHYU/Ffji6gcdhT8V+OLqBx2FPxX44uoHHYU/Ffji6gcdhT8V+OLqBx2FPxX44uoHHYU/Ffji6gcdhT8V+OLqBx2FPxX44uoHHYU/Ffji6gcdhT8V+OLqBx2FPxX44uoHHYU/Ffji6gcdhT8V+OLqBx2FPxX44uoHHYU/Ffji6gcdhT8V+OLqBx2FPxX44uoHHYU/Ffji6gcdhT8V+OLqBx2FPxX44uoHHYU/Ffji6gcdhT8V+OLqBx2FPxX44uoHHYU/Ffji6gcdhT8V+OLqBx2FPxX44uoHHYU/Ffji6gcdhT8V+OLqBx2FPxX44uoHHYU/Ffji6gcdhT8V+OLqBx2FPxX44uoHHYU/Ffji6gcdhT8V+OLqBx2FPxX44uoHHYU/Ffji6gcdhT8V+OLqBx2FPxX44uoHHYU/Ffji6gcdhT8V+OLqBx2FPxX44uoHHYU/Ffji6gcdhT8V+OLqBx2FPxX44uoHHYU/Ffji6gcdhT8V+OLqBx2FPxX44uoHHYU/Ffji6gcdhT8V+OLqBx2FPxX44uoHHYU/Ffji6gcdhT8V+OLqBx2FPxX44uoHHYU/Ffji6gcdhT8V+OLqBx2FPxX44uoHHYU/Ffji6gcdhT8V+OLqBx2FPxX44uoHHYU/Ffji6gcdhT8V+OLqBx2FPxX44uoHHYU/Ffji6gcdhT8V+OLqBx2FPxX44uoHHYU/Ffji6gcdhT8V+OLqBx2FPxX44uoHHYU/Ffji6gcdhT8V+OLqBx2FPxX44uoHHYU/Ffji6gcdhT8V+OLqBx2FPxX44uoHHYU/Ffji6gcdhT8V+OLqBx2FPxX44uoHHYU/Ffji6gcdhT8V+OLqBx2FPxX44uoHHYU/Ffji6gcdhT8V+OLqBx2FPxX44uoHHYU/Ffji6gcdhT8V+OLqBx2FPxX44uoHHYU/Ffji6gcdhT8V+OLqBx2FPw==",
                "bandwidth": 0.01785703615778999
            },
            "theta_weights": "k05VTVBZAQB2AHsnZGVzY3InOiAnPGY4JywgJ2ZvcnRyYW5fb3JkZXInOiBGYWxzZSwgJ3NoYXBlJzogKDIwMCwpLCB9ICAgICAgICAgICAgICAgICAgICAgICAgICAgICAgICAgICAgICAgICAgICAgICAgICAgICAgICAgIAp7FK5H4Xp0P3sUrkfhenQ/exSuR+F6dD97FK5H4Xp0P3sUrkfhenQ/exSuR+F6dD97FK5H4Xp0P3sUrkfhenQ/exSuR+F6dD97FK5H4Xp0P3sUrkfhenQ/exSuR+F6dD97FK5H4Xp0P3sUrkfhenQ/exSuR+F6dD97FK5H4Xp0P3sUrkfhenQ/exSuR+F6dD97FK5H4Xp0P3sUrkfhenQ/exSuR+F6dD97FK5H4Xp0P3sUrkfhenQ/exSuR+F6dD97FK5H4Xp0P3sUrkfhenQ/exSuR+F6dD97FK5H4Xp0P3sUrkfhenQ/exSuR+F6dD97FK5H4Xp0P3sUrkfhenQ/exSuR+F6dD97FK5H4Xp0P3sUrkfhenQ/exSuR+F6dD97FK5H4Xp0P3sUrkfhenQ/exSuR+F6dD97FK5H4Xp0P3sUrkfhenQ/exSuR+F6dD97FK5H4Xp0P3sUrkfhenQ/exSuR+F6dD97FK5H4Xp0P3sUrkfhenQ/exSuR+F6dD97FK5H4Xp0P3sUrkfhenQ/exSuR+F6dD97FK5H4Xp0P3sUrkfhenQ/exSuR+F6dD97FK5H4Xp0P3sUrkfhenQ/exSuR+F6dD97FK5H4Xp0P3sUrkfhenQ/exSuR+F6dD97FK5H4Xp0P3sUrkfhenQ/exSuR+F6dD97FK5H4Xp0P3sUrkfhenQ/exSuR+F6dD97FK5H4Xp0P3sUrkfhenQ/exSuR+F6dD97FK5H4Xp0P3sUrkfhenQ/exSuR+F6dD97FK5H4Xp0P3sUrkfhenQ/exSuR+F6dD97FK5H4Xp0P3sUrkfhenQ/exSuR+F6dD97FK5H4Xp0P3sUrkfhenQ/exSuR+F6dD97FK5H4Xp0P3sUrkfhenQ/exSuR+F6dD97FK5H4Xp0P3sUrkfhenQ/exSuR+F6dD97FK5H4Xp0P3sUrkfhenQ/exSuR+F6dD97FK5H4Xp0P3sUrkfhenQ/exSuR+F6dD97FK5H4Xp0P3sUrkfhenQ/exSuR+F6dD97FK5H4Xp0P3sUrkfhenQ/exSuR+F6dD97FK5H4Xp0P3sUrkfhenQ/exSuR+F6dD97FK5H4Xp0P3sUrkfhenQ/exSuR+F6dD97FK5H4Xp0P3sUrkfhenQ/exSuR+F6dD97FK5H4Xp0P3sUrkfhenQ/exSuR+F6dD97FK5H4Xp0P3sUrkfhenQ/exSuR+F6dD97FK5H4Xp0P3sUrkfhenQ/exSuR+F6dD97FK5H4Xp0P3sUrkfhenQ/exSuR+F6dD97FK5H4Xp0P3sUrkfhenQ/exSuR+F6dD97FK5H4Xp0P3sUrkfhenQ/exSuR+F6dD97FK5H4Xp0P3sUrkfhenQ/exSuR+F6dD97FK5H4Xp0P3sUrkfhenQ/exSuR+F6dD97FK5H4Xp0P3sUrkfhenQ/exSuR+F6dD97FK5H4Xp0P3sUrkfhenQ/exSuR+F6dD97FK5H4Xp0P3sUrkfhenQ/exSuR+F6dD97FK5H4Xp0P3sUrkfhenQ/exSuR+F6dD97FK5H4Xp0P3sUrkfhenQ/exSuR+F6dD97FK5H4Xp0P3sUrkfhenQ/exSuR+F6dD97FK5H4Xp0P3sUrkfhenQ/exSuR+F6dD97FK5H4Xp0P3sUrkfhenQ/exSuR+F6dD97FK5H4Xp0P3sUrkfhenQ/exSuR+F6dD97FK5H4Xp0P3sUrkfhenQ/exSuR+F6dD97FK5H4Xp0P3sUrkfhenQ/exSuR+F6dD97FK5H4Xp0P3sUrkfhenQ/exSuR+F6dD97FK5H4Xp0P3sUrkfhenQ/exSuR+F6dD97FK5H4Xp0P3sUrkfhenQ/exSuR+F6dD97FK5H4Xp0P3sUrkfhenQ/exSuR+F6dD97FK5H4Xp0P3sUrkfhenQ/exSuR+F6dD97FK5H4Xp0P3sUrkfhenQ/exSuR+F6dD97FK5H4Xp0P3sUrkfhenQ/exSuR+F6dD97FK5H4Xp0P3sUrkfhenQ/exSuR+F6dD97FK5H4Xp0P3sUrkfhenQ/exSuR+F6dD97FK5H4Xp0P3sUrkfhenQ/exSuR+F6dD97FK5H4Xp0P3sUrkfhenQ/exSuR+F6dD97FK5H4Xp0P3sUrkfhenQ/",
            "phi_kde": {
                "data": "k05VTVBZAQB2AHsnZGVzY3InOiAnPGY4JywgJ2ZvcnRyYW5fb3JkZXInOiBGYWxzZSwgJ3NoYXBlJzogKDEwMywpLCB9ICAgICAgICAgICAgICAgICAgICAgICAgICAgICAgICAgICAgICAgICAgICAgICAgICAgICAgICAgIApPB/woPdDkP/Xj9p5pQ+k/6ymyl2mv5j8wNS2CDanjPz2Bcw2uLOM/j5KHaCOh4z9Z9nEfX3fkP4opISO6JeM/v3MjHSj85D8XcNCWLnnnP/zheXtJbuQ/4tyV2+tK5T+IV6KGRd3kP9hXEq35dOM/T2b7e4lB4z87GbYzVXXlPyv5zRgs1eQ/OWXcojLX5T/7Qpg95ZTkP6Wv8jNcC+Q/Kbtj0ukR5j8JVX7UkcTlP3ddpp2yqOM/SjeS5cA55j9zV4BdB5LnP/1/X6ZZqeM/FgK4/Mlo5j/xSw2FfHXlP4abYpsKKOQ/iaT1FrSF5D+vhbecV6HlP6W+x8ebJuU/0mTRJ+Ro4z+KqS5m3brkP6DakmDvZOQ/eNEnuIe65T9n1IUcAnnjP0etl1Y1Uec/aOMmn1aD4z/8nv7gjNLlP8hcwB+7B+Q/57JBJep45D90nEVEthXkP45NvgbShOk/LLo91EJO4z9XShQNi3TkP1/4IMjM1+M/RlWXzvxq5D9dDH6jkb3lP/Uj0PNYBuY/zCnDKlkF5D9XLD4GGnTjP6gktBZziOM/qUOZQMkc5D/3OG8C1YDjP7V/FtFTh+M/f3yd5tjY5j9wN0Ge74PjPxpBh3PRlOU/VNeiqF3P5z8vn5hC+TzlP/HBkGV12uM/kPjr6HeK5D8dRKD/ffnjP38XEv+Lnec/vOeQjZFq5T8PKNBMjZLjP0Vm3inue+c/k75/vsjw4z/CeCmuUoLkP+6+wgDwJuQ/pUx0hGqk5D+HJTbLbLnmP00gn+zJb+Q/y1+jfCWB4z9y1BeShuzlP8jRKhnDeeM/QLlPRQ6h4z+oaQA7d4vkPzwsa5fVHuY/OBp8Yrwy4z/JmojxFE7jPzGlC+MRaOQ/DfeJuJig5T+Q9WcAWjToP2CTTueCcOY/7k9J/gmP4z+FAgGiX/joP8aHu5yLueQ/ierqJ52a4z9yX7zGV1DmP7x3ECRewOM/XC54XBSg5D9f0mm0HRbjP7AVIuKKaOM/bSMh/Gd04z9gryaPQ+/kPyZRKnrjuOQ/lv2KofTv4z9ylpM7MOXlP++Ev0E4a+M/pQsZh/Hz4z8+0x4MKE3kPw==",
                "weights": "k05VTVBZAQB2AHsnZGVzY3InOiAnPGY4JywgJ2ZvcnRyYW5fb3JkZXInOiBGYWxzZSwgJ3NoYXBlJzogKDEwMywpLCB9ICAgICAgICAgICAgICAgICAgICAgICAgICAgICAgICAgICAgICAgICAgICAgICAgICAgICAgICAgIAoCqeS8LOKDPwKp5Lws4oM/AqnkvCzigz8CqeS8LOKDPwKp5Lws4oM/AqnkvCzigz8CqeS8LOKDPwKp5Lws4oM/AqnkvCzigz8CqeS8LOKDPwKp5Lws4oM/AqnkvCzigz8CqeS8LOKDPwKp5Lws4oM/AqnkvCzigz8CqeS8LOKDPwKp5Lws4oM/AqnkvCzigz8CqeS8LOKDPwKp5Lws4oM/AqnkvCzigz8CqeS8LOKDPwKp5Lws4oM/AqnkvCzigz8CqeS8LOKDPwKp5Lws4oM/AqnkvCzigz8CqeS8LOKDPwKp5Lws4oM/AqnkvCzigz8CqeS8LOKDPwKp5Lws4oM/AqnkvCzigz8CqeS8LOKDPwKp5Lws4oM/AqnkvCzigz8CqeS8LOKDPwKp5Lws4oM/AqnkvCzigz8CqeS8LOKDPwKp5Lws4oM/AqnkvCzigz8CqeS8LOKDPwKp5Lws4oM/AqnkvCzigz8CqeS8LOKDPwKp5Lws4oM/AqnkvCzigz8CqeS8LOKDPwKp5Lws4oM/AqnkvCzigz8CqeS8LOKDPwKp5Lws4oM/AqnkvCzigz8CqeS8LOKDPwKp5Lws4oM/AqnkvCzigz8CqeS8LOKDPwKp5Lws4oM/AqnkvCzigz8CqeS8LOKDPwKp5Lws4oM/AqnkvCzigz8CqeS8LOKDPwKp5Lws4oM/AqnkvCzigz8CqeS8LOKDPwKp5Lws4oM/AqnkvCzigz8CqeS8LOKDPwKp5Lws4oM/AqnkvCzigz8CqeS8LOKDPwKp5Lws4oM/AqnkvCzigz8CqeS8LOKDPwKp5Lws4oM/AqnkvCzigz8CqeS8LOKDPwKp5Lws4oM/AqnkvCzigz8CqeS8LOKDPwKp5Lws4oM/AqnkvCzigz8CqeS8LOKDPwKp5Lws4oM/AqnkvCzigz8CqeS8LOKDPwKp5Lws4oM/AqnkvCzigz8CqeS8LOKDPwKp5Lws4oM/AqnkvCzigz8CqeS8LOKDPwKp5Lws4oM/AqnkvCzigz8CqeS8LOKDPwKp5Lws4oM/AqnkvCzigz8CqeS8LOKDPwKp5Lws4oM/AqnkvCzigz8CqeS8LOKDPw==",
                "bandwidth": 0.01904481208435332
            },
            "phi_weights": "k05VTVBZAQB2AHsnZGVzY3InOiAnPGY4JywgJ2ZvcnRyYW5fb3JkZXInOiBGYWxzZSwgJ3NoYXBlJzogKDIwMCwpLCB9ICAgICAgICAgICAgICAgICAgICAgICAgICAgICAgICAgICAgICAgICAgICAgICAgICAgICAgICAgIAp7FK5H4Xp0P3sUrkfhenQ/exSuR+F6dD97FK5H4Xp0P3sUrkfhenQ/exSuR+F6dD97FK5H4Xp0P3sUrkfhenQ/exSuR+F6dD97FK5H4Xp0P3sUrkfhenQ/exSuR+F6dD97FK5H4Xp0P3sUrkfhenQ/exSuR+F6dD97FK5H4Xp0P3sUrkfhenQ/exSuR+F6dD97FK5H4Xp0P3sUrkfhenQ/exSuR+F6dD97FK5H4Xp0P3sUrkfhenQ/exSuR+F6dD97FK5H4Xp0P3sUrkfhenQ/exSuR+F6dD97FK5H4Xp0P3sUrkfhenQ/exSuR+F6dD97FK5H4Xp0P3sUrkfhenQ/exSuR+F6dD97FK5H4Xp0P3sUrkfhenQ/exSuR+F6dD97FK5H4Xp0P3sUrkfhenQ/exSuR+F6dD97FK5H4Xp0P3sUrkfhenQ/exSuR+F6dD97FK5H4Xp0P3sUrkfhenQ/exSuR+F6dD97FK5H4Xp0P3sUrkfhenQ/exSuR+F6dD97FK5H4Xp0P3sUrkfhenQ/exSuR+F6dD97FK5H4Xp0P3sUrkfhenQ/exSuR+F6dD97FK5H4Xp0P3sUrkfhenQ/exSuR+F6dD97FK5H4Xp0P3sUrkfhenQ/exSuR+F6dD97FK5H4Xp0P3sUrkfhenQ/exSuR+F6dD97FK5H4Xp0P3sUrkfhenQ/exSuR+F6dD97FK5H4Xp0P3sUrkfhenQ/exSuR+F6dD97FK5H4Xp0P3sUrkfhenQ/exSuR+F6dD97FK5H4Xp0P3sUrkfhenQ/exSuR+F6dD97FK5H4Xp0P3sUrkfhenQ/exSuR+F6dD97FK5H4Xp0P3sUrkfhenQ/exSuR+F6dD97FK5H4Xp0P3sUrkfhenQ/exSuR+F6dD97FK5H4Xp0P3sUrkfhenQ/exSuR+F6dD97FK5H4Xp0P3sUrkfhenQ/exSuR+F6dD97FK5H4Xp0P3sUrkfhenQ/exSuR+F6dD97FK5H4Xp0P3sUrkfhenQ/exSuR+F6dD97FK5H4Xp0P3sUrkfhenQ/exSuR+F6dD97FK5H4Xp0P3sUrkfhenQ/exSuR+F6dD97FK5H4Xp0P3sUrkfhenQ/exSuR+F6dD97FK5H4Xp0P3sUrkfhenQ/exSuR+F6dD97FK5H4Xp0P3sUrkfhenQ/exSuR+F6dD97FK5H4Xp0P3sUrkfhenQ/exSuR+F6dD97FK5H4Xp0P3sUrkfhenQ/exSuR+F6dD97FK5H4Xp0P3sUrkfhenQ/exSuR+F6dD97FK5H4Xp0P3sUrkfhenQ/exSuR+F6dD97FK5H4Xp0P3sUrkfhenQ/exSuR+F6dD97FK5H4Xp0P3sUrkfhenQ/exSuR+F6dD97FK5H4Xp0P3sUrkfhenQ/exSuR+F6dD97FK5H4Xp0P3sUrkfhenQ/exSuR+F6dD97FK5H4Xp0P3sUrkfhenQ/exSuR+F6dD97FK5H4Xp0P3sUrkfhenQ/exSuR+F6dD97FK5H4Xp0P3sUrkfhenQ/exSuR+F6dD97FK5H4Xp0P3sUrkfhenQ/exSuR+F6dD97FK5H4Xp0P3sUrkfhenQ/exSuR+F6dD97FK5H4Xp0P3sUrkfhenQ/exSuR+F6dD97FK5H4Xp0P3sUrkfhenQ/exSuR+F6dD97FK5H4Xp0P3sUrkfhenQ/exSuR+F6dD97FK5H4Xp0P3sUrkfhenQ/exSuR+F6dD97FK5H4Xp0P3sUrkfhenQ/exSuR+F6dD97FK5H4Xp0P3sUrkfhenQ/exSuR+F6dD97FK5H4Xp0P3sUrkfhenQ/exSuR+F6dD97FK5H4Xp0P3sUrkfhenQ/exSuR+F6dD97FK5H4Xp0P3sUrkfhenQ/exSuR+F6dD97FK5H4Xp0P3sUrkfhenQ/exSuR+F6dD97FK5H4Xp0P3sUrkfhenQ/exSuR+F6dD97FK5H4Xp0P3sUrkfhenQ/exSuR+F6dD97FK5H4Xp0P3sUrkfhenQ/exSuR+F6dD97FK5H4Xp0P3sUrkfhenQ/exSuR+F6dD97FK5H4Xp0P3sUrkfhenQ/exSuR+F6dD97FK5H4Xp0P3sUrkfhenQ/exSuR+F6dD97FK5H4Xp0P3sUrkfhenQ/"
        },
        "HIP-FCI": {
            "theta_kde": {
                "data": "k05VTVBZAQB2AHsnZGVzY3InOiAnPGY4JywgJ2ZvcnRyYW5fb3JkZXInOiBGYWxzZSwgJ3NoYXBlJzogKDE0MCwpLCB9ICAgICAgICAgICAgICAgICAgICAgICAgICAgICAgICAgICAgICAgICAgICAgICAgICAgICAgICAgIArcWVwispgXwIRHlXtcGRLAGwfHN5VIEsD3ukuWVBkXwNJ1mlGRPxzAv77LYLPqE8D9tMzo774QwOPAu+24qw3ANfNbSdoQE8DCgzdOm/gKwIYszB69ExfA2jv6wNMbAMAyjC7D3QcZwGu1KzR1iBjAYPKC76TFF8BIvxHszYAWwNgD+47blAjAef4u8nqCFcAE4r6iFb0SwKDr8DDacOa/8PfGaYjzC8AjweL7Hs4cwI7ywCxSdBXA8P9x8W2AHcDYwWCm3U0cwHakkN9poxnAZ7d8/0aMGcBQ5P1wTaoawCzdJ9WcjBnAgPCR+4NTGcDmNcLwLtscwLYxPormxwzAAupvQOXoEsD6E4PXEgkTwM4UQBmQIwTAk9c8+MaPFMAV0CC7v40VwHanx0eFkw3AvkoOGMezEcAURocpbLoRwELcKf8mcRTARtH3C4SFE8DU0JVmD/cSwCthQ7FuohXAEKfv6ZxVB8AGdcCxlkEZwMbxHagaVwbAEVCCMVJIG8Bgs9DAHR7qv54G/YjcFRDAdu3ePAXTEsAS8LQgHHsNwGOVfGAaRBLANFtmjRZZFsBIe4jRsxwNwLcKYcmrRR7Awi8bbzAUEcB1FHe6GR4bwE4nXYS3xBbAOOeuiNEwG8ASrz8+K4YYwIh1fvzmNx3AqacfaKsxEsBXU4EkbZ4VwKgVikEibBPAIlBpWzTPC8C92MqI61kUwCpIKTIEHx/A5M0xCuRpGcD8S/kb/gYCwAoPdSfnMg3AcoYgiI39G8D4zw0p0AcawF5IoKTCAvu/pwYJUO9sEMBDgmvdE08OwPj4deK1DAnAEvT9RUrGHMA2rbPoypYNwOvBXyf2MhPATw1nwi6UE8DlV2H7h0AVwMmwb8eQ+xTAeQUzT/tLEMCuSmJpvEIEwA5i5dvfGQfA1/qxStGcGcBUTGM9QUgRwEQQYPRxBB7A5D8KDw/LG8CvpVzhBE8dwEbwVIjpnRbA/GGevkYAB8DOT6TH0EsBwNpdqImtTQjAoC0bF0DdAMBBQna1PkIWwKTw0V6/fhXAuL6h8i/tHMCMwCh88x4SwJVZZcQzmBnAc/qtbYfADMCeIYJL7ooMwMgiwBzyaxnAFBn31KEdCMD5W7Y85joRwLz0Pxg6lRTAYnS5Cfw/GMDm2WP13uwfwIT11r2UeBDADkbpRQDNBMD5Mvl/gJIVwARaIB0y8xnAUxRHzFFcFMA8TDIaJUgYwEgXkzAoGem/NeD7h7H9HsDJIhOWzwUQwByjfHDcHhzAnnKu317bGcBiq4gEt68ewKj4gcxJbRrAeLmmBb2ME8AhLTuYjPkYwDMbKOKHBxfArtIa/higB8BUBtMjhZYWwP7ZORQKNRTAII+Glr4JBMCbD9ix2ygYwLqqU6sS7iHAbBrY7vKwEsA+mrrAZP0WwNmTBdChkxHAAVR5G6QQE8DYX85TOHwgwLLIMQg2ZgrAwp2nzJLBGMAHVcXfhQ8RwG2Wbcfk/xLA",
                "weights": "k05VTVBZAQB2AHsnZGVzY3InOiAnPGY4JywgJ2ZvcnRyYW5fb3JkZXInOiBGYWxzZSwgJ3NoYXBlJzogKDE0MCwpLCB9ICAgICAgICAgICAgICAgICAgICAgICAgICAgICAgICAgICAgICAgICAgICAgICAgICAgICAgICAgIAod1EEd1EF9Px3UQR3UQX0/HdRBHdRBfT8d1EEd1EF9Px3UQR3UQX0/HdRBHdRBfT8d1EEd1EF9Px3UQR3UQX0/HdRBHdRBfT8d1EEd1EF9Px3UQR3UQX0/HdRBHdRBfT8d1EEd1EF9Px3UQR3UQX0/HdRBHdRBfT8d1EEd1EF9Px3UQR3UQX0/HdRBHdRBfT8d1EEd1EF9Px3UQR3UQX0/HdRBHdRBfT8d1EEd1EF9Px3UQR3UQX0/HdRBHdRBfT8d1EEd1EF9Px3UQR3UQX0/HdRBHdRBfT8d1EEd1EF9Px3UQR3UQX0/HdRBHdRBfT8d1EEd1EF9Px3UQR3UQX0/HdRBHdRBfT8d1EEd1EF9Px3UQR3UQX0/HdRBHdRBfT8d1EEd1EF9Px3UQR3UQX0/HdRBHdRBfT8d1EEd1EF9Px3UQR3UQX0/HdRBHdRBfT8d1EEd1EF9Px3UQR3UQX0/HdRBHdRBfT8d1EEd1EF9Px3UQR3UQX0/HdRBHdRBfT8d1EEd1EF9Px3UQR3UQX0/HdRBHdRBfT8d1EEd1EF9Px3UQR3UQX0/HdRBHdRBfT8d1EEd1EF9Px3UQR3UQX0/HdRBHdRBfT8d1EEd1EF9Px3UQR3UQX0/HdRBHdRBfT8d1EEd1EF9Px3UQR3UQX0/HdRBHdRBfT8d1EEd1EF9Px3UQR3UQX0/HdRBHdRBfT8d1EEd1EF9Px3UQR3UQX0/HdRBHdRBfT8d1EEd1EF9Px3UQR3UQX0/HdRBHdRBfT8d1EEd1EF9Px3UQR3UQX0/HdRBHdRBfT8d1EEd1EF9Px3UQR3UQX0/HdRBHdRBfT8d1EEd1EF9Px3UQR3UQX0/HdRBHdRBfT8d1EEd1EF9Px3UQR3UQX0/HdRBHdRBfT8d1EEd1EF9Px3UQR3UQX0/HdRBHdRBfT8d1EEd1EF9Px3UQR3UQX0/HdRBHdRBfT8d1EEd1EF9Px3UQR3UQX0/HdRBHdRBfT8d1EEd1EF9Px3UQR3UQX0/HdRBHdRBfT8d1EEd1EF9Px3UQR3UQX0/HdRBHdRBfT8d1EEd1EF9Px3UQR3UQX0/HdRBHdRBfT8d1EEd1EF9Px3UQR3UQX0/HdRBHdRBfT8d1EEd1EF9Px3UQR3UQX0/HdRBHdRBfT8d1EEd1EF9Px3UQR3UQX0/HdRBHdRBfT8d1EEd1EF9Px3UQR3UQX0/HdRBHdRBfT8d1EEd1EF9Px3UQR3UQX0/HdRBHdRBfT8d1EEd1EF9Px3UQR3UQX0/HdRBHdRBfT8d1EEd1EF9Px3UQR3UQX0/HdRBHdRBfT8d1EEd1EF9Px3UQR3UQX0/HdRBHdRBfT8d1EEd1EF9Px3UQR3UQX0/HdRBHdRBfT8d1EEd1EF9Px3UQR3UQX0/HdRBHdRBfT8d1EEd1EF9Px3UQR3UQX0/HdRBHdRBfT8d1EEd1EF9Px3UQR3UQX0/HdRBHdRBfT8d1EEd1EF9Px3UQR3UQX0/",
                "bandwidth": 0.6499131825478728
            },
            "theta_weights": "k05VTVBZAQB2AHsnZGVzY3InOiAnPGY4JywgJ2ZvcnRyYW5fb3JkZXInOiBGYWxzZSwgJ3NoYXBlJzogKDIwMCwpLCB9ICAgICAgICAgICAgICAgICAgICAgICAgICAgICAgICAgICAgICAgICAgICAgICAgICAgICAgICAgIAp7FK5H4Xp0P3sUrkfhenQ/exSuR+F6dD97FK5H4Xp0P3sUrkfhenQ/exSuR+F6dD97FK5H4Xp0P3sUrkfhenQ/exSuR+F6dD97FK5H4Xp0P3sUrkfhenQ/exSuR+F6dD97FK5H4Xp0P3sUrkfhenQ/exSuR+F6dD97FK5H4Xp0P3sUrkfhenQ/exSuR+F6dD97FK5H4Xp0P3sUrkfhenQ/exSuR+F6dD97FK5H4Xp0P3sUrkfhenQ/exSuR+F6dD97FK5H4Xp0P3sUrkfhenQ/exSuR+F6dD97FK5H4Xp0P3sUrkfhenQ/exSuR+F6dD97FK5H4Xp0P3sUrkfhenQ/exSuR+F6dD97FK5H4Xp0P3sUrkfhenQ/exSuR+F6dD97FK5H4Xp0P3sUrkfhenQ/exSuR+F6dD97FK5H4Xp0P3sUrkfhenQ/exSuR+F6dD97FK5H4Xp0P3sUrkfhenQ/exSuR+F6dD97FK5H4Xp0P3sUrkfhenQ/exSuR+F6dD97FK5H4Xp0P3sUrkfhenQ/exSuR+F6dD97FK5H4Xp0P3sUrkfhenQ/exSuR+F6dD97FK5H4Xp0P3sUrkfhenQ/exSuR+F6dD97FK5H4Xp0P3sUrkfhenQ/exSuR+F6dD97FK5H4Xp0P3sUrkfhenQ/exSuR+F6dD97FK5H4Xp0P3sUrkfhenQ/exSuR+F6dD97FK5H4Xp0P3sUrkfhenQ/exSuR+F6dD97FK5H4Xp0P3sUrkfhenQ/exSuR+F6dD97FK5H4Xp0P3sUrkfhenQ/exSuR+F6dD97FK5H4Xp0P3sUrkfhenQ/exSuR+F6dD97FK5H4Xp0P3sUrkfhenQ/exSuR+F6dD97FK5H4Xp0P3sUrkfhenQ/exSuR+F6dD97FK5H4Xp0P3sUrkfhenQ/exSuR+F6dD97FK5H4Xp0P3sUrkfhenQ/exSuR+F6dD97FK5H4Xp0P3sUrkfhenQ/exSuR+F6dD97FK5H4Xp0P3sUrkfhenQ/exSuR+F6dD97FK5H4Xp0P3sUrkfhenQ/exSuR+F6dD97FK5H4Xp0P3sUrkfhenQ/exSuR+F6dD97FK5H4Xp0P3sUrkfhenQ/exSuR+F6dD97FK5H4Xp0P3sUrkfhenQ/exSuR+F6dD97FK5H4Xp0P3sUrkfhenQ/exSuR+F6dD97FK5H4Xp0P3sUrkfhenQ/exSuR+F6dD97FK5H4Xp0P3sUrkfhenQ/exSuR+F6dD97FK5H4Xp0P3sUrkfhenQ/exSuR+F6dD97FK5H4Xp0P3sUrkfhenQ/exSuR+F6dD97FK5H4Xp0P3sUrkfhenQ/exSuR+F6dD97FK5H4Xp0P3sUrkfhenQ/exSuR+F6dD97FK5H4Xp0P3sUrkfhenQ/exSuR+F6dD97FK5H4Xp0P3sUrkfhenQ/exSuR+F6dD97FK5H4Xp0P3sUrkfhenQ/exSuR+F6dD97FK5H4Xp0P3sUrkfhenQ/exSuR+F6dD97FK5H4Xp0P3sUrkfhenQ/exSuR+F6dD97FK5H4Xp0P3sUrkfhenQ/exSuR+F6dD97FK5H4Xp0P3sUrkfhenQ/exSuR+F6dD97FK5H4Xp0P3sUrkfhenQ/exSuR+F6dD97FK5H4Xp0P3sUrkfhenQ/exSuR+F6dD97FK5H4Xp0P3sUrkfhenQ/exSuR+F6dD97FK5H4Xp0P3sUrkfhenQ/exSuR+F6dD97FK5H4Xp0P3sUrkfhenQ/exSuR+F6dD97FK5H4Xp0P3sUrkfhenQ/exSuR+F6dD97FK5H4Xp0P3sUrkfhenQ/exSuR+F6dD97FK5H4Xp0P3sUrkfhenQ/exSuR+F6dD97FK5H4Xp0P3sUrkfhenQ/exSuR+F6dD97FK5H4Xp0P3sUrkfhenQ/exSuR+F6dD97FK5H4Xp0P3sUrkfhenQ/exSuR+F6dD97FK5H4Xp0P3sUrkfhenQ/exSuR+F6dD97FK5H4Xp0P3sUrkfhenQ/exSuR+F6dD97FK5H4Xp0P3sUrkfhenQ/exSuR+F6dD97FK5H4Xp0P3sUrkfhenQ/exSuR+F6dD97FK5H4Xp0P3sUrkfhenQ/exSuR+F6dD97FK5H4Xp0P3sUrkfhenQ/",
            "phi_kde": {
                "data": "k05VTVBZAQB2AHsnZGVzY3InOiAnPGY4JywgJ2ZvcnRyYW5fb3JkZXInOiBGYWxzZSwgJ3NoYXBlJzogKDYwLCksIH0gICAgICAgICAgICAgICAgICAgICAgICAgICAgICAgICAgICAgICAgICAgICAgICAgICAgICAgICAgIArzGXOfElIXQIWi5gYGgxxApISwFx7PG0Awb/4kMHn5P6GF4uGMqhlA/ZGcYC/uEkDzvJRL3isVQMRy3qKdkPc/c2ChXJHB+z/eAwHrosAIQBxG6kUuXRFAR88iAK8RCED9OqRSsxwdQJI4GEFHeCBA9cbxBIXLFEB6Y+hiUbgUQO2m12psaA1AgL2zpl3XyD+A/Jt9f9kZQJcIMJ/kjRVATcn51NgVGkDfMWhS+CoSQMalthTBbyBASxoUmYTk+D9Ub18CHpwTQKiA6X6FZR5AvW/R5bOjGEAI2iwtisEOQIHdeLIsDwlAhqxqbWJzFUAxPWOeoQ4FQDDd3sWmId4/WPOrj5RWE0Dyo9sqnTUVQCinyHtQSBpAFugbQ6wzGUC3ZF6MXZQXQDhRiOCiX/Q/YCMzgC4hF0B2RHSAYmYBQHBqKfGK/uc/5+6Wqe+k7z+RqqvmfC4TQB+wa7HD8RtAga1MCoiqBEBvcFLsso8UQMbrC7AseRBAaB9i739hCECgoONnyMgWQBirkx5dnuM/2FsVs4NeF0AglciOcbD8P3I8l/hn6xtAp0S51timE0Dg1vb50BIVQB6H7H2R+QZA7m2o7rNAF0Czc+EUpL0KQF5qGH60JBNA/8evPdjw3z8=",
                "weights": "k05VTVBZAQB2AHsnZGVzY3InOiAnPGY4JywgJ2ZvcnRyYW5fb3JkZXInOiBGYWxzZSwgJ3NoYXBlJzogKDYwLCksIH0gICAgICAgICAgICAgICAgICAgICAgICAgICAgICAgICAgICAgICAgICAgICAgICAgICAgICAgICAgIAoRERERERGRPxEREREREZE/ERERERERkT8RERERERGRPxEREREREZE/ERERERERkT8RERERERGRPxEREREREZE/ERERERERkT8RERERERGRPxEREREREZE/ERERERERkT8RERERERGRPxEREREREZE/ERERERERkT8RERERERGRPxEREREREZE/ERERERERkT8RERERERGRPxEREREREZE/ERERERERkT8RERERERGRPxEREREREZE/ERERERERkT8RERERERGRPxEREREREZE/ERERERERkT8RERERERGRPxEREREREZE/ERERERERkT8RERERERGRPxEREREREZE/ERERERERkT8RERERERGRPxEREREREZE/ERERERERkT8RERERERGRPxEREREREZE/ERERERERkT8RERERERGRPxEREREREZE/ERERERERkT8RERERERGRPxEREREREZE/ERERERERkT8RERERERGRPxEREREREZE/ERERERERkT8RERERERGRPxEREREREZE/ERERERERkT8RERERERGRPxEREREREZE/ERERERERkT8RERERERGRPxEREREREZE/ERERERERkT8RERERERGRPxEREREREZE/ERERERERkT8=",
                "bandwidth": 1.0038163256229087
            },
            "phi_weights": "k05VTVBZAQB2AHsnZGVzY3InOiAnPGY4JywgJ2ZvcnRyYW5fb3JkZXInOiBGYWxzZSwgJ3NoYXBlJzogKDIwMCwpLCB9ICAgICAgICAgICAgICAgICAgICAgICAgICAgICAgICAgICAgICAgICAgICAgICAgICAgICAgICAgIAp7FK5H4Xp0P3sUrkfhenQ/exSuR+F6dD97FK5H4Xp0P3sUrkfhenQ/exSuR+F6dD97FK5H4Xp0P3sUrkfhenQ/exSuR+F6dD97FK5H4Xp0P3sUrkfhenQ/exSuR+F6dD97FK5H4Xp0P3sUrkfhenQ/exSuR+F6dD97FK5H4Xp0P3sUrkfhenQ/exSuR+F6dD97FK5H4Xp0P3sUrkfhenQ/exSuR+F6dD97FK5H4Xp0P3sUrkfhenQ/exSuR+F6dD97FK5H4Xp0P3sUrkfhenQ/exSuR+F6dD97FK5H4Xp0P3sUrkfhenQ/exSuR+F6dD97FK5H4Xp0P3sUrkfhenQ/exSuR+F6dD97FK5H4Xp0P3sUrkfhenQ/exSuR+F6dD97FK5H4Xp0P3sUrkfhenQ/exSuR+F6dD97FK5H4Xp0P3sUrkfhenQ/exSuR+F6dD97FK5H4Xp0P3sUrkfhenQ/exSuR+F6dD97FK5H4Xp0P3sUrkfhenQ/exSuR+F6dD97FK5H4Xp0P3sUrkfhenQ/exSuR+F6dD97FK5H4Xp0P3sUrkfhenQ/exSuR+F6dD97FK5H4Xp0P3sUrkfhenQ/exSuR+F6dD97FK5H4Xp0P3sUrkfhenQ/exSuR+F6dD97FK5H4Xp0P3sUrkfhenQ/exSuR+F6dD97FK5H4Xp0P3sUrkfhenQ/exSuR+F6dD97FK5H4Xp0P3sUrkfhenQ/exSuR+F6dD97FK5H4Xp0P3sUrkfhenQ/exSuR+F6dD97FK5H4Xp0P3sUrkfhenQ/exSuR+F6dD97FK5H4Xp0P3sUrkfhenQ/exSuR+F6dD97FK5H4Xp0P3sUrkfhenQ/exSuR+F6dD97FK5H4Xp0P3sUrkfhenQ/exSuR+F6dD97FK5H4Xp0P3sUrkfhenQ/exSuR+F6dD97FK5H4Xp0P3sUrkfhenQ/exSuR+F6dD97FK5H4Xp0P3sUrkfhenQ/exSuR+F6dD97FK5H4Xp0P3sUrkfhenQ/exSuR+F6dD97FK5H4Xp0P3sUrkfhenQ/exSuR+F6dD97FK5H4Xp0P3sUrkfhenQ/exSuR+F6dD97FK5H4Xp0P3sUrkfhenQ/exSuR+F6dD97FK5H4Xp0P3sUrkfhenQ/exSuR+F6dD97FK5H4Xp0P3sUrkfhenQ/exSuR+F6dD97FK5H4Xp0P3sUrkfhenQ/exSuR+F6dD97FK5H4Xp0P3sUrkfhenQ/exSuR+F6dD97FK5H4Xp0P3sUrkfhenQ/exSuR+F6dD97FK5H4Xp0P3sUrkfhenQ/exSuR+F6dD97FK5H4Xp0P3sUrkfhenQ/exSuR+F6dD97FK5H4Xp0P3sUrkfhenQ/exSuR+F6dD97FK5H4Xp0P3sUrkfhenQ/exSuR+F6dD97FK5H4Xp0P3sUrkfhenQ/exSuR+F6dD97FK5H4Xp0P3sUrkfhenQ/exSuR+F6dD97FK5H4Xp0P3sUrkfhenQ/exSuR+F6dD97FK5H4Xp0P3sUrkfhenQ/exSuR+F6dD97FK5H4Xp0P3sUrkfhenQ/exSuR+F6dD97FK5H4Xp0P3sUrkfhenQ/exSuR+F6dD97FK5H4Xp0P3sUrkfhenQ/exSuR+F6dD97FK5H4Xp0P3sUrkfhenQ/exSuR+F6dD97FK5H4Xp0P3sUrkfhenQ/exSuR+F6dD97FK5H4Xp0P3sUrkfhenQ/exSuR+F6dD97FK5H4Xp0P3sUrkfhenQ/exSuR+F6dD97FK5H4Xp0P3sUrkfhenQ/exSuR+F6dD97FK5H4Xp0P3sUrkfhenQ/exSuR+F6dD97FK5H4Xp0P3sUrkfhenQ/exSuR+F6dD97FK5H4Xp0P3sUrkfhenQ/exSuR+F6dD97FK5H4Xp0P3sUrkfhenQ/exSuR+F6dD97FK5H4Xp0P3sUrkfhenQ/exSuR+F6dD97FK5H4Xp0P3sUrkfhenQ/exSuR+F6dD97FK5H4Xp0P3sUrkfhenQ/exSuR+F6dD97FK5H4Xp0P3sUrkfhenQ/exSuR+F6dD97FK5H4Xp0P3sUrkfhenQ/exSuR+F6dD97FK5H4Xp0P3sUrkfhenQ/exSuR+F6dD97FK5H4Xp0P3sUrkfhenQ/"
        },
        "HIP-GMI": {
            "theta_kde": {
                "data": "k05VTVBZAQB2AHsnZGVzY3InOiAnPGY4JywgJ2ZvcnRyYW5fb3JkZXInOiBGYWxzZSwgJ3NoYXBlJzogKDk0LCksIH0gICAgICAgICAgICAgICAgICAgICAgICAgICAgICAgICAgICAgICAgICAgICAgICAgICAgICAgICAgIAox3DATqircP/gS1+3UdOM/q7ajIJnr4j+x1dcfpLrgP9xzsBMHB+E/r+vU8E0X2D8EDQgzDu/fP49AQ+QVCOA/cnzuGHks5z9T8nfk1/vkPyuEOptp/t0/PHTIs60c6D+psfy+HgrcP5fWWNgLMds/BYC7fo5a6D/OwVdj19bkPwAdmMj1rt0/Fh19Ngrn6j/zdGcwheHjPx+aFvLRFto/UnZK2vvh8j90+d1bsfTpP4XZVbBP0to/esUseqUq5T9thmJoB4XpP56r5gSa4Ns/HR/nWVZ64j/SRIIoP8/gP4k9VJG3tN0/P/h7LZxa3j9ZquKz1OfcP3ZfchE6Gtc/xCSSPOgJ2T/9w9tycCXXP+mqbRiP2Nc/UKDNZrVp3z+0IVz74fPaPywUsvCJAds/BHVB5mj45D948QPtDXnaP9VmKRPeVNw/lmSPMOd31z9HbFIRDTvhP6TVBdw4W9o/sxmA3OmJ3D/Ep0DH8+TgP9Rk3JVyltg/1HtFa/Bg5D/7q25Nxt/cP+VrL7yCt+U/IAQMsSLF8T+9XxBt4tvkP+WCOgMFGOk/jIRph2Ai3j8kf0MDmjfdP8USfARKG+s/uvIHxKmK2j+cNqPPzhPpP8V/AYkL3ug//3JhgWed4D8Ubvs6R1bhP50VCAV1m+E/Mg4kxjKV1z9h+AwNTBLbP/UW4omtqeE/axdGYdhV1z/fYYa9gFzcP9D37Vmihdk/s1k7GL7a6D8WwiBOl9PkP080KLwyR9g/T8ox3tVn4D/CQAkmyWvZP9z88w5b4t8/jmdvIKND4T9FV+jCmMzmP8AFZWbJTOg/fE0cB1+C5T9qrZUWCF3hP26obHyOjdg/os8PVEUv2D9TsaExDczuP4/GTBp5Rtc/MGpI3jUs6T/FV/BkrmnXPwvebI0Cfug/2SfR9ThI4z99kEO1fh7nP7ucE4W7qdc/XqPfzSyK4T8+/mY+Eq/bP86LA9zOoOU/F+fnwxf44T8tMLJcsFTcPw==",
                "weights": "k05VTVBZAQB2AHsnZGVzY3InOiAnPGY4JywgJ2ZvcnRyYW5fb3JkZXInOiBGYWxzZSwgJ3NoYXBlJzogKDk0LCksIH0gICAgICAgICAgICAgICAgICAgICAgICAgICAgICAgICAgICAgICAgICAgICAgICAgICAgICAgICAgIApXEJMriMmFP1cQkyuIyYU/VxCTK4jJhT9XEJMriMmFP1cQkyuIyYU/VxCTK4jJhT9XEJMriMmFP1cQkyuIyYU/VxCTK4jJhT9XEJMriMmFP1cQkyuIyYU/VxCTK4jJhT9XEJMriMmFP1cQkyuIyYU/VxCTK4jJhT9XEJMriMmFP1cQkyuIyYU/VxCTK4jJhT9XEJMriMmFP1cQkyuIyYU/VxCTK4jJhT9XEJMriMmFP1cQkyuIyYU/VxCTK4jJhT9XEJMriMmFP1cQkyuIyYU/VxCTK4jJhT9XEJMriMmFP1cQkyuIyYU/VxCTK4jJhT9XEJMriMmFP1cQkyuIyYU/VxCTK4jJhT9XEJMriMmFP1cQkyuIyYU/VxCTK4jJhT9XEJMriMmFP1cQkyuIyYU/VxCTK4jJhT9XEJMriMmFP1cQkyuIyYU/VxCTK4jJhT9XEJMriMmFP1cQkyuIyYU/VxCTK4jJhT9XEJMriMmFP1cQkyuIyYU/VxCTK4jJhT9XEJMriMmFP1cQkyuIyYU/VxCTK4jJhT9XEJMriMmFP1cQkyuIyYU/VxCTK4jJhT9XEJMriMmFP1cQkyuIyYU/VxCTK4jJhT9XEJMriMmFP1cQkyuIyYU/VxCTK4jJhT9XEJMriMmFP1cQkyuIyYU/VxCTK4jJhT9XEJMriMmFP1cQkyuIyYU/VxCTK4jJhT9XEJMriMmFP1cQkyuIyYU/VxCTK4jJhT9XEJMriMmFP1cQkyuIyYU/VxCTK4jJhT9XEJMriMmFP1cQkyuIyYU/VxCTK4jJhT9XEJMriMmFP1cQkyuIyYU/VxCTK4jJhT9XEJMriMmFP1cQkyuIyYU/VxCTK4jJhT9XEJMriMmFP1cQkyuIyYU/VxCTK4jJhT9XEJMriMmFP1cQkyuIyYU/VxCTK4jJhT9XEJMriMmFP1cQkyuIyYU/VxCTK4jJhT9XEJMriMmFP1cQkyuIyYU/VxCTK4jJhT9XEJMriMmFPw==",
                "bandwidth": 0.07235577156096967
            },
            "theta_weights": "k05VTVBZAQB2AHsnZGVzY3InOiAnPGY4JywgJ2ZvcnRyYW5fb3JkZXInOiBGYWxzZSwgJ3NoYXBlJzogKDIwMCwpLCB9ICAgICAgICAgICAgICAgICAgICAgICAgICAgICAgICAgICAgICAgICAgICAgICAgICAgICAgICAgIAp7FK5H4Xp0P3sUrkfhenQ/exSuR+F6dD97FK5H4Xp0P3sUrkfhenQ/exSuR+F6dD97FK5H4Xp0P3sUrkfhenQ/exSuR+F6dD97FK5H4Xp0P3sUrkfhenQ/exSuR+F6dD97FK5H4Xp0P3sUrkfhenQ/exSuR+F6dD97FK5H4Xp0P3sUrkfhenQ/exSuR+F6dD97FK5H4Xp0P3sUrkfhenQ/exSuR+F6dD97FK5H4Xp0P3sUrkfhenQ/exSuR+F6dD97FK5H4Xp0P3sUrkfhenQ/exSuR+F6dD97FK5H4Xp0P3sUrkfhenQ/exSuR+F6dD97FK5H4Xp0P3sUrkfhenQ/exSuR+F6dD97FK5H4Xp0P3sUrkfhenQ/exSuR+F6dD97FK5H4Xp0P3sUrkfhenQ/exSuR+F6dD97FK5H4Xp0P3sUrkfhenQ/exSuR+F6dD97FK5H4Xp0P3sUrkfhenQ/exSuR+F6dD97FK5H4Xp0P3sUrkfhenQ/exSuR+F6dD97FK5H4Xp0P3sUrkfhenQ/exSuR+F6dD97FK5H4Xp0P3sUrkfhenQ/exSuR+F6dD97FK5H4Xp0P3sUrkfhenQ/exSuR+F6dD97FK5H4Xp0P3sUrkfhenQ/exSuR+F6dD97FK5H4Xp0P3sUrkfhenQ/exSuR+F6dD97FK5H4Xp0P3sUrkfhenQ/exSuR+F6dD97FK5H4Xp0P3sUrkfhenQ/exSuR+F6dD97FK5H4Xp0P3sUrkfhenQ/exSuR+F6dD97FK5H4Xp0P3sUrkfhenQ/exSuR+F6dD97FK5H4Xp0P3sUrkfhenQ/exSuR+F6dD97FK5H4Xp0P3sUrkfhenQ/exSuR+F6dD97FK5H4Xp0P3sUrkfhenQ/exSuR+F6dD97FK5H4Xp0P3sUrkfhenQ/exSuR+F6dD97FK5H4Xp0P3sUrkfhenQ/exSuR+F6dD97FK5H4Xp0P3sUrkfhenQ/exSuR+F6dD97FK5H4Xp0P3sUrkfhenQ/exSuR+F6dD97FK5H4Xp0P3sUrkfhenQ/exSuR+F6dD97FK5H4Xp0P3sUrkfhenQ/exSuR+F6dD97FK5H4Xp0P3sUrkfhenQ/exSuR+F6dD97FK5H4Xp0P3sUrkfhenQ/exSuR+F6dD97FK5H4Xp0P3sUrkfhenQ/exSuR+F6dD97FK5H4Xp0P3sUrkfhenQ/exSuR+F6dD97FK5H4Xp0P3sUrkfhenQ/exSuR+F6dD97FK5H4Xp0P3sUrkfhenQ/exSuR+F6dD97FK5H4Xp0P3sUrkfhenQ/exSuR+F6dD97FK5H4Xp0P3sUrkfhenQ/exSuR+F6dD97FK5H4Xp0P3sUrkfhenQ/exSuR+F6dD97FK5H4Xp0P3sUrkfhenQ/exSuR+F6dD97FK5H4Xp0P3sUrkfhenQ/exSuR+F6dD97FK5H4Xp0P3sUrkfhenQ/exSuR+F6dD97FK5H4Xp0P3sUrkfhenQ/exSuR+F6dD97FK5H4Xp0P3sUrkfhenQ/exSuR+F6dD97FK5H4Xp0P3sUrkfhenQ/exSuR+F6dD97FK5H4Xp0P3sUrkfhenQ/exSuR+F6dD97FK5H4Xp0P3sUrkfhenQ/exSuR+F6dD97FK5H4Xp0P3sUrkfhenQ/exSuR+F6dD97FK5H4Xp0P3sUrkfhenQ/exSuR+F6dD97FK5H4Xp0P3sUrkfhenQ/exSuR+F6dD97FK5H4Xp0P3sUrkfhenQ/exSuR+F6dD97FK5H4Xp0P3sUrkfhenQ/exSuR+F6dD97FK5H4Xp0P3sUrkfhenQ/exSuR+F6dD97FK5H4Xp0P3sUrkfhenQ/exSuR+F6dD97FK5H4Xp0P3sUrkfhenQ/exSuR+F6dD97FK5H4Xp0P3sUrkfhenQ/exSuR+F6dD97FK5H4Xp0P3sUrkfhenQ/exSuR+F6dD97FK5H4Xp0P3sUrkfhenQ/exSuR+F6dD97FK5H4Xp0P3sUrkfhenQ/exSuR+F6dD97FK5H4Xp0P3sUrkfhenQ/exSuR+F6dD97FK5H4Xp0P3sUrkfhenQ/exSuR+F6dD97FK5H4Xp0P3sUrkfhenQ/exSuR+F6dD97FK5H4Xp0P3sUrkfhenQ/",
            "phi_kde": {
                "data": "k05VTVBZAQB2AHsnZGVzY3InOiAnPGY4JywgJ2ZvcnRyYW5fb3JkZXInOiBGYWxzZSwgJ3NoYXBlJzogKDEwNiwpLCB9ICAgICAgICAgICAgICAgICAgICAgICAgICAgICAgICAgICAgICAgICAgICAgICAgICAgICAgICAgIAqW8ujyNFXNPyrV33kjacs/9rGsRdngjL+K993nDmXNP53/AT06M84/GnVfN7qrzj/TJUXHCqfVP3Fec/5yW6y/UOORrJ8IuT/6sViBlTKzPzKiwaXi8sk/671u7IH91T8eCanju8PVP96WLPXRWc6/rq7ufrM/1j8N6btujBfWP9TI7a8PfdY/s+Std2W/vj+9aN0fkgSqP6ER+NPr4cc/ynHC+HxE1T+OdUcjKPbAP8BuXjIOMdE/1a6ovi3y0T8/m/iQTFLSP90fX7l59cY/60Lx+5Pvuj8E/lI8RQXSPwDLO45gANU/mtZl78pIwT/dbo/aMiy1PwevjInWQcw/DuDONfFPrz/rlAUE4Ay+P63SsCwvMbg/Vt9DwMZmvT+xcAw43bDRP+EgZezL79E/YMZN17kZpb+IB3LwKKbVP4tT2/C6as8/9GoRymxjwz8SChxg/bvTP1CdNovI6cU/UAdHw2aRlj/OdjLXilTOPzCnedwgcs4/LEIarG54yj/3uBtQwuPEP3TKxCCKJ9A/2IDTSNGP0T8tkrlSvL7Cv4tZQsysCtI/M+pziJ3Ylj9XkWTe2PO4P8lHQtU4RLc/b7RCD+GTzz/FRKuEs0fUP5pg7mz2384/93M9cKF0sT+NUGoK+gq7P+Qd8Er6VtY/25+PkeOWrT82EZEvRL/MP2NXroAJsYM/lCj+7mpZwj9nfYoKs4fQP8q8qGtBBZm/vVQEhnPT0L/PrFSUqGfSP8rq2+ab+ao/snClTFAexL+1Wbgk/vDNP9gWDQDftau/19Sr0+SB0z+0biw+Rg/UPwZX36HbyNI/9PxRUbo3zz+i+rC0b6rRP+vdrf4oF6W/kluKnozh0z+ZtFRHFRjVP29/CWeurpM/I1Q1Ipe5lr94zKfXmI3UP4HMgxf2js0/8gvUJBotxD8hSimt1+63P8F9s7SC2NQ/ot0ZICt5kr/+9Gq6gF2/P70MZrxK7sw/8kQSN8Tp0j/m01u8DIzQP+RmeRVexLK/+ok4VognuD8UUa1b9lrJP8smOlIklcE/UHtzScAgwT/6T8LbzP/HP1eWvwxG29M/rJPN+qfvwr/xI5/0t9LFP53gEQwBd8Q/yKFDHtRCw79taMV5c0exPw==",
                "weights": "k05VTVBZAQB2AHsnZGVzY3InOiAnPGY4JywgJ2ZvcnRyYW5fb3JkZXInOiBGYWxzZSwgJ3NoYXBlJzogKDEwNiwpLCB9ICAgICAgICAgICAgICAgICAgICAgICAgICAgICAgICAgICAgICAgICAgICAgICAgICAgICAgICAgIArBeCv7HFKDP8F4K/scUoM/wXgr+xxSgz/BeCv7HFKDP8F4K/scUoM/wXgr+xxSgz/BeCv7HFKDP8F4K/scUoM/wXgr+xxSgz/BeCv7HFKDP8F4K/scUoM/wXgr+xxSgz/BeCv7HFKDP8F4K/scUoM/wXgr+xxSgz/BeCv7HFKDP8F4K/scUoM/wXgr+xxSgz/BeCv7HFKDP8F4K/scUoM/wXgr+xxSgz/BeCv7HFKDP8F4K/scUoM/wXgr+xxSgz/BeCv7HFKDP8F4K/scUoM/wXgr+xxSgz/BeCv7HFKDP8F4K/scUoM/wXgr+xxSgz/BeCv7HFKDP8F4K/scUoM/wXgr+xxSgz/BeCv7HFKDP8F4K/scUoM/wXgr+xxSgz/BeCv7HFKDP8F4K/scUoM/wXgr+xxSgz/BeCv7HFKDP8F4K/scUoM/wXgr+xxSgz/BeCv7HFKDP8F4K/scUoM/wXgr+xxSgz/BeCv7HFKDP8F4K/scUoM/wXgr+xxSgz/BeCv7HFKDP8F4K/scUoM/wXgr+xxSgz/BeCv7HFKDP8F4K/scUoM/wXgr+xxSgz/BeCv7HFKDP8F4K/scUoM/wXgr+xxSgz/BeCv7HFKDP8F4K/scUoM/wXgr+xxSgz/BeCv7HFKDP8F4K/scUoM/wXgr+xxSgz/BeCv7HFKDP8F4K/scUoM/wXgr+xxSgz/BeCv7HFKDP8F4K/scUoM/wXgr+xxSgz/BeCv7HFKDP8F4K/scUoM/wXgr+xxSgz/BeCv7HFKDP8F4K/scUoM/wXgr+xxSgz/BeCv7HFKDP8F4K/scUoM/wXgr+xxSgz/BeCv7HFKDP8F4K/scUoM/wXgr+xxSgz/BeCv7HFKDP8F4K/scUoM/wXgr+xxSgz/BeCv7HFKDP8F4K/scUoM/wXgr+xxSgz/BeCv7HFKDP8F4K/scUoM/wXgr+xxSgz/BeCv7HFKDP8F4K/scUoM/wXgr+xxSgz/BeCv7HFKDP8F4K/scUoM/wXgr+xxSgz/BeCv7HFKDP8F4K/scUoM/wXgr+xxSgz/BeCv7HFKDP8F4K/scUoM/wXgr+xxSgz/BeCv7HFKDP8F4K/scUoM/wXgr+xxSgz/BeCv7HFKDPw==",
                "bandwidth": 0.05899382170224719
            },
            "phi_weights": "k05VTVBZAQB2AHsnZGVzY3InOiAnPGY4JywgJ2ZvcnRyYW5fb3JkZXInOiBGYWxzZSwgJ3NoYXBlJzogKDIwMCwpLCB9ICAgICAgICAgICAgICAgICAgICAgICAgICAgICAgICAgICAgICAgICAgICAgICAgICAgICAgICAgIAp7FK5H4Xp0P3sUrkfhenQ/exSuR+F6dD97FK5H4Xp0P3sUrkfhenQ/exSuR+F6dD97FK5H4Xp0P3sUrkfhenQ/exSuR+F6dD97FK5H4Xp0P3sUrkfhenQ/exSuR+F6dD97FK5H4Xp0P3sUrkfhenQ/exSuR+F6dD97FK5H4Xp0P3sUrkfhenQ/exSuR+F6dD97FK5H4Xp0P3sUrkfhenQ/exSuR+F6dD97FK5H4Xp0P3sUrkfhenQ/exSuR+F6dD97FK5H4Xp0P3sUrkfhenQ/exSuR+F6dD97FK5H4Xp0P3sUrkfhenQ/exSuR+F6dD97FK5H4Xp0P3sUrkfhenQ/exSuR+F6dD97FK5H4Xp0P3sUrkfhenQ/exSuR+F6dD97FK5H4Xp0P3sUrkfhenQ/exSuR+F6dD97FK5H4Xp0P3sUrkfhenQ/exSuR+F6dD97FK5H4Xp0P3sUrkfhenQ/exSuR+F6dD97FK5H4Xp0P3sUrkfhenQ/exSuR+F6dD97FK5H4Xp0P3sUrkfhenQ/exSuR+F6dD97FK5H4Xp0P3sUrkfhenQ/exSuR+F6dD97FK5H4Xp0P3sUrkfhenQ/exSuR+F6dD97FK5H4Xp0P3sUrkfhenQ/exSuR+F6dD97FK5H4Xp0P3sUrkfhenQ/exSuR+F6dD97FK5H4Xp0P3sUrkfhenQ/exSuR+F6dD97FK5H4Xp0P3sUrkfhenQ/exSuR+F6dD97FK5H4Xp0P3sUrkfhenQ/exSuR+F6dD97FK5H4Xp0P3sUrkfhenQ/exSuR+F6dD97FK5H4Xp0P3sUrkfhenQ/exSuR+F6dD97FK5H4Xp0P3sUrkfhenQ/exSuR+F6dD97FK5H4Xp0P3sUrkfhenQ/exSuR+F6dD97FK5H4Xp0P3sUrkfhenQ/exSuR+F6dD97FK5H4Xp0P3sUrkfhenQ/exSuR+F6dD97FK5H4Xp0P3sUrkfhenQ/exSuR+F6dD97FK5H4Xp0P3sUrkfhenQ/exSuR+F6dD97FK5H4Xp0P3sUrkfhenQ/exSuR+F6dD97FK5H4Xp0P3sUrkfhenQ/exSuR+F6dD97FK5H4Xp0P3sUrkfhenQ/exSuR+F6dD97FK5H4Xp0P3sUrkfhenQ/exSuR+F6dD97FK5H4Xp0P3sUrkfhenQ/exSuR+F6dD97FK5H4Xp0P3sUrkfhenQ/exSuR+F6dD97FK5H4Xp0P3sUrkfhenQ/exSuR+F6dD97FK5H4Xp0P3sUrkfhenQ/exSuR+F6dD97FK5H4Xp0P3sUrkfhenQ/exSuR+F6dD97FK5H4Xp0P3sUrkfhenQ/exSuR+F6dD97FK5H4Xp0P3sUrkfhenQ/exSuR+F6dD97FK5H4Xp0P3sUrkfhenQ/exSuR+F6dD97FK5H4Xp0P3sUrkfhenQ/exSuR+F6dD97FK5H4Xp0P3sUrkfhenQ/exSuR+F6dD97FK5H4Xp0P3sUrkfhenQ/exSuR+F6dD97FK5H4Xp0P3sUrkfhenQ/exSuR+F6dD97FK5H4Xp0P3sUrkfhenQ/exSuR+F6dD97FK5H4Xp0P3sUrkfhenQ/exSuR+F6dD97FK5H4Xp0P3sUrkfhenQ/exSuR+F6dD97FK5H4Xp0P3sUrkfhenQ/exSuR+F6dD97FK5H4Xp0P3sUrkfhenQ/exSuR+F6dD97FK5H4Xp0P3sUrkfhenQ/exSuR+F6dD97FK5H4Xp0P3sUrkfhenQ/exSuR+F6dD97FK5H4Xp0P3sUrkfhenQ/exSuR+F6dD97FK5H4Xp0P3sUrkfhenQ/exSuR+F6dD97FK5H4Xp0P3sUrkfhenQ/exSuR+F6dD97FK5H4Xp0P3sUrkfhenQ/exSuR+F6dD97FK5H4Xp0P3sUrkfhenQ/exSuR+F6dD97FK5H4Xp0P3sUrkfhenQ/exSuR+F6dD97FK5H4Xp0P3sUrkfhenQ/exSuR+F6dD97FK5H4Xp0P3sUrkfhenQ/exSuR+F6dD97FK5H4Xp0P3sUrkfhenQ/exSuR+F6dD97FK5H4Xp0P3sUrkfhenQ/exSuR+F6dD97FK5H4Xp0P3sUrkfhenQ/exSuR+F6dD97FK5H4Xp0P3sUrkfhenQ/"
        },
        "MMSE": {
            "theta_kde": {
                "data": "k05VTVBZAQB2AHsnZGVzY3InOiAnPGY4JywgJ2ZvcnRyYW5fb3JkZXInOiBGYWxzZSwgJ3NoYXBlJzogKDgzLCksIH0gICAgICAgICAgICAgICAgICAgICAgICAgICAgICAgICAgICAgICAgICAgICAgICAgICAgICAgICAgIAqCom7qExg4QJuNF2Sz3jRAdL2Npsz/NEBuS3LMIY02QDbaZgeP4zZAMuCbppBLN0Bs6avSIdk2QIOGOFqDazZA+KTz2soZNUAoTfTUn7w1QC5VsLJ0IDlA36OgP22pOECOwx9kW641QObk15sYuDVAuEdJnRapNUBObMhuFDc1QJ6XgEPzRDVAqj0jyEoYNkAQI51X9xU2QPLVvncMlzVAat8xdndqNkDEKaGRbz01QJpcM2FdgzZA+TDmg5dGNkD4XJJ5cBI2QFijG8rsojZA/tsz/zvfNkADrwJCuWc2QML5FPwH9DZA70IjvwnONUCcXG1hVKw2QCW71zKrYjVAFm3OU1kzNkBR7Uj2VB82QALvmWW0nDdAaOwSEx+fOEC6rhdIBAM5QIovJ5qyIjZAYRR65dXjNUDfCAaCN+o1QJ+IwebATzdAno9iHaBUNkB1WsUh1ao2QAlrTsC54DVA+Ccq5Lf4NUDxjAktgPM2QEVB7USfGDZAaa337u3nNUBMFOOu1aI4QBxEh+j7izdATkyJjVXVOEA+BMNJiZI1QAGNCsFxiTZAd0mb7J//N0CEkAE972k1QCC7viiYzTZACnbVkYgAN0CUyda3ams2QMS6epYzWjVA0h4p80OBNkB05P9wLUY2QDy7CcEnNzdAlBVZO+YKOUCqrpBWq7c1QNCC7fpRHDZAppPzPoVDNkBAkcycbWc3QMcC0IY88jVAMI0nB+6FNkBSQpn/l9E1QDeWZR/1hzZAJV+zwktvOED6B+ETJvI1QJuB7fxEQjVASO7THEQgNkCUxiYcgWQ1QOQs2fo6+zVAoQ5LXBlhOEBPu84YS244QH6c+UaxizZA2MKTPwj6N0BzGv/DJgs5QPySShmNjzVA",
                "weights": "k05VTVBZAQB2AHsnZGVzY3InOiAnPGY4JywgJ2ZvcnRyYW5fb3JkZXInOiBGYWxzZSwgJ3NoYXBlJzogKDgzLCksIH0gICAgICAgICAgICAgICAgICAgICAgICAgICAgICAgICAgICAgICAgICAgICAgICAgICAgICAgICAgIAqq82sPuayIP6rzaw+5rIg/qvNrD7msiD+q82sPuayIP6rzaw+5rIg/qvNrD7msiD+q82sPuayIP6rzaw+5rIg/qvNrD7msiD+q82sPuayIP6rzaw+5rIg/qvNrD7msiD+q82sPuayIP6rzaw+5rIg/qvNrD7msiD+q82sPuayIP6rzaw+5rIg/qvNrD7msiD+q82sPuayIP6rzaw+5rIg/qvNrD7msiD+q82sPuayIP6rzaw+5rIg/qvNrD7msiD+q82sPuayIP6rzaw+5rIg/qvNrD7msiD+q82sPuayIP6rzaw+5rIg/qvNrD7msiD+q82sPuayIP6rzaw+5rIg/qvNrD7msiD+q82sPuayIP6rzaw+5rIg/qvNrD7msiD+q82sPuayIP6rzaw+5rIg/qvNrD7msiD+q82sPuayIP6rzaw+5rIg/qvNrD7msiD+q82sPuayIP6rzaw+5rIg/qvNrD7msiD+q82sPuayIP6rzaw+5rIg/qvNrD7msiD+q82sPuayIP6rzaw+5rIg/qvNrD7msiD+q82sPuayIP6rzaw+5rIg/qvNrD7msiD+q82sPuayIP6rzaw+5rIg/qvNrD7msiD+q82sPuayIP6rzaw+5rIg/qvNrD7msiD+q82sPuayIP6rzaw+5rIg/qvNrD7msiD+q82sPuayIP6rzaw+5rIg/qvNrD7msiD+q82sPuayIP6rzaw+5rIg/qvNrD7msiD+q82sPuayIP6rzaw+5rIg/qvNrD7msiD+q82sPuayIP6rzaw+5rIg/qvNrD7msiD+q82sPuayIP6rzaw+5rIg/qvNrD7msiD+q82sPuayIP6rzaw+5rIg/qvNrD7msiD+q82sPuayIP6rzaw+5rIg/",
                "bandwidth": 0.47543440848603136
            },
            "theta_weights": "k05VTVBZAQB2AHsnZGVzY3InOiAnPGY4JywgJ2ZvcnRyYW5fb3JkZXInOiBGYWxzZSwgJ3NoYXBlJzogKDIwMCwpLCB9ICAgICAgICAgICAgICAgICAgICAgICAgICAgICAgICAgICAgICAgICAgICAgICAgICAgICAgICAgIAp7FK5H4Xp0P3sUrkfhenQ/exSuR+F6dD97FK5H4Xp0P3sUrkfhenQ/exSuR+F6dD97FK5H4Xp0P3sUrkfhenQ/exSuR+F6dD97FK5H4Xp0P3sUrkfhenQ/exSuR+F6dD97FK5H4Xp0P3sUrkfhenQ/exSuR+F6dD97FK5H4Xp0P3sUrkfhenQ/exSuR+F6dD97FK5H4Xp0P3sUrkfhenQ/exSuR+F6dD97FK5H4Xp0P3sUrkfhenQ/exSuR+F6dD97FK5H4Xp0P3sUrkfhenQ/exSuR+F6dD97FK5H4Xp0P3sUrkfhenQ/exSuR+F6dD97FK5H4Xp0P3sUrkfhenQ/exSuR+F6dD97FK5H4Xp0P3sUrkfhenQ/exSuR+F6dD97FK5H4Xp0P3sUrkfhenQ/exSuR+F6dD97FK5H4Xp0P3sUrkfhenQ/exSuR+F6dD97FK5H4Xp0P3sUrkfhenQ/exSuR+F6dD97FK5H4Xp0P3sUrkfhenQ/exSuR+F6dD97FK5H4Xp0P3sUrkfhenQ/exSuR+F6dD97FK5H4Xp0P3sUrkfhenQ/exSuR+F6dD97FK5H4Xp0P3sUrkfhenQ/exSuR+F6dD97FK5H4Xp0P3sUrkfhenQ/exSuR+F6dD97FK5H4Xp0P3sUrkfhenQ/exSuR+F6dD97FK5H4Xp0P3sUrkfhenQ/exSuR+F6dD97FK5H4Xp0P3sUrkfhenQ/exSuR+F6dD97FK5H4Xp0P3sUrkfhenQ/exSuR+F6dD97FK5H4Xp0P3sUrkfhenQ/exSuR+F6dD97FK5H4Xp0P3sUrkfhenQ/exSuR+F6dD97FK5H4Xp0P3sUrkfhenQ/exSuR+F6dD97FK5H4Xp0P3sUrkfhenQ/exSuR+F6dD97FK5H4Xp0P3sUrkfhenQ/exSuR+F6dD97FK5H4Xp0P3sUrkfhenQ/exSuR+F6dD97FK5H4Xp0P3sUrkfhenQ/exSuR+F6dD97FK5H4Xp0P3sUrkfhenQ/exSuR+F6dD97FK5H4Xp0P3sUrkfhenQ/exSuR+F6dD97FK5H4Xp0P3sUrkfhenQ/exSuR+F6dD97FK5H4Xp0P3sUrkfhenQ/exSuR+F6dD97FK5H4Xp0P3sUrkfhenQ/exSuR+F6dD97FK5H4Xp0P3sUrkfhenQ/exSuR+F6dD97FK5H4Xp0P3sUrkfhenQ/exSuR+F6dD97FK5H4Xp0P3sUrkfhenQ/exSuR+F6dD97FK5H4Xp0P3sUrkfhenQ/exSuR+F6dD97FK5H4Xp0P3sUrkfhenQ/exSuR+F6dD97FK5H4Xp0P3sUrkfhenQ/exSuR+F6dD97FK5H4Xp0P3sUrkfhenQ/exSuR+F6dD97FK5H4Xp0P3sUrkfhenQ/exSuR+F6dD97FK5H4Xp0P3sUrkfhenQ/exSuR+F6dD97FK5H4Xp0P3sUrkfhenQ/exSuR+F6dD97FK5H4Xp0P3sUrkfhenQ/exSuR+F6dD97FK5H4Xp0P3sUrkfhenQ/exSuR+F6dD97FK5H4Xp0P3sUrkfhenQ/exSuR+F6dD97FK5H4Xp0P3sUrkfhenQ/exSuR+F6dD97FK5H4Xp0P3sUrkfhenQ/exSuR+F6dD97FK5H4Xp0P3sUrkfhenQ/exSuR+F6dD97FK5H4Xp0P3sUrkfhenQ/exSuR+F6dD97FK5H4Xp0P3sUrkfhenQ/exSuR+F6dD97FK5H4Xp0P3sUrkfhenQ/exSuR+F6dD97FK5H4Xp0P3sUrkfhenQ/exSuR+F6dD97FK5H4Xp0P3sUrkfhenQ/exSuR+F6dD97FK5H4Xp0P3sUrkfhenQ/exSuR+F6dD97FK5H4Xp0P3sUrkfhenQ/exSuR+F6dD97FK5H4Xp0P3sUrkfhenQ/exSuR+F6dD97FK5H4Xp0P3sUrkfhenQ/exSuR+F6dD97FK5H4Xp0P3sUrkfhenQ/exSuR+F6dD97FK5H4Xp0P3sUrkfhenQ/exSuR+F6dD97FK5H4Xp0P3sUrkfhenQ/exSuR+F6dD97FK5H4Xp0P3sUrkfhenQ/exSuR+F6dD97FK5H4Xp0P3sUrkfhenQ/exSuR+F6dD97FK5H4Xp0P3sUrkfhenQ/",
            "phi_kde": {
                "data": "k05VTVBZAQB2AHsnZGVzY3InOiAnPGY4JywgJ2ZvcnRyYW5fb3JkZXInOiBGYWxzZSwgJ3NoYXBlJzogKDExNywpLCB9ICAgICAgICAgICAgICAgICAgICAgICAgICAgICAgICAgICAgICAgICAgICAgICAgICAgICAgICAgIAqKIHMVeLI7QMjBX8O2YTtAXpVRxqpRPEAbpk4LSvc7QL/3Aqg8rjxA7ZdaX67XO0DTNXUWc7k8QAc4ubYupjtA3avsDnQLPEB78Z2u4SU8QKSO3fWrADxAURcnzrVSOkDID9UY7fE6QBlTeqTwLDtAmCwlI9X3OkClhWucOQ48QBrUx5vW9DxAYFxSEBpxO0BtkU4fHG48QOpsEa6A3zpAOOVz9BUcO0DpMRyE84Y5QBMgq0tH/DtAlV+gzMQPPEB9/R//QYQ7QKwiA9CRkTtAzIBKzjeIO0AQ6KkFEco7QIEoPAmTLjtAoXdhoxc/OUD7OCQWR+Q7QB3mcLRHFDxAGOKNOVIIO0ASm2QG0+E7QI1NaqAKpTxAluwF2VI0O0BCEShTnq08QAdoFLvl6jtAmB82w/Z2PEAJT7p8iQY7QFDl0jRmVzlARgG2pQG0PUDhy5mQIK87QADK3x68fDtA7WbllRDYO0CQ0FHNiGY7QOSAj6mUnzxAThVNTdTDO0D3rlAp3ko7QEPyzx5+yjxAajPm4aasPEBAWK4tMdg7QI6vLsvUEj1Alf2E3OgUPEBjcAWICQs7QDT8HpY+eDtAwUErO5iMO0A0SeQgbWM8QIUhNR1UdjxAQHubjFILPUA6KYfkhz09QCKIkIUSKDxAHRePvJGJO0DIEynUyHA7QBoUeN5zbztAxynBdB5vPEDlXCaIy6Y7QOHtyNAvxTtAxq2FwT0iPEC1KNMxIgY7QCDxTKddeTtAPsGHtsuePECXqrBpueA7QOj1velY5jxAyd07uwCiOkDIutams2o6QBNiLDE5yTtAnrx3AwljPECL+b9SI/g6QNv6JHzA0jpAJdy9hYL5OkDYMWwnoP07QFsC/njDUztAwD7D4H61O0CKqetTf+47QDdoOX+bMDxATNb4d/4pPECjDJeEIrg6QIHVsvC/oDtAaHloh/euO0BJE954Myw8QFEBRbMZmDtA8yHiZA7jO0DE1GLu4XA8QND84Phu4zpAGuxZOf0rO0BFp1OV8vY8QIwfNN43eDxAvQuUqt/QPEBe940LphU8QMndisY+8DpAcpAwTDkQPEChCXxWZ2g7QJdMUn2kjjxAUV2GcJgeO0CLelQmpAQ7QAJwKcQRqTpA+zvZMqreO0DNHhaWSF07QGt/0QgejDtAoYoh0OJ2PEA+dvpgJYg7QL/KoTKFEjxAkf93PXWmPEBkSzqYZ9g6QHDNysmbIzxAfV7HTPUyPEA=",
                "weights": "k05VTVBZAQB2AHsnZGVzY3InOiAnPGY4JywgJ2ZvcnRyYW5fb3JkZXInOiBGYWxzZSwgJ3NoYXBlJzogKDExNywpLCB9ICAgICAgICAgICAgICAgICAgICAgICAgICAgICAgICAgICAgICAgICAgICAgICAgICAgICAgICAgIAoSGIERGIGBPxIYgREYgYE/EhiBERiBgT8SGIERGIGBPxIYgREYgYE/EhiBERiBgT8SGIERGIGBPxIYgREYgYE/EhiBERiBgT8SGIERGIGBPxIYgREYgYE/EhiBERiBgT8SGIERGIGBPxIYgREYgYE/EhiBERiBgT8SGIERGIGBPxIYgREYgYE/EhiBERiBgT8SGIERGIGBPxIYgREYgYE/EhiBERiBgT8SGIERGIGBPxIYgREYgYE/EhiBERiBgT8SGIERGIGBPxIYgREYgYE/EhiBERiBgT8SGIERGIGBPxIYgREYgYE/EhiBERiBgT8SGIERGIGBPxIYgREYgYE/EhiBERiBgT8SGIERGIGBPxIYgREYgYE/EhiBERiBgT8SGIERGIGBPxIYgREYgYE/EhiBERiBgT8SGIERGIGBPxIYgREYgYE/EhiBERiBgT8SGIERGIGBPxIYgREYgYE/EhiBERiBgT8SGIERGIGBPxIYgREYgYE/EhiBERiBgT8SGIERGIGBPxIYgREYgYE/EhiBERiBgT8SGIERGIGBPxIYgREYgYE/EhiBERiBgT8SGIERGIGBPxIYgREYgYE/EhiBERiBgT8SGIERGIGBPxIYgREYgYE/EhiBERiBgT8SGIERGIGBPxIYgREYgYE/EhiBERiBgT8SGIERGIGBPxIYgREYgYE/EhiBERiBgT8SGIERGIGBPxIYgREYgYE/EhiBERiBgT8SGIERGIGBPxIYgREYgYE/EhiBERiBgT8SGIERGIGBPxIYgREYgYE/EhiBERiBgT8SGIERGIGBPxIYgREYgYE/EhiBERiBgT8SGIERGIGBPxIYgREYgYE/EhiBERiBgT8SGIERGIGBPxIYgREYgYE/EhiBERiBgT8SGIERGIGBPxIYgREYgYE/EhiBERiBgT8SGIERGIGBPxIYgREYgYE/EhiBERiBgT8SGIERGIGBPxIYgREYgYE/EhiBERiBgT8SGIERGIGBPxIYgREYgYE/EhiBERiBgT8SGIERGIGBPxIYgREYgYE/EhiBERiBgT8SGIERGIGBPxIYgREYgYE/EhiBERiBgT8SGIERGIGBPxIYgREYgYE/EhiBERiBgT8SGIERGIGBPxIYgREYgYE/EhiBERiBgT8SGIERGIGBPxIYgREYgYE/EhiBERiBgT8SGIERGIGBPxIYgREYgYE/EhiBERiBgT8SGIERGIGBPxIYgREYgYE/EhiBERiBgT8=",
                "bandwidth": 0.3105160152766095
            },
            "phi_weights": "k05VTVBZAQB2AHsnZGVzY3InOiAnPGY4JywgJ2ZvcnRyYW5fb3JkZXInOiBGYWxzZSwgJ3NoYXBlJzogKDIwMCwpLCB9ICAgICAgICAgICAgICAgICAgICAgICAgICAgICAgICAgICAgICAgICAgICAgICAgICAgICAgICAgIAp7FK5H4Xp0P3sUrkfhenQ/exSuR+F6dD97FK5H4Xp0P3sUrkfhenQ/exSuR+F6dD97FK5H4Xp0P3sUrkfhenQ/exSuR+F6dD97FK5H4Xp0P3sUrkfhenQ/exSuR+F6dD97FK5H4Xp0P3sUrkfhenQ/exSuR+F6dD97FK5H4Xp0P3sUrkfhenQ/exSuR+F6dD97FK5H4Xp0P3sUrkfhenQ/exSuR+F6dD97FK5H4Xp0P3sUrkfhenQ/exSuR+F6dD97FK5H4Xp0P3sUrkfhenQ/exSuR+F6dD97FK5H4Xp0P3sUrkfhenQ/exSuR+F6dD97FK5H4Xp0P3sUrkfhenQ/exSuR+F6dD97FK5H4Xp0P3sUrkfhenQ/exSuR+F6dD97FK5H4Xp0P3sUrkfhenQ/exSuR+F6dD97FK5H4Xp0P3sUrkfhenQ/exSuR+F6dD97FK5H4Xp0P3sUrkfhenQ/exSuR+F6dD97FK5H4Xp0P3sUrkfhenQ/exSuR+F6dD97FK5H4Xp0P3sUrkfhenQ/exSuR+F6dD97FK5H4Xp0P3sUrkfhenQ/exSuR+F6dD97FK5H4Xp0P3sUrkfhenQ/exSuR+F6dD97FK5H4Xp0P3sUrkfhenQ/exSuR+F6dD97FK5H4Xp0P3sUrkfhenQ/exSuR+F6dD97FK5H4Xp0P3sUrkfhenQ/exSuR+F6dD97FK5H4Xp0P3sUrkfhenQ/exSuR+F6dD97FK5H4Xp0P3sUrkfhenQ/exSuR+F6dD97FK5H4Xp0P3sUrkfhenQ/exSuR+F6dD97FK5H4Xp0P3sUrkfhenQ/exSuR+F6dD97FK5H4Xp0P3sUrkfhenQ/exSuR+F6dD97FK5H4Xp0P3sUrkfhenQ/exSuR+F6dD97FK5H4Xp0P3sUrkfhenQ/exSuR+F6dD97FK5H4Xp0P3sUrkfhenQ/exSuR+F6dD97FK5H4Xp0P3sUrkfhenQ/exSuR+F6dD97FK5H4Xp0P3sUrkfhenQ/exSuR+F6dD97FK5H4Xp0P3sUrkfhenQ/exSuR+F6dD97FK5H4Xp0P3sUrkfhenQ/exSuR+F6dD97FK5H4Xp0P3sUrkfhenQ/exSuR+F6dD97FK5H4Xp0P3sUrkfhenQ/exSuR+F6dD97FK5H4Xp0P3sUrkfhenQ/exSuR+F6dD97FK5H4Xp0P3sUrkfhenQ/exSuR+F6dD97FK5H4Xp0P3sUrkfhenQ/exSuR+F6dD97FK5H4Xp0P3sUrkfhenQ/exSuR+F6dD97FK5H4Xp0P3sUrkfhenQ/exSuR+F6dD97FK5H4Xp0P3sUrkfhenQ/exSuR+F6dD97FK5H4Xp0P3sUrkfhenQ/exSuR+F6dD97FK5H4Xp0P3sUrkfhenQ/exSuR+F6dD97FK5H4Xp0P3sUrkfhenQ/exSuR+F6dD97FK5H4Xp0P3sUrkfhenQ/exSuR+F6dD97FK5H4Xp0P3sUrkfhenQ/exSuR+F6dD97FK5H4Xp0P3sUrkfhenQ/exSuR+F6dD97FK5H4Xp0P3sUrkfhenQ/exSuR+F6dD97FK5H4Xp0P3sUrkfhenQ/exSuR+F6dD97FK5H4Xp0P3sUrkfhenQ/exSuR+F6dD97FK5H4Xp0P3sUrkfhenQ/exSuR+F6dD97FK5H4Xp0P3sUrkfhenQ/exSuR+F6dD97FK5H4Xp0P3sUrkfhenQ/exSuR+F6dD97FK5H4Xp0P3sUrkfhenQ/exSuR+F6dD97FK5H4Xp0P3sUrkfhenQ/exSuR+F6dD97FK5H4Xp0P3sUrkfhenQ/exSuR+F6dD97FK5H4Xp0P3sUrkfhenQ/exSuR+F6dD97FK5H4Xp0P3sUrkfhenQ/exSuR+F6dD97FK5H4Xp0P3sUrkfhenQ/exSuR+F6dD97FK5H4Xp0P3sUrkfhenQ/exSuR+F6dD97FK5H4Xp0P3sUrkfhenQ/exSuR+F6dD97FK5H4Xp0P3sUrkfhenQ/exSuR+F6dD97FK5H4Xp0P3sUrkfhenQ/exSuR+F6dD97FK5H4Xp0P3sUrkfhenQ/exSuR+F6dD97FK5H4Xp0P3sUrkfhenQ/exSuR+F6dD97FK5H4Xp0P3sUrkfhenQ/"
        },
        "P-Tau": {
            "theta_kde": {
                "data": "k05VTVBZAQB2AHsnZGVzY3InOiAnPGY4JywgJ2ZvcnRyYW5fb3JkZXInOiBGYWxzZSwgJ3NoYXBlJzogKDEwMiwpLCB9ICAgICAgICAgICAgICAgICAgICAgICAgICAgICAgICAgICAgICAgICAgICAgICAgICAgICAgICAgIAodr1T7topEwG2ELNsoZ1LA/NgucvV8Q8C4fttd9TpPwA7hd3NBTEPAuZQRIG5/VMDeXi0zLtFKwOSDLSi9CUzAVEPjDejfS8BGvRi5//tCwCw7Wo93NlXALyQv/TEoRMAqYUS9xBVEwAGGXhbUjkjALvNe+XXxSMDHpfGmna9BwGva60SFbEnAP+RV/zMLQ8DT2aKFJyRCwCZJYkD5B0XAeJCdYKz3ScBaNXqZMpJBwMKZI4iWKkbAuoGJ21SnTMAvNCO7aGNPwCx7MS+oEkTAQlxG0CeSRMBCcAh3OpVOwCrqQP4tPkXAum6kYFyBTsAvMmycMclJwHTM+2G0m0LANYWoDB6eRsDT3hU44mVHwCrnjXjj3UrAfBKWVt3wQ8DqM3avA/hRwHSR/+1tHknAisvZ2nnzSMDR5Monll5FwIYVnn/zekXAzTR/MSqNRMArOTGLsoJFwAA3ADktAknAehQz1JtdRsAjVlGdST1FwDa7T6mRMUbArHNMXB3QRcABF1bHHKJFwL0V+4aNMkLAAg3kp+40SMCrwwwTWxpRwI78hDBvTUzAVpkHtCLrS8BY8ph2lbFJwKlfc8svCEXA6m03OeHTT8CGRMvX2FhSwPSa3HUwvUHAl+WTu9KkRcAsGiY3jM5MwDHqPe0+qk3AjGlzr2exRcAi/up6dBRJwD0eQ2t3lUXAAgSfojM0R8CCzAdrGm9FwOqFPmk0hUTAEFghqGk9RcB9gKjMxCtIwAJoeHwrz0TA22h0JmEfQ8A6LxovwdlLwHfX21Y1LkvAIuh17HErRsBeBxir6HVHwKVtcFlDoUjAnClLdJgnQsDzdo7J36RDwA/dHBNE0EbA0vTob6uqU8BMhVVNFvBEwE3lXOoQ8EbAd2/XuSEYSsAOMzbhQ3dCwD8lU6dREkLAet/L9bj9UcDLU8qf6j9EwEdMA/evYETAQLXkgT6YScA1jO+eGSdJwHOiIPfCg0XAUDq/sLU1RMAReZpom1lSwICmqJvn30jAQR5jW/0rRsB3SPQmLYxPwLbzrsEItEXABIoCUcnVR8BgljqvrehEwJj1Ckq60lDAqROprX6XQ8A=",
                "weights": "k05VTVBZAQB2AHsnZGVzY3InOiAnPGY4JywgJ2ZvcnRyYW5fb3JkZXInOiBGYWxzZSwgJ3NoYXBlJzogKDEwMiwpLCB9ICAgICAgICAgICAgICAgICAgICAgICAgICAgICAgICAgICAgICAgICAgICAgICAgICAgICAgICAgIAoUFBQUFBSEPxQUFBQUFIQ/FBQUFBQUhD8UFBQUFBSEPxQUFBQUFIQ/FBQUFBQUhD8UFBQUFBSEPxQUFBQUFIQ/FBQUFBQUhD8UFBQUFBSEPxQUFBQUFIQ/FBQUFBQUhD8UFBQUFBSEPxQUFBQUFIQ/FBQUFBQUhD8UFBQUFBSEPxQUFBQUFIQ/FBQUFBQUhD8UFBQUFBSEPxQUFBQUFIQ/FBQUFBQUhD8UFBQUFBSEPxQUFBQUFIQ/FBQUFBQUhD8UFBQUFBSEPxQUFBQUFIQ/FBQUFBQUhD8UFBQUFBSEPxQUFBQUFIQ/FBQUFBQUhD8UFBQUFBSEPxQUFBQUFIQ/FBQUFBQUhD8UFBQUFBSEPxQUFBQUFIQ/FBQUFBQUhD8UFBQUFBSEPxQUFBQUFIQ/FBQUFBQUhD8UFBQUFBSEPxQUFBQUFIQ/FBQUFBQUhD8UFBQUFBSEPxQUFBQUFIQ/FBQUFBQUhD8UFBQUFBSEPxQUFBQUFIQ/FBQUFBQUhD8UFBQUFBSEPxQUFBQUFIQ/FBQUFBQUhD8UFBQUFBSEPxQUFBQUFIQ/FBQUFBQUhD8UFBQUFBSEPxQUFBQUFIQ/FBQUFBQUhD8UFBQUFBSEPxQUFBQUFIQ/FBQUFBQUhD8UFBQUFBSEPxQUFBQUFIQ/FBQUFBQUhD8UFBQUFBSEPxQUFBQUFIQ/FBQUFBQUhD8UFBQUFBSEPxQUFBQUFIQ/FBQUFBQUhD8UFBQUFBSEPxQUFBQUFIQ/FBQUFBQUhD8UFBQUFBSEPxQUFBQUFIQ/FBQUFBQUhD8UFBQUFBSEPxQUFBQUFIQ/FBQUFBQUhD8UFBQUFBSEPxQUFBQUFIQ/FBQUFBQUhD8UFBQUFBSEPxQUFBQUFIQ/FBQUFBQUhD8UFBQUFBSEPxQUFBQUFIQ/FBQUFBQUhD8UFBQUFBSEPxQUFBQUFIQ/FBQUFBQUhD8UFBQUFBSEPxQUFBQUFIQ/FBQUFBQUhD8UFBQUFBSEPxQUFBQUFIQ/FBQUFBQUhD8UFBQUFBSEPxQUFBQUFIQ/FBQUFBQUhD8UFBQUFBSEPxQUFBQUFIQ/FBQUFBQUhD8=",
                "bandwidth": 4.6393391543026326
            },
            "theta_weights": "k05VTVBZAQB2AHsnZGVzY3InOiAnPGY4JywgJ2ZvcnRyYW5fb3JkZXInOiBGYWxzZSwgJ3NoYXBlJzogKDIwMCwpLCB9ICAgICAgICAgICAgICAgICAgICAgICAgICAgICAgICAgICAgICAgICAgICAgICAgICAgICAgICAgIAp7FK5H4Xp0P3sUrkfhenQ/exSuR+F6dD97FK5H4Xp0P3sUrkfhenQ/exSuR+F6dD97FK5H4Xp0P3sUrkfhenQ/exSuR+F6dD97FK5H4Xp0P3sUrkfhenQ/exSuR+F6dD97FK5H4Xp0P3sUrkfhenQ/exSuR+F6dD97FK5H4Xp0P3sUrkfhenQ/exSuR+F6dD97FK5H4Xp0P3sUrkfhenQ/exSuR+F6dD97FK5H4Xp0P3sUrkfhenQ/exSuR+F6dD97FK5H4Xp0P3sUrkfhenQ/exSuR+F6dD97FK5H4Xp0P3sUrkfhenQ/exSuR+F6dD97FK5H4Xp0P3sUrkfhenQ/exSuR+F6dD97FK5H4Xp0P3sUrkfhenQ/exSuR+F6dD97FK5H4Xp0P3sUrkfhenQ/exSuR+F6dD97FK5H4Xp0P3sUrkfhenQ/exSuR+F6dD97FK5H4Xp0P3sUrkfhenQ/exSuR+F6dD97FK5H4Xp0P3sUrkfhenQ/exSuR+F6dD97FK5H4Xp0P3sUrkfhenQ/exSuR+F6dD97FK5H4Xp0P3sUrkfhenQ/exSuR+F6dD97FK5H4Xp0P3sUrkfhenQ/exSuR+F6dD97FK5H4Xp0P3sUrkfhenQ/exSuR+F6dD97FK5H4Xp0P3sUrkfhenQ/exSuR+F6dD97FK5H4Xp0P3sUrkfhenQ/exSuR+F6dD97FK5H4Xp0P3sUrkfhenQ/exSuR+F6dD97FK5H4Xp0P3sUrkfhenQ/exSuR+F6dD97FK5H4Xp0P3sUrkfhenQ/exSuR+F6dD97FK5H4Xp0P3sUrkfhenQ/exSuR+F6dD97FK5H4Xp0P3sUrkfhenQ/exSuR+F6dD97FK5H4Xp0P3sUrkfhenQ/exSuR+F6dD97FK5H4Xp0P3sUrkfhenQ/exSuR+F6dD97FK5H4Xp0P3sUrkfhenQ/exSuR+F6dD97FK5H4Xp0P3sUrkfhenQ/exSuR+F6dD97FK5H4Xp0P3sUrkfhenQ/exSuR+F6dD97FK5H4Xp0P3sUrkfhenQ/exSuR+F6dD97FK5H4Xp0P3sUrkfhenQ/exSuR+F6dD97FK5H4Xp0P3sUrkfhenQ/exSuR+F6dD97FK5H4Xp0P3sUrkfhenQ/exSuR+F6dD97FK5H4Xp0P3sUrkfhenQ/exSuR+F6dD97FK5H4Xp0P3sUrkfhenQ/exSuR+F6dD97FK5H4Xp0P3sUrkfhenQ/exSuR+F6dD97FK5H4Xp0P3sUrkfhenQ/exSuR+F6dD97FK5H4Xp0P3sUrkfhenQ/exSuR+F6dD97FK5H4Xp0P3sUrkfhenQ/exSuR+F6dD97FK5H4Xp0P3sUrkfhenQ/exSuR+F6dD97FK5H4Xp0P3sUrkfhenQ/exSuR+F6dD97FK5H4Xp0P3sUrkfhenQ/exSuR+F6dD97FK5H4Xp0P3sUrkfhenQ/exSuR+F6dD97FK5H4Xp0P3sUrkfhenQ/exSuR+F6dD97FK5H4Xp0P3sUrkfhenQ/exSuR+F6dD97FK5H4Xp0P3sUrkfhenQ/exSuR+F6dD97FK5H4Xp0P3sUrkfhenQ/exSuR+F6dD97FK5H4Xp0P3sUrkfhenQ/exSuR+F6dD97FK5H4Xp0P3sUrkfhenQ/exSuR+F6dD97FK5H4Xp0P3sUrkfhenQ/exSuR+F6dD97FK5H4Xp0P3sUrkfhenQ/exSuR+F6dD97FK5H4Xp0P3sUrkfhenQ/exSuR+F6dD97FK5H4Xp0P3sUrkfhenQ/exSuR+F6dD97FK5H4Xp0P3sUrkfhenQ/exSuR+F6dD97FK5H4Xp0P3sUrkfhenQ/exSuR+F6dD97FK5H4Xp0P3sUrkfhenQ/exSuR+F6dD97FK5H4Xp0P3sUrkfhenQ/exSuR+F6dD97FK5H4Xp0P3sUrkfhenQ/exSuR+F6dD97FK5H4Xp0P3sUrkfhenQ/exSuR+F6dD97FK5H4Xp0P3sUrkfhenQ/exSuR+F6dD97FK5H4Xp0P3sUrkfhenQ/exSuR+F6dD97FK5H4Xp0P3sUrkfhenQ/exSuR+F6dD97FK5H4Xp0P3sUrkfhenQ/exSuR+F6dD97FK5H4Xp0P3sUrkfhenQ/",
            "phi_kde": {
                "data": "k05VTVBZAQB2AHsnZGVzY3InOiAnPGY4JywgJ2ZvcnRyYW5fb3JkZXInOiBGYWxzZSwgJ3NoYXBlJzogKDk4LCksIH0gICAgICAgICAgICAgICAgICAgICAgICAgICAgICAgICAgICAgICAgICAgICAgICAgICAgICAgICAgIArNW6x5uVU/wPo7I8zkkTbA1YmA7wxKOMBYn5waqCoywHWBsYxefDnAGu1N/tcwzr/yYlnksQ88wEKGt1iqVz7AVrn8icwONsBiMyI6zgQzwGtuVPLYUTTA2PiVJjPAQMCj/3+B6H03wHQqojnRMUDAWNo59lXbMMDx9FuR3korwEfr+PzUfjLAdzObs5B9N8D59NkwkxI6wJ3LWibw9EDAEce7rDw7NMCBqNI3zNc4wO7DhziUsj/Afz0tM7SHMsArPz9MSR1AwBqFuyMEAzbATA3bFAVUPcATdEon74A5wOy0dKOSvkDAfp51M3o0JECxNBc/I205wMWNBddYGkHAjteijFhbOsCyXsiOg5c1wNrNx+EOJTvANesVVafPNMAXCA9SzNo0wCQLJk5/PivAsQ2lUTwQNsACeyud/Qg0wPiHJvS3qQBA4qQM4R5cPcClCDRqSro/wDTk5O2iUz/A0OaOkvtJMsD4IFA/Pl//v914iXIwVS3AB4RSvPw1G8Bpdom4PSAlwIHkqtfhQTzARN/rmfTCGcARjejUCZY9wJhN4OTpcdQ/fh4tpezaO8CTxuHJOxIbwHMOX4J4eDXATtYLzvcQI8A8bjhugcgzwDDPooyxZkDAnlEEhY3lI8AyQ9bwZAw0wERS+oEdPjrAzhhVQi7cIMBsUVVMclEpwLg51E5FlT3AADE6w+OmNsDQuY63tz7xP/mQjM1obOA/oifGQVdiMsDZ188nf6Q1wGHuy4aneznAJ1miQwedPMCHb7hioN43wAkT6u/KSz7A5+pzTPoOQcDZ882OHVE+wMJjyDGfmj3AF31FIk8RPMBeBQw75SY2wM0LUoh9wDbAIKK0uCXuLcD+Tjchyz4+wMYDvXvdsTnA/Dp/WkTGN8C60nY56ScywInlH209uzPAf5Vuhq8GQMC+vhcphVBAwLsG8E3w0UDA18CNg+SCLMDDzRoMpYs5wL9Cl28uqwrA9HOCkdoxMsDzCfAOro49wLDOwsxVXEHAjv9skDKdMcD5ZxqnZRdBwNB0nMjb0CpA",
                "weights": "k05VTVBZAQB2AHsnZGVzY3InOiAnPGY4JywgJ2ZvcnRyYW5fb3JkZXInOiBGYWxzZSwgJ3NoYXBlJzogKDk4LCksIH0gICAgICAgICAgICAgICAgICAgICAgICAgICAgICAgICAgICAgICAgICAgICAgICAgICAgICAgICAgIAo5BS+n4OWEPzkFL6fg5YQ/OQUvp+DlhD85BS+n4OWEPzkFL6fg5YQ/OQUvp+DlhD85BS+n4OWEPzkFL6fg5YQ/OQUvp+DlhD85BS+n4OWEPzkFL6fg5YQ/OQUvp+DlhD85BS+n4OWEPzkFL6fg5YQ/OQUvp+DlhD85BS+n4OWEPzkFL6fg5YQ/OQUvp+DlhD85BS+n4OWEPzkFL6fg5YQ/OQUvp+DlhD85BS+n4OWEPzkFL6fg5YQ/OQUvp+DlhD85BS+n4OWEPzkFL6fg5YQ/OQUvp+DlhD85BS+n4OWEPzkFL6fg5YQ/OQUvp+DlhD85BS+n4OWEPzkFL6fg5YQ/OQUvp+DlhD85BS+n4OWEPzkFL6fg5YQ/OQUvp+DlhD85BS+n4OWEPzkFL6fg5YQ/OQUvp+DlhD85BS+n4OWEPzkFL6fg5YQ/OQUvp+DlhD85BS+n4OWEPzkFL6fg5YQ/OQUvp+DlhD85BS+n4OWEPzkFL6fg5YQ/OQUvp+DlhD85BS+n4OWEPzkFL6fg5YQ/OQUvp+DlhD85BS+n4OWEPzkFL6fg5YQ/OQUvp+DlhD85BS+n4OWEPzkFL6fg5YQ/OQUvp+DlhD85BS+n4OWEPzkFL6fg5YQ/OQUvp+DlhD85BS+n4OWEPzkFL6fg5YQ/OQUvp+DlhD85BS+n4OWEPzkFL6fg5YQ/OQUvp+DlhD85BS+n4OWEPzkFL6fg5YQ/OQUvp+DlhD85BS+n4OWEPzkFL6fg5YQ/OQUvp+DlhD85BS+n4OWEPzkFL6fg5YQ/OQUvp+DlhD85BS+n4OWEPzkFL6fg5YQ/OQUvp+DlhD85BS+n4OWEPzkFL6fg5YQ/OQUvp+DlhD85BS+n4OWEPzkFL6fg5YQ/OQUvp+DlhD85BS+n4OWEPzkFL6fg5YQ/OQUvp+DlhD85BS+n4OWEPzkFL6fg5YQ/OQUvp+DlhD85BS+n4OWEPzkFL6fg5YQ/OQUvp+DlhD85BS+n4OWEPzkFL6fg5YQ/OQUvp+DlhD85BS+n4OWEPzkFL6fg5YQ/",
                "bandwidth": 4.383045602865154
            },
            "phi_weights": "k05VTVBZAQB2AHsnZGVzY3InOiAnPGY4JywgJ2ZvcnRyYW5fb3JkZXInOiBGYWxzZSwgJ3NoYXBlJzogKDIwMCwpLCB9ICAgICAgICAgICAgICAgICAgICAgICAgICAgICAgICAgICAgICAgICAgICAgICAgICAgICAgICAgIAp7FK5H4Xp0P3sUrkfhenQ/exSuR+F6dD97FK5H4Xp0P3sUrkfhenQ/exSuR+F6dD97FK5H4Xp0P3sUrkfhenQ/exSuR+F6dD97FK5H4Xp0P3sUrkfhenQ/exSuR+F6dD97FK5H4Xp0P3sUrkfhenQ/exSuR+F6dD97FK5H4Xp0P3sUrkfhenQ/exSuR+F6dD97FK5H4Xp0P3sUrkfhenQ/exSuR+F6dD97FK5H4Xp0P3sUrkfhenQ/exSuR+F6dD97FK5H4Xp0P3sUrkfhenQ/exSuR+F6dD97FK5H4Xp0P3sUrkfhenQ/exSuR+F6dD97FK5H4Xp0P3sUrkfhenQ/exSuR+F6dD97FK5H4Xp0P3sUrkfhenQ/exSuR+F6dD97FK5H4Xp0P3sUrkfhenQ/exSuR+F6dD97FK5H4Xp0P3sUrkfhenQ/exSuR+F6dD97FK5H4Xp0P3sUrkfhenQ/exSuR+F6dD97FK5H4Xp0P3sUrkfhenQ/exSuR+F6dD97FK5H4Xp0P3sUrkfhenQ/exSuR+F6dD97FK5H4Xp0P3sUrkfhenQ/exSuR+F6dD97FK5H4Xp0P3sUrkfhenQ/exSuR+F6dD97FK5H4Xp0P3sUrkfhenQ/exSuR+F6dD97FK5H4Xp0P3sUrkfhenQ/exSuR+F6dD97FK5H4Xp0P3sUrkfhenQ/exSuR+F6dD97FK5H4Xp0P3sUrkfhenQ/exSuR+F6dD97FK5H4Xp0P3sUrkfhenQ/exSuR+F6dD97FK5H4Xp0P3sUrkfhenQ/exSuR+F6dD97FK5H4Xp0P3sUrkfhenQ/exSuR+F6dD97FK5H4Xp0P3sUrkfhenQ/exSuR+F6dD97FK5H4Xp0P3sUrkfhenQ/exSuR+F6dD97FK5H4Xp0P3sUrkfhenQ/exSuR+F6dD97FK5H4Xp0P3sUrkfhenQ/exSuR+F6dD97FK5H4Xp0P3sUrkfhenQ/exSuR+F6dD97FK5H4Xp0P3sUrkfhenQ/exSuR+F6dD97FK5H4Xp0P3sUrkfhenQ/exSuR+F6dD97FK5H4Xp0P3sUrkfhenQ/exSuR+F6dD97FK5H4Xp0P3sUrkfhenQ/exSuR+F6dD97FK5H4Xp0P3sUrkfhenQ/exSuR+F6dD97FK5H4Xp0P3sUrkfhenQ/exSuR+F6dD97FK5H4Xp0P3sUrkfhenQ/exSuR+F6dD97FK5H4Xp0P3sUrkfhenQ/exSuR+F6dD97FK5H4Xp0P3sUrkfhenQ/exSuR+F6dD97FK5H4Xp0P3sUrkfhenQ/exSuR+F6dD97FK5H4Xp0P3sUrkfhenQ/exSuR+F6dD97FK5H4Xp0P3sUrkfhenQ/exSuR+F6dD97FK5H4Xp0P3sUrkfhenQ/exSuR+F6dD97FK5H4Xp0P3sUrkfhenQ/exSuR+F6dD97FK5H4Xp0P3sUrkfhenQ/exSuR+F6dD97FK5H4Xp0P3sUrkfhenQ/exSuR+F6dD97FK5H4Xp0P3sUrkfhenQ/exSuR+F6dD97FK5H4Xp0P3sUrkfhenQ/exSuR+F6dD97FK5H4Xp0P3sUrkfhenQ/exSuR+F6dD97FK5H4Xp0P3sUrkfhenQ/exSuR+F6dD97FK5H4Xp0P3sUrkfhenQ/exSuR+F6dD97FK5H4Xp0P3sUrkfhenQ/exSuR+F6dD97FK5H4Xp0P3sUrkfhenQ/exSuR+F6dD97FK5H4Xp0P3sUrkfhenQ/exSuR+F6dD97FK5H4Xp0P3sUrkfhenQ/exSuR+F6dD97FK5H4Xp0P3sUrkfhenQ/exSuR+F6dD97FK5H4Xp0P3sUrkfhenQ/exSuR+F6dD97FK5H4Xp0P3sUrkfhenQ/exSuR+F6dD97FK5H4Xp0P3sUrkfhenQ/exSuR+F6dD97FK5H4Xp0P3sUrkfhenQ/exSuR+F6dD97FK5H4Xp0P3sUrkfhenQ/exSuR+F6dD97FK5H4Xp0P3sUrkfhenQ/exSuR+F6dD97FK5H4Xp0P3sUrkfhenQ/exSuR+F6dD97FK5H4Xp0P3sUrkfhenQ/exSuR+F6dD97FK5H4Xp0P3sUrkfhenQ/exSuR+F6dD97FK5H4Xp0P3sUrkfhenQ/"
        },
        "PCC-FCI": {
            "theta_kde": {
                "data": "k05VTVBZAQB2AHsnZGVzY3InOiAnPGY4JywgJ2ZvcnRyYW5fb3JkZXInOiBGYWxzZSwgJ3NoYXBlJzogKDk1LCksIH0gICAgICAgICAgICAgICAgICAgICAgICAgICAgICAgICAgICAgICAgICAgICAgICAgICAgICAgICAgIApgBmQfD5fdP6iCcytqe/U/7JIehTDT+L9TqmEcUFMWQCCRpL+GmOE/2Bv8QRJo77+CkGvjtXIBQOf3SSKwKhdACKWPF8Ny7D8uRwmXVJQZQDjwWYyiW+I/2sbKuw6YCECfKXqNXDgRQFvXucEprRLAf0unWI3dyL8E5o4mgM/4P1acrlV+rQBAA2zz+2gxFUAcwfV1UykBQHE4EAwVixNA5lR09V/PFEBkfSkVavYXQP4nXaS22gbAwFZbfKb91L/Ai62TYhfTP5TA3YkpmADAQlTUtD/pF0DuGb8nm0MVQD/DfmRyNdQ/VJj7Xi6SB0DAtGYZ8Rrivw3G4o1ISxRA+iAUD5HWFkAn/GfVq4oWQFKTYB5p5xZArpD+/g9sFkDk5QaNCHwTQAjxGPvolfc/RlL7VLejB0AeWwSWpG/Fv0fsHEYa4RhAKirMgegTGkCCnKdJ3aYUQP4D9ByVigBAwj8cNmE8GUBwJszdX6zyv2JOr3LTLxFAOJ0q3PYo8D8gW1rxJaT6vxiOMvbcBAtAoFwkTJ579b+U6CX+dLUBQM0jazmbRIM/PTZ0TPwhwL9vD/Tf1JAYQCB2o9wyNdO/GL6q6fQ+EEB+tBhFTNMTQE+pdw5pTNE/0+tuPtdwFUBqq8YsngINQLjsJDOzxe2/YOlzpZuaxT84E57XipH1vwjvIC/SOeu/33W/J2sE3L/GKwAeocYLQLzCfW1/fhFAb201x9m437+zgpSB9rUTQG/nIXeYHNg/uNPtwWLpEECbVNzxXFoTQABF5TngELo/gOoMmeRJ9z/IO6lejooIQHy5HUh3GxVALt4X5IRTAkDSa9PID+yLP4VmmT2ytBBAKOtCr/m5/T9YxMiksvTgP67P6FsTHglAIk3cCDqMB8AsbM/01W4EwPFnOpdr2RVAEBu21wuo4j9VxzjkcdcTQIgpyjL8PP4/bAVPk/vgBsAyS7QiSF0VQIFXbTXQWxRAWhQs/7LgF0BgAYo+WLDNv4dGqF+IFxZA",
                "weights": "k05VTVBZAQB2AHsnZGVzY3InOiAnPGY4JywgJ2ZvcnRyYW5fb3JkZXInOiBGYWxzZSwgJ3NoYXBlJzogKDk1LCksIH0gICAgICAgICAgICAgICAgICAgICAgICAgICAgICAgICAgICAgICAgICAgICAgICAgICAgICAgICAgIArtWIEw0o6FP+1YgTDSjoU/7ViBMNKOhT/tWIEw0o6FP+1YgTDSjoU/7ViBMNKOhT/tWIEw0o6FP+1YgTDSjoU/7ViBMNKOhT/tWIEw0o6FP+1YgTDSjoU/7ViBMNKOhT/tWIEw0o6FP+1YgTDSjoU/7ViBMNKOhT/tWIEw0o6FP+1YgTDSjoU/7ViBMNKOhT/tWIEw0o6FP+1YgTDSjoU/7ViBMNKOhT/tWIEw0o6FP+1YgTDSjoU/7ViBMNKOhT/tWIEw0o6FP+1YgTDSjoU/7ViBMNKOhT/tWIEw0o6FP+1YgTDSjoU/7ViBMNKOhT/tWIEw0o6FP+1YgTDSjoU/7ViBMNKOhT/tWIEw0o6FP+1YgTDSjoU/7ViBMNKOhT/tWIEw0o6FP+1YgTDSjoU/7ViBMNKOhT/tWIEw0o6FP+1YgTDSjoU/7ViBMNKOhT/tWIEw0o6FP+1YgTDSjoU/7ViBMNKOhT/tWIEw0o6FP+1YgTDSjoU/7ViBMNKOhT/tWIEw0o6FP+1YgTDSjoU/7ViBMNKOhT/tWIEw0o6FP+1YgTDSjoU/7ViBMNKOhT/tWIEw0o6FP+1YgTDSjoU/7ViBMNKOhT/tWIEw0o6FP+1YgTDSjoU/7ViBMNKOhT/tWIEw0o6FP+1YgTDSjoU/7ViBMNKOhT/tWIEw0o6FP+1YgTDSjoU/7ViBMNKOhT/tWIEw0o6FP+1YgTDSjoU/7ViBMNKOhT/tWIEw0o6FP+1YgTDSjoU/7ViBMNKOhT/tWIEw0o6FP+1YgTDSjoU/7ViBMNKOhT/tWIEw0o6FP+1YgTDSjoU/7ViBMNKOhT/tWIEw0o6FP+1YgTDSjoU/7ViBMNKOhT/tWIEw0o6FP+1YgTDSjoU/7ViBMNKOhT/tWIEw0o6FP+1YgTDSjoU/7ViBMNKOhT/tWIEw0o6FP+1YgTDSjoU/7ViBMNKOhT/tWIEw0o6FP+1YgTDSjoU/7ViBMNKOhT/tWIEw0o6FP+1YgTDSjoU/",
                "bandwidth": 1.1973907637460546
            },
            "theta_weights": "k05VTVBZAQB2AHsnZGVzY3InOiAnPGY4JywgJ2ZvcnRyYW5fb3JkZXInOiBGYWxzZSwgJ3NoYXBlJzogKDIwMCwpLCB9ICAgICAgICAgICAgICAgICAgICAgICAgICAgICAgICAgICAgICAgICAgICAgICAgICAgICAgICAgIAp7FK5H4Xp0P3sUrkfhenQ/exSuR+F6dD97FK5H4Xp0P3sUrkfhenQ/exSuR+F6dD97FK5H4Xp0P3sUrkfhenQ/exSuR+F6dD97FK5H4Xp0P3sUrkfhenQ/exSuR+F6dD97FK5H4Xp0P3sUrkfhenQ/exSuR+F6dD97FK5H4Xp0P3sUrkfhenQ/exSuR+F6dD97FK5H4Xp0P3sUrkfhenQ/exSuR+F6dD97FK5H4Xp0P3sUrkfhenQ/exSuR+F6dD97FK5H4Xp0P3sUrkfhenQ/exSuR+F6dD97FK5H4Xp0P3sUrkfhenQ/exSuR+F6dD97FK5H4Xp0P3sUrkfhenQ/exSuR+F6dD97FK5H4Xp0P3sUrkfhenQ/exSuR+F6dD97FK5H4Xp0P3sUrkfhenQ/exSuR+F6dD97FK5H4Xp0P3sUrkfhenQ/exSuR+F6dD97FK5H4Xp0P3sUrkfhenQ/exSuR+F6dD97FK5H4Xp0P3sUrkfhenQ/exSuR+F6dD97FK5H4Xp0P3sUrkfhenQ/exSuR+F6dD97FK5H4Xp0P3sUrkfhenQ/exSuR+F6dD97FK5H4Xp0P3sUrkfhenQ/exSuR+F6dD97FK5H4Xp0P3sUrkfhenQ/exSuR+F6dD97FK5H4Xp0P3sUrkfhenQ/exSuR+F6dD97FK5H4Xp0P3sUrkfhenQ/exSuR+F6dD97FK5H4Xp0P3sUrkfhenQ/exSuR+F6dD97FK5H4Xp0P3sUrkfhenQ/exSuR+F6dD97FK5H4Xp0P3sUrkfhenQ/exSuR+F6dD97FK5H4Xp0P3sUrkfhenQ/exSuR+F6dD97FK5H4Xp0P3sUrkfhenQ/exSuR+F6dD97FK5H4Xp0P3sUrkfhenQ/exSuR+F6dD97FK5H4Xp0P3sUrkfhenQ/exSuR+F6dD97FK5H4Xp0P3sUrkfhenQ/exSuR+F6dD97FK5H4Xp0P3sUrkfhenQ/exSuR+F6dD97FK5H4Xp0P3sUrkfhenQ/exSuR+F6dD97FK5H4Xp0P3sUrkfhenQ/exSuR+F6dD97FK5H4Xp0P3sUrkfhenQ/exSuR+F6dD97FK5H4Xp0P3sUrkfhenQ/exSuR+F6dD97FK5H4Xp0P3sUrkfhenQ/exSuR+F6dD97FK5H4Xp0P3sUrkfhenQ/exSuR+F6dD97FK5H4Xp0P3sUrkfhenQ/exSuR+F6dD97FK5H4Xp0P3sUrkfhenQ/exSuR+F6dD97FK5H4Xp0P3sUrkfhenQ/exSuR+F6dD97FK5H4Xp0P3sUrkfhenQ/exSuR+F6dD97FK5H4Xp0P3sUrkfhenQ/exSuR+F6dD97FK5H4Xp0P3sUrkfhenQ/exSuR+F6dD97FK5H4Xp0P3sUrkfhenQ/exSuR+F6dD97FK5H4Xp0P3sUrkfhenQ/exSuR+F6dD97FK5H4Xp0P3sUrkfhenQ/exSuR+F6dD97FK5H4Xp0P3sUrkfhenQ/exSuR+F6dD97FK5H4Xp0P3sUrkfhenQ/exSuR+F6dD97FK5H4Xp0P3sUrkfhenQ/exSuR+F6dD97FK5H4Xp0P3sUrkfhenQ/exSuR+F6dD97FK5H4Xp0P3sUrkfhenQ/exSuR+F6dD97FK5H4Xp0P3sUrkfhenQ/exSuR+F6dD97FK5H4Xp0P3sUrkfhenQ/exSuR+F6dD97FK5H4Xp0P3sUrkfhenQ/exSuR+F6dD97FK5H4Xp0P3sUrkfhenQ/exSuR+F6dD97FK5H4Xp0P3sUrkfhenQ/exSuR+F6dD97FK5H4Xp0P3sUrkfhenQ/exSuR+F6dD97FK5H4Xp0P3sUrkfhenQ/exSuR+F6dD97FK5H4Xp0P3sUrkfhenQ/exSuR+F6dD97FK5H4Xp0P3sUrkfhenQ/exSuR+F6dD97FK5H4Xp0P3sUrkfhenQ/exSuR+F6dD97FK5H4Xp0P3sUrkfhenQ/exSuR+F6dD97FK5H4Xp0P3sUrkfhenQ/exSuR+F6dD97FK5H4Xp0P3sUrkfhenQ/exSuR+F6dD97FK5H4Xp0P3sUrkfhenQ/exSuR+F6dD97FK5H4Xp0P3sUrkfhenQ/exSuR+F6dD97FK5H4Xp0P3sUrkfhenQ/",
            "phi_kde": {
                "data": "k05VTVBZAQB2AHsnZGVzY3InOiAnPGY4JywgJ2ZvcnRyYW5fb3JkZXInOiBGYWxzZSwgJ3NoYXBlJzogKDEwNSwpLCB9ICAgICAgICAgICAgICAgICAgICAgICAgICAgICAgICAgICAgICAgICAgICAgICAgICAgICAgICAgIAr1LyLUUhsiQOl6t4ohEjBAvcCYyO/SJkB9h2BBlbMdQBbOPF9V1CRAELfodqjLH0BE9DNhCacdQHi4hn+5fyBAZnCqEoD6IkAJCCdKZa4jQCFjmUkITCdAMrvDXwcAI0Bjt+i5EoUlQMa4Vimo7iBAn+lvg76LHEDz2pboIKceQHgImFnTJzhAcWg9mlTtIkAuzBSovsosQEHlPihSSCxALk30ue33I0BtSPk2tCQgQDJ8qgMnoyhALhnYux7hMEBxYY8em3MbQHDGSKP0ODBApnY9rODlJUD4Lw5xdyooQEFAhzVRfCBAdu8e91L+KUAsRBRtVJ4gQCDNNVbFCzFAoKhOMEroIUCDDSz8C98bQGwk1R3nGyBA3pwSLosqLECqbJnUy4UmQBCD4UWH4i1Ari5/5BfjHECGSKmNk4opQC2JiV0TWidAu0lufHIRJEBoZtFmwbIgQOKdAnXvjylAiR/iHe4rHEDUJH04vAovQOBFGl5wGiJA5LcnMC79GkBVEqs7HGsoQEYgVwHexyRA/WrilZFDHUC+02AH6j0hQMRsESJvZCZAcUmN5xETKEBVXnwHS/wgQLFGBt3EDyNAr64qnj6BLUD9PXW0dbQpQPryYCjywStAv7T4vRdyJ0D8iP4fHCMkQMqztXJ2eCBAI8ZXCTyaJEAaqrTsYZkiQAI/g+h6hihAGoilZ/DZMEBbqWWEU+AiQM78F+fCjh9ADrQWkvneHEC78VvSqwYkQDKgzZy9/yFAd8R27+CaJEDyNUrrHhUgQMKKLBEgQB9AJcgg2Fw3K0Avg2P7C4AlQOheZBbVPiJA6b659VNHH0BIZrzM4hgoQHLAnTMPHiJATgpvE3njIEB0bCewhnAwQKX2dmvsei9AwrXeUselMkAanCLv1VAdQDiNWaRnBSRAXq1151BPI0ARH22NKbkaQAebL4LiHyNAaHJVKs5IMkDObkZ75XcpQMzsXGwNHClA8hbSbja0KECsbDrBcmAbQDi1mo8BihpAW/u6GmDBJ0BjpOVtDtMmQHHTS+hF8iBAzdYQ0hNVL0DsKJE3HfYvQMsF0HogViNA7Ozgku5uI0CIy8rKC50hQAfZe7oa4ydAUlb9dteSJEA=",
                "weights": "k05VTVBZAQB2AHsnZGVzY3InOiAnPGY4JywgJ2ZvcnRyYW5fb3JkZXInOiBGYWxzZSwgJ3NoYXBlJzogKDEwNSwpLCB9ICAgICAgICAgICAgICAgICAgICAgICAgICAgICAgICAgICAgICAgICAgICAgICAgICAgICAgICAgIAoUOIETOIGDPxQ4gRM4gYM/FDiBEziBgz8UOIETOIGDPxQ4gRM4gYM/FDiBEziBgz8UOIETOIGDPxQ4gRM4gYM/FDiBEziBgz8UOIETOIGDPxQ4gRM4gYM/FDiBEziBgz8UOIETOIGDPxQ4gRM4gYM/FDiBEziBgz8UOIETOIGDPxQ4gRM4gYM/FDiBEziBgz8UOIETOIGDPxQ4gRM4gYM/FDiBEziBgz8UOIETOIGDPxQ4gRM4gYM/FDiBEziBgz8UOIETOIGDPxQ4gRM4gYM/FDiBEziBgz8UOIETOIGDPxQ4gRM4gYM/FDiBEziBgz8UOIETOIGDPxQ4gRM4gYM/FDiBEziBgz8UOIETOIGDPxQ4gRM4gYM/FDiBEziBgz8UOIETOIGDPxQ4gRM4gYM/FDiBEziBgz8UOIETOIGDPxQ4gRM4gYM/FDiBEziBgz8UOIETOIGDPxQ4gRM4gYM/FDiBEziBgz8UOIETOIGDPxQ4gRM4gYM/FDiBEziBgz8UOIETOIGDPxQ4gRM4gYM/FDiBEziBgz8UOIETOIGDPxQ4gRM4gYM/FDiBEziBgz8UOIETOIGDPxQ4gRM4gYM/FDiBEziBgz8UOIETOIGDPxQ4gRM4gYM/FDiBEziBgz8UOIETOIGDPxQ4gRM4gYM/FDiBEziBgz8UOIETOIGDPxQ4gRM4gYM/FDiBEziBgz8UOIETOIGDPxQ4gRM4gYM/FDiBEziBgz8UOIETOIGDPxQ4gRM4gYM/FDiBEziBgz8UOIETOIGDPxQ4gRM4gYM/FDiBEziBgz8UOIETOIGDPxQ4gRM4gYM/FDiBEziBgz8UOIETOIGDPxQ4gRM4gYM/FDiBEziBgz8UOIETOIGDPxQ4gRM4gYM/FDiBEziBgz8UOIETOIGDPxQ4gRM4gYM/FDiBEziBgz8UOIETOIGDPxQ4gRM4gYM/FDiBEziBgz8UOIETOIGDPxQ4gRM4gYM/FDiBEziBgz8UOIETOIGDPxQ4gRM4gYM/FDiBEziBgz8UOIETOIGDPxQ4gRM4gYM/FDiBEziBgz8UOIETOIGDPxQ4gRM4gYM/FDiBEziBgz8UOIETOIGDPxQ4gRM4gYM/FDiBEziBgz8=",
                "bandwidth": 1.344582008888064
            },
