{
    "n_iter": 200,
    "n_shuffle": 2,
    "burn_in": 100,
    "thinning": 10,
    "most_likely_order": {
        "HIP-FCI": 1,
        "PCC-FCI": 2,
        "AB": 3,
        "P-Tau": 4,
        "AVLT-Sum": 5,
        "MMSE": 6,
        "ADAS": 7,
        "HIP-GMI": 8,
        "FUS-GMI": 9,
        "FUS-FCI": 10
    },
    "kendalls_tau": 0.8666666666666666,
    "p_value": 0.00011518959435626102,
    "original_order": {
        "HIP-FCI": 1,
        "PCC-FCI": 2,
        "AB": 3,
        "P-Tau": 4,
        "MMSE": 5,
        "ADAS": 6,
        "HIP-GMI": 7,
        "AVLT-Sum": 8,
        "FUS-GMI": 9,
        "FUS-FCI": 10
    },
    "order_with_higest_ll": {
        "HIP-FCI": 1,
        "PCC-FCI": 2,
        "P-Tau": 3,
        "AVLT-Sum": 4,
        "AB": 5,
        "MMSE": 6,
        "ADAS": 7,
        "HIP-GMI": 8,
        "FUS-GMI": 9,
        "FUS-FCI": 10
    },
    "kendalls_tau2": 0.7777777777777777,
    "p_value2": 0.0009463183421516755,
    "final_theta_phi_params": {
        "AB": {
            "theta_kde": {
                "data": "k05VTVBZAQB2AHsnZGVzY3InOiAnPGY4JywgJ2ZvcnRyYW5fb3JkZXInOiBGYWxzZSwgJ3NoYXBlJzogKDkwLCksIH0gICAgICAgICAgICAgICAgICAgICAgICAgICAgICAgICAgICAgICAgICAgICAgICAgICAgICAgICAgIAodaU2XsWxUQPVzvxnXkGVA38oO6rcoUkAF5IVX2iBnQFqEC6nRjmJAIPtIhw7XYkBAxMM0MiZgQLztXUBA1mVAQDWqPIMDZEACpmS85GBkQM77en9fjGJAl0I+fznvUUCoKB9LOCRlQBYS3nr+nlxApSRKYXnHX0Cf0TAoiz9nQP3r/BCQkWVAYvL57ca6YEDSdW00Oa9gQCuzlC+TelxAxr+uKewkZ0AYbj2x7iVXQLSwNeAnsEFAykTONB1GZUCjuii2dmxZQBYJR2BcgGdAleU/b2yEZUA3ud0OBhZbQGXAasPU1VxAVqqR5nDXYEAVnfnlgvRTQKsOQ4Dkv2NAMLndg9m0YkBG8341iS1jQOxxhL2N41tAL0PcMJ8cXEAWHwyokWJkQHwGyeRod2FAp19KJupOUEBLw2JHntBdQPBkbLm3d2RAz8alo4wfZ0D9b1QzVEhbQHOqsixSL2ZApyIVy4vNYUBwVZe+DJFeQICVPnDeDWNAy6MJfjIKVUD5IBfQKLdVQHxAD/4XmV1AznhpEM5eYEBL83dAC4ReQORZO3UqfGVAGqhnT+e8X0AfysHOlytVQJpDYbpeT11ASWyhPDDYUEAMXnKn1VtnQMEWjesD5FRArik2k61CYkAjOIGzp61kQMDwCmxzMWNAbEeMGfFMYEAWV96asS5gQLr3w8DCRGNAuO4Kp4eHZ0A2UR9+C6BZQEo/+Kd5s1ZArqcfMzXwZUDDH7mYBrZkQBoBotN+K2dAwPkrLCNPZ0BMe4S+jHBlQEo+YsxKwWFAeIwYb27YZkDipLinByBmQKwnRGqLtlpAEnK6F2qhYUCnYd7L0hNeQD4gMBOUjWJAUlRcY2+GZkBMJ6cfnFtnQO2ZXo3c511AEl3Hzu3HYUBniAVWA1JlQEnouf3LK1ZAKoKTKeNJW0B5YBvbDsNaQGkULLm7bmRAfE9Ifwb5ZEA=",
                "weights": "k05VTVBZAQB2AHsnZGVzY3InOiAnPGY4JywgJ2ZvcnRyYW5fb3JkZXInOiBGYWxzZSwgJ3NoYXBlJzogKDkwLCksIH0gICAgICAgICAgICAgICAgICAgICAgICAgICAgICAgICAgICAgICAgICAgICAgICAgICAgICAgICAgIAoXbMEWbMGGPxdswRZswYY/F2zBFmzBhj8XbMEWbMGGPxdswRZswYY/F2zBFmzBhj8XbMEWbMGGPxdswRZswYY/F2zBFmzBhj8XbMEWbMGGPxdswRZswYY/F2zBFmzBhj8XbMEWbMGGPxdswRZswYY/F2zBFmzBhj8XbMEWbMGGPxdswRZswYY/F2zBFmzBhj8XbMEWbMGGPxdswRZswYY/F2zBFmzBhj8XbMEWbMGGPxdswRZswYY/F2zBFmzBhj8XbMEWbMGGPxdswRZswYY/F2zBFmzBhj8XbMEWbMGGPxdswRZswYY/F2zBFmzBhj8XbMEWbMGGPxdswRZswYY/F2zBFmzBhj8XbMEWbMGGPxdswRZswYY/F2zBFmzBhj8XbMEWbMGGPxdswRZswYY/F2zBFmzBhj8XbMEWbMGGPxdswRZswYY/F2zBFmzBhj8XbMEWbMGGPxdswRZswYY/F2zBFmzBhj8XbMEWbMGGPxdswRZswYY/F2zBFmzBhj8XbMEWbMGGPxdswRZswYY/F2zBFmzBhj8XbMEWbMGGPxdswRZswYY/F2zBFmzBhj8XbMEWbMGGPxdswRZswYY/F2zBFmzBhj8XbMEWbMGGPxdswRZswYY/F2zBFmzBhj8XbMEWbMGGPxdswRZswYY/F2zBFmzBhj8XbMEWbMGGPxdswRZswYY/F2zBFmzBhj8XbMEWbMGGPxdswRZswYY/F2zBFmzBhj8XbMEWbMGGPxdswRZswYY/F2zBFmzBhj8XbMEWbMGGPxdswRZswYY/F2zBFmzBhj8XbMEWbMGGPxdswRZswYY/F2zBFmzBhj8XbMEWbMGGPxdswRZswYY/F2zBFmzBhj8XbMEWbMGGPxdswRZswYY/F2zBFmzBhj8XbMEWbMGGPxdswRZswYY/F2zBFmzBhj8XbMEWbMGGPxdswRZswYY/F2zBFmzBhj8=",
                "bandwidth": 15.48745418446532
            },
            "theta_weights": "k05VTVBZAQB2AHsnZGVzY3InOiAnPGY4JywgJ2ZvcnRyYW5fb3JkZXInOiBGYWxzZSwgJ3NoYXBlJzogKDIwMCwpLCB9ICAgICAgICAgICAgICAgICAgICAgICAgICAgICAgICAgICAgICAgICAgICAgICAgICAgICAgICAgIAp7FK5H4Xp0P3sUrkfhenQ/exSuR+F6dD97FK5H4Xp0P3sUrkfhenQ/exSuR+F6dD97FK5H4Xp0P3sUrkfhenQ/exSuR+F6dD97FK5H4Xp0P3sUrkfhenQ/exSuR+F6dD97FK5H4Xp0P3sUrkfhenQ/exSuR+F6dD97FK5H4Xp0P3sUrkfhenQ/exSuR+F6dD97FK5H4Xp0P3sUrkfhenQ/exSuR+F6dD97FK5H4Xp0P3sUrkfhenQ/exSuR+F6dD97FK5H4Xp0P3sUrkfhenQ/exSuR+F6dD97FK5H4Xp0P3sUrkfhenQ/exSuR+F6dD97FK5H4Xp0P3sUrkfhenQ/exSuR+F6dD97FK5H4Xp0P3sUrkfhenQ/exSuR+F6dD97FK5H4Xp0P3sUrkfhenQ/exSuR+F6dD97FK5H4Xp0P3sUrkfhenQ/exSuR+F6dD97FK5H4Xp0P3sUrkfhenQ/exSuR+F6dD97FK5H4Xp0P3sUrkfhenQ/exSuR+F6dD97FK5H4Xp0P3sUrkfhenQ/exSuR+F6dD97FK5H4Xp0P3sUrkfhenQ/exSuR+F6dD97FK5H4Xp0P3sUrkfhenQ/exSuR+F6dD97FK5H4Xp0P3sUrkfhenQ/exSuR+F6dD97FK5H4Xp0P3sUrkfhenQ/exSuR+F6dD97FK5H4Xp0P3sUrkfhenQ/exSuR+F6dD97FK5H4Xp0P3sUrkfhenQ/exSuR+F6dD97FK5H4Xp0P3sUrkfhenQ/exSuR+F6dD97FK5H4Xp0P3sUrkfhenQ/exSuR+F6dD97FK5H4Xp0P3sUrkfhenQ/exSuR+F6dD97FK5H4Xp0P3sUrkfhenQ/exSuR+F6dD97FK5H4Xp0P3sUrkfhenQ/exSuR+F6dD97FK5H4Xp0P3sUrkfhenQ/exSuR+F6dD97FK5H4Xp0P3sUrkfhenQ/exSuR+F6dD97FK5H4Xp0P3sUrkfhenQ/exSuR+F6dD97FK5H4Xp0P3sUrkfhenQ/exSuR+F6dD97FK5H4Xp0P3sUrkfhenQ/exSuR+F6dD97FK5H4Xp0P3sUrkfhenQ/exSuR+F6dD97FK5H4Xp0P3sUrkfhenQ/exSuR+F6dD97FK5H4Xp0P3sUrkfhenQ/exSuR+F6dD97FK5H4Xp0P3sUrkfhenQ/exSuR+F6dD97FK5H4Xp0P3sUrkfhenQ/exSuR+F6dD97FK5H4Xp0P3sUrkfhenQ/exSuR+F6dD97FK5H4Xp0P3sUrkfhenQ/exSuR+F6dD97FK5H4Xp0P3sUrkfhenQ/exSuR+F6dD97FK5H4Xp0P3sUrkfhenQ/exSuR+F6dD97FK5H4Xp0P3sUrkfhenQ/exSuR+F6dD97FK5H4Xp0P3sUrkfhenQ/exSuR+F6dD97FK5H4Xp0P3sUrkfhenQ/exSuR+F6dD97FK5H4Xp0P3sUrkfhenQ/exSuR+F6dD97FK5H4Xp0P3sUrkfhenQ/exSuR+F6dD97FK5H4Xp0P3sUrkfhenQ/exSuR+F6dD97FK5H4Xp0P3sUrkfhenQ/exSuR+F6dD97FK5H4Xp0P3sUrkfhenQ/exSuR+F6dD97FK5H4Xp0P3sUrkfhenQ/exSuR+F6dD97FK5H4Xp0P3sUrkfhenQ/exSuR+F6dD97FK5H4Xp0P3sUrkfhenQ/exSuR+F6dD97FK5H4Xp0P3sUrkfhenQ/exSuR+F6dD97FK5H4Xp0P3sUrkfhenQ/exSuR+F6dD97FK5H4Xp0P3sUrkfhenQ/exSuR+F6dD97FK5H4Xp0P3sUrkfhenQ/exSuR+F6dD97FK5H4Xp0P3sUrkfhenQ/exSuR+F6dD97FK5H4Xp0P3sUrkfhenQ/exSuR+F6dD97FK5H4Xp0P3sUrkfhenQ/exSuR+F6dD97FK5H4Xp0P3sUrkfhenQ/exSuR+F6dD97FK5H4Xp0P3sUrkfhenQ/exSuR+F6dD97FK5H4Xp0P3sUrkfhenQ/exSuR+F6dD97FK5H4Xp0P3sUrkfhenQ/exSuR+F6dD97FK5H4Xp0P3sUrkfhenQ/exSuR+F6dD97FK5H4Xp0P3sUrkfhenQ/exSuR+F6dD97FK5H4Xp0P3sUrkfhenQ/",
            "phi_kde": {
                "data": "k05VTVBZAQB2AHsnZGVzY3InOiAnPGY4JywgJ2ZvcnRyYW5fb3JkZXInOiBGYWxzZSwgJ3NoYXBlJzogKDExMCwpLCB9ICAgICAgICAgICAgICAgICAgICAgICAgICAgICAgICAgICAgICAgICAgICAgICAgICAgICAgICAgIAqswflxnY9sQBQI6a4O9nJAfAU58GHrakAqpawTO/NoQKfmUNyoRnFAOHoPqbzwbED1ihnrUDdpQDWrmNJN92lA9LHOd+adaUDDvyCftn5qQMNxj5xnsmxASgQfQwsqbkC1IZ3V2O5oQHeMo9fQ9GhATCqeQeXYcUDSEQXVvQhsQPYU8Df+EHFA/oJkXFL7aEAklipy9vtpQFZkrT9bf2xAOuT9bcUobUAMiKGLmUhtQOL219MU6GlA1nz8iAB3akCC0wEsC45qQJPOMQI/vHNAAyN+GHVadUAxwho5XE9yQMEnnhVIgWxAp4GE/mWUaUBpxQdsw6BqQH7WUgL3bmxAkL3/ywT0cUBbz8/p9A1sQL7gYZ7gR3FApAm1OOfmbED6QI4A0eNwQKDuqtgtXmlAf6+3mSArbEB3iYCUW51tQKXlj5q5aHFAj4ItAZNUdUDOUgfLRFFrQCsCaOSVXm5AbMi4AdmwaUBE9sZBhDVwQM3qWZoY9nNAzjfK+OJza0BkY6Wo8tFpQBzsPF9fjmhAw4z2ugBNbUD8KKSXXs5tQIluvfD0Ym1A+7QMDV2waUCU3sEUu9BoQFH2hzUHsm5Ab31ZvGvlbkBpJ8L30ylpQNmQeSF1xW9AVOtKi3V9aUDfiKJyMSRuQGDopIelPnFAcMMWTgnYcECSYQhBmKtpQAkVBeG/pmlARnNY6GzlZ0CLxMeaPtNrQKTuwd2lNnJAkAWYOVimckBrdfaWD8VxQCs9+dXe52tA+R6Qn3x/cECjqplHdnRxQPfEMt3t825Ap2Ag8aJWbkANilqSiOVrQHBNTy5rQHFAJRbgSYulakDo5gajSvlrQFRMkdhovWhAQKeG3ijMZ0AjEj0FmkRpQHt8Hd+E13NAmVNbaz1jaECKgVeyCYtsQHLMcvy8lG9A4IiwvF3JaUCuxDL14c9qQHuNRef5fGlAHVuefh/+bEC/zKuYK/BqQDxXCvc87WpAf34GgBO8b0DSwbdJDUdwQG1xMLCqWm1AX4YxFCavcEAnf7Kkf4pyQHZc7BnnJ2tAuIp+0fe0c0DdDF57VeVrQFkbwdwuxHJAsJ5NbCCqa0D4MYobhyZoQFEj/XUWqXFA//0j8VeBbUB4IuQhwo9sQEelfoAUhm9AG1Nn8ZuhbECBw/13gApuQMI9TwwsynFA",
                "weights": "k05VTVBZAQB2AHsnZGVzY3InOiAnPGY4JywgJ2ZvcnRyYW5fb3JkZXInOiBGYWxzZSwgJ3NoYXBlJzogKDExMCwpLCB9ICAgICAgICAgICAgICAgICAgICAgICAgICAgICAgICAgICAgICAgICAgICAgICAgICAgICAgICAgIAqeEuQpQZ6CP54S5ClBnoI/nhLkKUGegj+eEuQpQZ6CP54S5ClBnoI/nhLkKUGegj+eEuQpQZ6CP54S5ClBnoI/nhLkKUGegj+eEuQpQZ6CP54S5ClBnoI/nhLkKUGegj+eEuQpQZ6CP54S5ClBnoI/nhLkKUGegj+eEuQpQZ6CP54S5ClBnoI/nhLkKUGegj+eEuQpQZ6CP54S5ClBnoI/nhLkKUGegj+eEuQpQZ6CP54S5ClBnoI/nhLkKUGegj+eEuQpQZ6CP54S5ClBnoI/nhLkKUGegj+eEuQpQZ6CP54S5ClBnoI/nhLkKUGegj+eEuQpQZ6CP54S5ClBnoI/nhLkKUGegj+eEuQpQZ6CP54S5ClBnoI/nhLkKUGegj+eEuQpQZ6CP54S5ClBnoI/nhLkKUGegj+eEuQpQZ6CP54S5ClBnoI/nhLkKUGegj+eEuQpQZ6CP54S5ClBnoI/nhLkKUGegj+eEuQpQZ6CP54S5ClBnoI/nhLkKUGegj+eEuQpQZ6CP54S5ClBnoI/nhLkKUGegj+eEuQpQZ6CP54S5ClBnoI/nhLkKUGegj+eEuQpQZ6CP54S5ClBnoI/nhLkKUGegj+eEuQpQZ6CP54S5ClBnoI/nhLkKUGegj+eEuQpQZ6CP54S5ClBnoI/nhLkKUGegj+eEuQpQZ6CP54S5ClBnoI/nhLkKUGegj+eEuQpQZ6CP54S5ClBnoI/nhLkKUGegj+eEuQpQZ6CP54S5ClBnoI/nhLkKUGegj+eEuQpQZ6CP54S5ClBnoI/nhLkKUGegj+eEuQpQZ6CP54S5ClBnoI/nhLkKUGegj+eEuQpQZ6CP54S5ClBnoI/nhLkKUGegj+eEuQpQZ6CP54S5ClBnoI/nhLkKUGegj+eEuQpQZ6CP54S5ClBnoI/nhLkKUGegj+eEuQpQZ6CP54S5ClBnoI/nhLkKUGegj+eEuQpQZ6CP54S5ClBnoI/nhLkKUGegj+eEuQpQZ6CP54S5ClBnoI/nhLkKUGegj+eEuQpQZ6CP54S5ClBnoI/nhLkKUGegj+eEuQpQZ6CP54S5ClBnoI/nhLkKUGegj+eEuQpQZ6CP54S5ClBnoI/nhLkKUGegj+eEuQpQZ6CP54S5ClBnoI/nhLkKUGegj+eEuQpQZ6CP54S5ClBnoI/",
                "bandwidth": 14.84766822929162
            },
            "phi_weights": "k05VTVBZAQB2AHsnZGVzY3InOiAnPGY4JywgJ2ZvcnRyYW5fb3JkZXInOiBGYWxzZSwgJ3NoYXBlJzogKDIwMCwpLCB9ICAgICAgICAgICAgICAgICAgICAgICAgICAgICAgICAgICAgICAgICAgICAgICAgICAgICAgICAgIAp7FK5H4Xp0P3sUrkfhenQ/exSuR+F6dD97FK5H4Xp0P3sUrkfhenQ/exSuR+F6dD97FK5H4Xp0P3sUrkfhenQ/exSuR+F6dD97FK5H4Xp0P3sUrkfhenQ/exSuR+F6dD97FK5H4Xp0P3sUrkfhenQ/exSuR+F6dD97FK5H4Xp0P3sUrkfhenQ/exSuR+F6dD97FK5H4Xp0P3sUrkfhenQ/exSuR+F6dD97FK5H4Xp0P3sUrkfhenQ/exSuR+F6dD97FK5H4Xp0P3sUrkfhenQ/exSuR+F6dD97FK5H4Xp0P3sUrkfhenQ/exSuR+F6dD97FK5H4Xp0P3sUrkfhenQ/exSuR+F6dD97FK5H4Xp0P3sUrkfhenQ/exSuR+F6dD97FK5H4Xp0P3sUrkfhenQ/exSuR+F6dD97FK5H4Xp0P3sUrkfhenQ/exSuR+F6dD97FK5H4Xp0P3sUrkfhenQ/exSuR+F6dD97FK5H4Xp0P3sUrkfhenQ/exSuR+F6dD97FK5H4Xp0P3sUrkfhenQ/exSuR+F6dD97FK5H4Xp0P3sUrkfhenQ/exSuR+F6dD97FK5H4Xp0P3sUrkfhenQ/exSuR+F6dD97FK5H4Xp0P3sUrkfhenQ/exSuR+F6dD97FK5H4Xp0P3sUrkfhenQ/exSuR+F6dD97FK5H4Xp0P3sUrkfhenQ/exSuR+F6dD97FK5H4Xp0P3sUrkfhenQ/exSuR+F6dD97FK5H4Xp0P3sUrkfhenQ/exSuR+F6dD97FK5H4Xp0P3sUrkfhenQ/exSuR+F6dD97FK5H4Xp0P3sUrkfhenQ/exSuR+F6dD97FK5H4Xp0P3sUrkfhenQ/exSuR+F6dD97FK5H4Xp0P3sUrkfhenQ/exSuR+F6dD97FK5H4Xp0P3sUrkfhenQ/exSuR+F6dD97FK5H4Xp0P3sUrkfhenQ/exSuR+F6dD97FK5H4Xp0P3sUrkfhenQ/exSuR+F6dD97FK5H4Xp0P3sUrkfhenQ/exSuR+F6dD97FK5H4Xp0P3sUrkfhenQ/exSuR+F6dD97FK5H4Xp0P3sUrkfhenQ/exSuR+F6dD97FK5H4Xp0P3sUrkfhenQ/exSuR+F6dD97FK5H4Xp0P3sUrkfhenQ/exSuR+F6dD97FK5H4Xp0P3sUrkfhenQ/exSuR+F6dD97FK5H4Xp0P3sUrkfhenQ/exSuR+F6dD97FK5H4Xp0P3sUrkfhenQ/exSuR+F6dD97FK5H4Xp0P3sUrkfhenQ/exSuR+F6dD97FK5H4Xp0P3sUrkfhenQ/exSuR+F6dD97FK5H4Xp0P3sUrkfhenQ/exSuR+F6dD97FK5H4Xp0P3sUrkfhenQ/exSuR+F6dD97FK5H4Xp0P3sUrkfhenQ/exSuR+F6dD97FK5H4Xp0P3sUrkfhenQ/exSuR+F6dD97FK5H4Xp0P3sUrkfhenQ/exSuR+F6dD97FK5H4Xp0P3sUrkfhenQ/exSuR+F6dD97FK5H4Xp0P3sUrkfhenQ/exSuR+F6dD97FK5H4Xp0P3sUrkfhenQ/exSuR+F6dD97FK5H4Xp0P3sUrkfhenQ/exSuR+F6dD97FK5H4Xp0P3sUrkfhenQ/exSuR+F6dD97FK5H4Xp0P3sUrkfhenQ/exSuR+F6dD97FK5H4Xp0P3sUrkfhenQ/exSuR+F6dD97FK5H4Xp0P3sUrkfhenQ/exSuR+F6dD97FK5H4Xp0P3sUrkfhenQ/exSuR+F6dD97FK5H4Xp0P3sUrkfhenQ/exSuR+F6dD97FK5H4Xp0P3sUrkfhenQ/exSuR+F6dD97FK5H4Xp0P3sUrkfhenQ/exSuR+F6dD97FK5H4Xp0P3sUrkfhenQ/exSuR+F6dD97FK5H4Xp0P3sUrkfhenQ/exSuR+F6dD97FK5H4Xp0P3sUrkfhenQ/exSuR+F6dD97FK5H4Xp0P3sUrkfhenQ/exSuR+F6dD97FK5H4Xp0P3sUrkfhenQ/exSuR+F6dD97FK5H4Xp0P3sUrkfhenQ/exSuR+F6dD97FK5H4Xp0P3sUrkfhenQ/exSuR+F6dD97FK5H4Xp0P3sUrkfhenQ/exSuR+F6dD97FK5H4Xp0P3sUrkfhenQ/"
        },
        "ADAS": {
            "theta_kde": {
                "data": "k05VTVBZAQB2AHsnZGVzY3InOiAnPGY4JywgJ2ZvcnRyYW5fb3JkZXInOiBGYWxzZSwgJ3NoYXBlJzogKDcyLCksIH0gICAgICAgICAgICAgICAgICAgICAgICAgICAgICAgICAgICAgICAgICAgICAgICAgICAgICAgICAgIAqmA3dq3B0ywLSWn3h1gy7ANMZPwgngMsB8EfOGp1I2wKJoNkheGjHAoC2MyrB3McBMlW0+RycxwGtvdl/8yinAa8is6qqgMcD2Ka+S2IE1wE1RXxt/5jLAR4z0cQ+SM8BM/MIdps8ywLRYzTkZ1CrAuc2Bfk3bM8CF93BDRFMzwPCJ/JTcsTXA40DGFbfIM8C0E9TuD0c3wGB970inSTLA8ucQTJHeLMDG53pJOykswI4drvrHsjPAV9j4f8nONcB+bcZ/RFoxwKuLNsrOFTHAb72qWQLxMsAgj0XYfswzwEvBZyz8DDPA6lTri241McDgpIUtB4MxwFjCCoAp6zPAbd0w8PYXMMDSwj10gO8zwPzT/W8nuzDAbWoSkvdUNcBjuwZpJ6k1wF6MwmrP2jPA7KHjHup1McCnTyETsKUywFg2RmrQwTLAp6SHmiZbMMCayp7yciAzwIJnWM72yDLAuEOrTUlPMMCmnCVblJEzwLCYGv0ZhTTAbMGLuDLgMMBQoLLUyYsxwAlNGCM6lzXAzMvxbzemNcCGnmSYjYMywKIPGMHLIzPAnZNiIAv3NMCqpmdbhGgxwGrGre4KgzPA6uCv8jPrMsDifTPi8L4ywI0SmCpinDTAeVb1ys+/MsDwZ1LtAz0wwFWTErqs4TPAcWVbW7WZMsDaZFr2yoMywIpS56OsqTLA5CGB7DvdNsDDtyHipB80wLJ6RS41azXA+sWJk8f4NcA8BTj/srkrwPDJ5E3vBDbAYO25mpKmK8A=",
                "weights": "k05VTVBZAQB2AHsnZGVzY3InOiAnPGY4JywgJ2ZvcnRyYW5fb3JkZXInOiBGYWxzZSwgJ3NoYXBlJzogKDcyLCksIH0gICAgICAgICAgICAgICAgICAgICAgICAgICAgICAgICAgICAgICAgICAgICAgICAgICAgICAgICAgIAocx3Ecx3GMPxzHcRzHcYw/HMdxHMdxjD8cx3Ecx3GMPxzHcRzHcYw/HMdxHMdxjD8cx3Ecx3GMPxzHcRzHcYw/HMdxHMdxjD8cx3Ecx3GMPxzHcRzHcYw/HMdxHMdxjD8cx3Ecx3GMPxzHcRzHcYw/HMdxHMdxjD8cx3Ecx3GMPxzHcRzHcYw/HMdxHMdxjD8cx3Ecx3GMPxzHcRzHcYw/HMdxHMdxjD8cx3Ecx3GMPxzHcRzHcYw/HMdxHMdxjD8cx3Ecx3GMPxzHcRzHcYw/HMdxHMdxjD8cx3Ecx3GMPxzHcRzHcYw/HMdxHMdxjD8cx3Ecx3GMPxzHcRzHcYw/HMdxHMdxjD8cx3Ecx3GMPxzHcRzHcYw/HMdxHMdxjD8cx3Ecx3GMPxzHcRzHcYw/HMdxHMdxjD8cx3Ecx3GMPxzHcRzHcYw/HMdxHMdxjD8cx3Ecx3GMPxzHcRzHcYw/HMdxHMdxjD8cx3Ecx3GMPxzHcRzHcYw/HMdxHMdxjD8cx3Ecx3GMPxzHcRzHcYw/HMdxHMdxjD8cx3Ecx3GMPxzHcRzHcYw/HMdxHMdxjD8cx3Ecx3GMPxzHcRzHcYw/HMdxHMdxjD8cx3Ecx3GMPxzHcRzHcYw/HMdxHMdxjD8cx3Ecx3GMPxzHcRzHcYw/HMdxHMdxjD8cx3Ecx3GMPxzHcRzHcYw/HMdxHMdxjD8cx3Ecx3GMPxzHcRzHcYw/HMdxHMdxjD8cx3Ecx3GMPxzHcRzHcYw/HMdxHMdxjD8=",
                "bandwidth": 1.034336750577353
            },
            "theta_weights": "k05VTVBZAQB2AHsnZGVzY3InOiAnPGY4JywgJ2ZvcnRyYW5fb3JkZXInOiBGYWxzZSwgJ3NoYXBlJzogKDIwMCwpLCB9ICAgICAgICAgICAgICAgICAgICAgICAgICAgICAgICAgICAgICAgICAgICAgICAgICAgICAgICAgIAp7FK5H4Xp0P3sUrkfhenQ/exSuR+F6dD97FK5H4Xp0P3sUrkfhenQ/exSuR+F6dD97FK5H4Xp0P3sUrkfhenQ/exSuR+F6dD97FK5H4Xp0P3sUrkfhenQ/exSuR+F6dD97FK5H4Xp0P3sUrkfhenQ/exSuR+F6dD97FK5H4Xp0P3sUrkfhenQ/exSuR+F6dD97FK5H4Xp0P3sUrkfhenQ/exSuR+F6dD97FK5H4Xp0P3sUrkfhenQ/exSuR+F6dD97FK5H4Xp0P3sUrkfhenQ/exSuR+F6dD97FK5H4Xp0P3sUrkfhenQ/exSuR+F6dD97FK5H4Xp0P3sUrkfhenQ/exSuR+F6dD97FK5H4Xp0P3sUrkfhenQ/exSuR+F6dD97FK5H4Xp0P3sUrkfhenQ/exSuR+F6dD97FK5H4Xp0P3sUrkfhenQ/exSuR+F6dD97FK5H4Xp0P3sUrkfhenQ/exSuR+F6dD97FK5H4Xp0P3sUrkfhenQ/exSuR+F6dD97FK5H4Xp0P3sUrkfhenQ/exSuR+F6dD97FK5H4Xp0P3sUrkfhenQ/exSuR+F6dD97FK5H4Xp0P3sUrkfhenQ/exSuR+F6dD97FK5H4Xp0P3sUrkfhenQ/exSuR+F6dD97FK5H4Xp0P3sUrkfhenQ/exSuR+F6dD97FK5H4Xp0P3sUrkfhenQ/exSuR+F6dD97FK5H4Xp0P3sUrkfhenQ/exSuR+F6dD97FK5H4Xp0P3sUrkfhenQ/exSuR+F6dD97FK5H4Xp0P3sUrkfhenQ/exSuR+F6dD97FK5H4Xp0P3sUrkfhenQ/exSuR+F6dD97FK5H4Xp0P3sUrkfhenQ/exSuR+F6dD97FK5H4Xp0P3sUrkfhenQ/exSuR+F6dD97FK5H4Xp0P3sUrkfhenQ/exSuR+F6dD97FK5H4Xp0P3sUrkfhenQ/exSuR+F6dD97FK5H4Xp0P3sUrkfhenQ/exSuR+F6dD97FK5H4Xp0P3sUrkfhenQ/exSuR+F6dD97FK5H4Xp0P3sUrkfhenQ/exSuR+F6dD97FK5H4Xp0P3sUrkfhenQ/exSuR+F6dD97FK5H4Xp0P3sUrkfhenQ/exSuR+F6dD97FK5H4Xp0P3sUrkfhenQ/exSuR+F6dD97FK5H4Xp0P3sUrkfhenQ/exSuR+F6dD97FK5H4Xp0P3sUrkfhenQ/exSuR+F6dD97FK5H4Xp0P3sUrkfhenQ/exSuR+F6dD97FK5H4Xp0P3sUrkfhenQ/exSuR+F6dD97FK5H4Xp0P3sUrkfhenQ/exSuR+F6dD97FK5H4Xp0P3sUrkfhenQ/exSuR+F6dD97FK5H4Xp0P3sUrkfhenQ/exSuR+F6dD97FK5H4Xp0P3sUrkfhenQ/exSuR+F6dD97FK5H4Xp0P3sUrkfhenQ/exSuR+F6dD97FK5H4Xp0P3sUrkfhenQ/exSuR+F6dD97FK5H4Xp0P3sUrkfhenQ/exSuR+F6dD97FK5H4Xp0P3sUrkfhenQ/exSuR+F6dD97FK5H4Xp0P3sUrkfhenQ/exSuR+F6dD97FK5H4Xp0P3sUrkfhenQ/exSuR+F6dD97FK5H4Xp0P3sUrkfhenQ/exSuR+F6dD97FK5H4Xp0P3sUrkfhenQ/exSuR+F6dD97FK5H4Xp0P3sUrkfhenQ/exSuR+F6dD97FK5H4Xp0P3sUrkfhenQ/exSuR+F6dD97FK5H4Xp0P3sUrkfhenQ/exSuR+F6dD97FK5H4Xp0P3sUrkfhenQ/exSuR+F6dD97FK5H4Xp0P3sUrkfhenQ/exSuR+F6dD97FK5H4Xp0P3sUrkfhenQ/exSuR+F6dD97FK5H4Xp0P3sUrkfhenQ/exSuR+F6dD97FK5H4Xp0P3sUrkfhenQ/exSuR+F6dD97FK5H4Xp0P3sUrkfhenQ/exSuR+F6dD97FK5H4Xp0P3sUrkfhenQ/exSuR+F6dD97FK5H4Xp0P3sUrkfhenQ/exSuR+F6dD97FK5H4Xp0P3sUrkfhenQ/exSuR+F6dD97FK5H4Xp0P3sUrkfhenQ/exSuR+F6dD97FK5H4Xp0P3sUrkfhenQ/exSuR+F6dD97FK5H4Xp0P3sUrkfhenQ/",
            "phi_kde": {
                "data": "k05VTVBZAQB2AHsnZGVzY3InOiAnPGY4JywgJ2ZvcnRyYW5fb3JkZXInOiBGYWxzZSwgJ3NoYXBlJzogKDEyOCwpLCB9ICAgICAgICAgICAgICAgICAgICAgICAgICAgICAgICAgICAgICAgICAgICAgICAgICAgICAgICAgIAq4t9sTKHMnwHqdGsf/EhrAv0CGTFBvIsDSUgK+c+UWwAiZt5dWoCHAiCjviyFEH8AKb73EHY4YwL7VkisuaxPAJIA3PBQfEMA9GdgF2OsnwEIn7SwuHinANQK2prDHKMDV2isAKVscwESfAMZSthPAlHwvXwrMGsDRR1vh5vkfwKCsDm218xHAalgopoAXHcBmY4EVz2MYwBiGam1A9xzAgvIo4N8QJ8Bfg19QSF4XwKotnOPFqxnAoBT2qt4FDsBseNunJDgiwCfghhVvTRXAph3NT/aWIsA3f90vkPgUwNZo/j4K6xTA0aplfipOEcB2eyvw3wkawBIFkeqk3wjADqp5kIgpHMAoWWxMOzcZwBdohUSb1hzASgWLcNKFG8BuLEOCExYQwG4lJibIEA7AA2m7wzv+F8AVywzc9NQYwPRsE+dhviDA7wVn4Qu2GcCYGxdidusnwDJpJDuhaw/AamtzP7/JIsCoh36z0VIZwDs9YUHMJxnA9jKQDvtzGsAB+ZCijNcUwHpNr5DYAiLA9vCApVn6H8B88+N0WiAYwMlxOJju8BTAiJI8BVnEGMD5gYZRrU8RwLsgE7iTuhDALYb/VYaNEMDDAoj4laEbwEbFnhDwthjAzKgYlOsEF8BZtSIXTgwdwETliU4wzCDAjx5k6fp/EsDg7YYn3jMiwBKTwOTLUB3AZs3Vzu2kGMB1IYq91KERwHr3za/ADCDANLt4Ka47F8CZxWmb9/QcwIC7hXMeFhbAPn3wMY64GsAbgwoQ1e8GwI/guIp1xyHAulc9lAmzGcAyyLt5kR8XwIvLCXmcRBjAv/NztrteF8CFP/NJpMscwBL9KORQsxjASkeReF+BI8BE314a/BwYwKOf/HOREhTAQRHECNbJIMDlPtx3RfoiwJI0vrbFsxvAAlnUUqojJcDjus8+aPETwNZFKlEfBRfA7F6swozxF8BOgyUHrZEcwAmQuEMqRBvAaHnx2Ro3GcDZzlKbzakWwHHjXQr65RrASPpKZvroGMAtlumvYjkSwILG3jzpRRnA2PyOjySUFcALaguZdCYfwAqMI0SFBBjA8ObjyzDrG8A9W1rBkzQiwJyasGRfHh7At3bqB4QgGMCYTGNbPksXwPgBnDXGOhbA8cl192KvFcCI84zaIrEcwNYMPStEhCPAE6DdsNAGFMB4lQc+rpoZwIpkUOzFQBbAxnhFiaoVHcBJoagZQdMWwFgCAk85hALA3AWaQcVfIMB008FLBhocwHxV/nWU7RLAS5skxexhH8B+rmkAdJEUwKxW+7UeXR/AmNoi+94eG8CxkdoF/vAUwM614SLbExTAV/qgZsd9G8DcKoYDiBsZwF73mAL/qxnA",
                "weights": "k05VTVBZAQB2AHsnZGVzY3InOiAnPGY4JywgJ2ZvcnRyYW5fb3JkZXInOiBGYWxzZSwgJ3NoYXBlJzogKDEyOCwpLCB9ICAgICAgICAgICAgICAgICAgICAgICAgICAgICAgICAgICAgICAgICAgICAgICAgICAgICAgICAgIAoAAAAAAACAPwAAAAAAAIA/AAAAAAAAgD8AAAAAAACAPwAAAAAAAIA/AAAAAAAAgD8AAAAAAACAPwAAAAAAAIA/AAAAAAAAgD8AAAAAAACAPwAAAAAAAIA/AAAAAAAAgD8AAAAAAACAPwAAAAAAAIA/AAAAAAAAgD8AAAAAAACAPwAAAAAAAIA/AAAAAAAAgD8AAAAAAACAPwAAAAAAAIA/AAAAAAAAgD8AAAAAAACAPwAAAAAAAIA/AAAAAAAAgD8AAAAAAACAPwAAAAAAAIA/AAAAAAAAgD8AAAAAAACAPwAAAAAAAIA/AAAAAAAAgD8AAAAAAACAPwAAAAAAAIA/AAAAAAAAgD8AAAAAAACAPwAAAAAAAIA/AAAAAAAAgD8AAAAAAACAPwAAAAAAAIA/AAAAAAAAgD8AAAAAAACAPwAAAAAAAIA/AAAAAAAAgD8AAAAAAACAPwAAAAAAAIA/AAAAAAAAgD8AAAAAAACAPwAAAAAAAIA/AAAAAAAAgD8AAAAAAACAPwAAAAAAAIA/AAAAAAAAgD8AAAAAAACAPwAAAAAAAIA/AAAAAAAAgD8AAAAAAACAPwAAAAAAAIA/AAAAAAAAgD8AAAAAAACAPwAAAAAAAIA/AAAAAAAAgD8AAAAAAACAPwAAAAAAAIA/AAAAAAAAgD8AAAAAAACAPwAAAAAAAIA/AAAAAAAAgD8AAAAAAACAPwAAAAAAAIA/AAAAAAAAgD8AAAAAAACAPwAAAAAAAIA/AAAAAAAAgD8AAAAAAACAPwAAAAAAAIA/AAAAAAAAgD8AAAAAAACAPwAAAAAAAIA/AAAAAAAAgD8AAAAAAACAPwAAAAAAAIA/AAAAAAAAgD8AAAAAAACAPwAAAAAAAIA/AAAAAAAAgD8AAAAAAACAPwAAAAAAAIA/AAAAAAAAgD8AAAAAAACAPwAAAAAAAIA/AAAAAAAAgD8AAAAAAACAPwAAAAAAAIA/AAAAAAAAgD8AAAAAAACAPwAAAAAAAIA/AAAAAAAAgD8AAAAAAACAPwAAAAAAAIA/AAAAAAAAgD8AAAAAAACAPwAAAAAAAIA/AAAAAAAAgD8AAAAAAACAPwAAAAAAAIA/AAAAAAAAgD8AAAAAAACAPwAAAAAAAIA/AAAAAAAAgD8AAAAAAACAPwAAAAAAAIA/AAAAAAAAgD8AAAAAAACAPwAAAAAAAIA/AAAAAAAAgD8AAAAAAACAPwAAAAAAAIA/AAAAAAAAgD8AAAAAAACAPwAAAAAAAIA/AAAAAAAAgD8AAAAAAACAPwAAAAAAAIA/AAAAAAAAgD8AAAAAAACAPwAAAAAAAIA/AAAAAAAAgD8AAAAAAACAPwAAAAAAAIA/",
                "bandwidth": 0.7759589975962636
            },
            "phi_weights": "k05VTVBZAQB2AHsnZGVzY3InOiAnPGY4JywgJ2ZvcnRyYW5fb3JkZXInOiBGYWxzZSwgJ3NoYXBlJzogKDIwMCwpLCB9ICAgICAgICAgICAgICAgICAgICAgICAgICAgICAgICAgICAgICAgICAgICAgICAgICAgICAgICAgIAp7FK5H4Xp0P3sUrkfhenQ/exSuR+F6dD97FK5H4Xp0P3sUrkfhenQ/exSuR+F6dD97FK5H4Xp0P3sUrkfhenQ/exSuR+F6dD97FK5H4Xp0P3sUrkfhenQ/exSuR+F6dD97FK5H4Xp0P3sUrkfhenQ/exSuR+F6dD97FK5H4Xp0P3sUrkfhenQ/exSuR+F6dD97FK5H4Xp0P3sUrkfhenQ/exSuR+F6dD97FK5H4Xp0P3sUrkfhenQ/exSuR+F6dD97FK5H4Xp0P3sUrkfhenQ/exSuR+F6dD97FK5H4Xp0P3sUrkfhenQ/exSuR+F6dD97FK5H4Xp0P3sUrkfhenQ/exSuR+F6dD97FK5H4Xp0P3sUrkfhenQ/exSuR+F6dD97FK5H4Xp0P3sUrkfhenQ/exSuR+F6dD97FK5H4Xp0P3sUrkfhenQ/exSuR+F6dD97FK5H4Xp0P3sUrkfhenQ/exSuR+F6dD97FK5H4Xp0P3sUrkfhenQ/exSuR+F6dD97FK5H4Xp0P3sUrkfhenQ/exSuR+F6dD97FK5H4Xp0P3sUrkfhenQ/exSuR+F6dD97FK5H4Xp0P3sUrkfhenQ/exSuR+F6dD97FK5H4Xp0P3sUrkfhenQ/exSuR+F6dD97FK5H4Xp0P3sUrkfhenQ/exSuR+F6dD97FK5H4Xp0P3sUrkfhenQ/exSuR+F6dD97FK5H4Xp0P3sUrkfhenQ/exSuR+F6dD97FK5H4Xp0P3sUrkfhenQ/exSuR+F6dD97FK5H4Xp0P3sUrkfhenQ/exSuR+F6dD97FK5H4Xp0P3sUrkfhenQ/exSuR+F6dD97FK5H4Xp0P3sUrkfhenQ/exSuR+F6dD97FK5H4Xp0P3sUrkfhenQ/exSuR+F6dD97FK5H4Xp0P3sUrkfhenQ/exSuR+F6dD97FK5H4Xp0P3sUrkfhenQ/exSuR+F6dD97FK5H4Xp0P3sUrkfhenQ/exSuR+F6dD97FK5H4Xp0P3sUrkfhenQ/exSuR+F6dD97FK5H4Xp0P3sUrkfhenQ/exSuR+F6dD97FK5H4Xp0P3sUrkfhenQ/exSuR+F6dD97FK5H4Xp0P3sUrkfhenQ/exSuR+F6dD97FK5H4Xp0P3sUrkfhenQ/exSuR+F6dD97FK5H4Xp0P3sUrkfhenQ/exSuR+F6dD97FK5H4Xp0P3sUrkfhenQ/exSuR+F6dD97FK5H4Xp0P3sUrkfhenQ/exSuR+F6dD97FK5H4Xp0P3sUrkfhenQ/exSuR+F6dD97FK5H4Xp0P3sUrkfhenQ/exSuR+F6dD97FK5H4Xp0P3sUrkfhenQ/exSuR+F6dD97FK5H4Xp0P3sUrkfhenQ/exSuR+F6dD97FK5H4Xp0P3sUrkfhenQ/exSuR+F6dD97FK5H4Xp0P3sUrkfhenQ/exSuR+F6dD97FK5H4Xp0P3sUrkfhenQ/exSuR+F6dD97FK5H4Xp0P3sUrkfhenQ/exSuR+F6dD97FK5H4Xp0P3sUrkfhenQ/exSuR+F6dD97FK5H4Xp0P3sUrkfhenQ/exSuR+F6dD97FK5H4Xp0P3sUrkfhenQ/exSuR+F6dD97FK5H4Xp0P3sUrkfhenQ/exSuR+F6dD97FK5H4Xp0P3sUrkfhenQ/exSuR+F6dD97FK5H4Xp0P3sUrkfhenQ/exSuR+F6dD97FK5H4Xp0P3sUrkfhenQ/exSuR+F6dD97FK5H4Xp0P3sUrkfhenQ/exSuR+F6dD97FK5H4Xp0P3sUrkfhenQ/exSuR+F6dD97FK5H4Xp0P3sUrkfhenQ/exSuR+F6dD97FK5H4Xp0P3sUrkfhenQ/exSuR+F6dD97FK5H4Xp0P3sUrkfhenQ/exSuR+F6dD97FK5H4Xp0P3sUrkfhenQ/exSuR+F6dD97FK5H4Xp0P3sUrkfhenQ/exSuR+F6dD97FK5H4Xp0P3sUrkfhenQ/exSuR+F6dD97FK5H4Xp0P3sUrkfhenQ/exSuR+F6dD97FK5H4Xp0P3sUrkfhenQ/exSuR+F6dD97FK5H4Xp0P3sUrkfhenQ/exSuR+F6dD97FK5H4Xp0P3sUrkfhenQ/exSuR+F6dD97FK5H4Xp0P3sUrkfhenQ/"
        },
        "AVLT-Sum": {
            "theta_kde": {
                "data": "k05VTVBZAQB2AHsnZGVzY3InOiAnPGY4JywgJ2ZvcnRyYW5fb3JkZXInOiBGYWxzZSwgJ3NoYXBlJzogKDk5LCksIH0gICAgICAgICAgICAgICAgICAgICAgICAgICAgICAgICAgICAgICAgICAgICAgICAgICAgICAgICAgIAo7AHarNsk7QKoTJB02gCNArPEjd90QOkBaNFxvpLM7QLa5Z6L9+TBAftt2zL0HQEAu3tlAFlAxQOe83CXxqew/iRT2dhb9MUAw1jLkhUc6QIDf7URC7idA+e6gzkpRQUAPZ1MyD008QJl/dgQC4D5AYeiGehGOQEAfcwMPgL0/QLow8yQwTyNAqL22t7WCLkBCaOxBp8BAQEEiYOFJi0FA6ckADSybOEAIWqtDZbkoQDwqCLXPsh3AJo5sfnHZK0Be4She3uU+QDQcFA1vkRzAbkVRzB5fP0BAOab4NJw7QLo5Qc0BkhhAoSOpH7KMQUCJLbyKduAjQH4oTPjkCEBA4mqoZevyP0Bs/sB0t+8/QNKp/3slpDhAIbEQvstvOUCoV9/zbl85QCps03x4/DZA2DXCdx33M0ChL5KusoIuQC5LYtydRUBAP1JY2hmvNkDaUv5dHdc4QOQO0o7+wDhAJYKp9FV2M0CwAlINKUk1QIrVBRU6hDtAJzXjrlQYPkBPwrE96Qk7QPEX1qxU8DBA7549IQoKO0B3R9BVU5MzQGVo34TuyEBAzmtW9fdUNkBnLhXyGZhAQCVCwaNkbD1AoHG5XaJnNkB0mcMX7aA3QF4gKVNkMUFAoRkPr+OEQEDrXqYRpos1QHJUGiUO4TFAkaaa5sFIO0CF+MNwDoT0Pwa+omAfCzlAeNhbXDJYM0CaVFJHW3szQMmWT1M7LkFA7L3GqJGSDMDGZZyogPpAQE09wpo1tD1AcH9wJ3ucMUA7PnA8PbQsQCF3byrl4TtADrYFK1EzQEBQAup1zsw9QPyKV0ikTB5A+crUS4D9K0DTs7zSSkdBQGx57EnQVzRAKO+htCp+P0AmzdTcIJM7QBkdYcFG3D1A1MAEtu6iPUAugzaUDysQwGzuv7OHnD9AqMD22sD6MkC0WAUtwUgyQOxbE2gjlUFAQA0DaTvcQEAZV9FahQdBQGLvNT0u8TZAXY3/Rgr3L0CySk0ts5v3P6k0GG0XIj1Ax2FU0BR5OUDsCbpEJVs/QGUL3OThGChAAFupA+UoNEA=",
                "weights": "k05VTVBZAQB2AHsnZGVzY3InOiAnPGY4JywgJ2ZvcnRyYW5fb3JkZXInOiBGYWxzZSwgJ3NoYXBlJzogKDk5LCksIH0gICAgICAgICAgICAgICAgICAgICAgICAgICAgICAgICAgICAgICAgICAgICAgICAgICAgICAgICAgIApbv1Kg1q+EP1u/UqDWr4Q/W79SoNavhD9bv1Kg1q+EP1u/UqDWr4Q/W79SoNavhD9bv1Kg1q+EP1u/UqDWr4Q/W79SoNavhD9bv1Kg1q+EP1u/UqDWr4Q/W79SoNavhD9bv1Kg1q+EP1u/UqDWr4Q/W79SoNavhD9bv1Kg1q+EP1u/UqDWr4Q/W79SoNavhD9bv1Kg1q+EP1u/UqDWr4Q/W79SoNavhD9bv1Kg1q+EP1u/UqDWr4Q/W79SoNavhD9bv1Kg1q+EP1u/UqDWr4Q/W79SoNavhD9bv1Kg1q+EP1u/UqDWr4Q/W79SoNavhD9bv1Kg1q+EP1u/UqDWr4Q/W79SoNavhD9bv1Kg1q+EP1u/UqDWr4Q/W79SoNavhD9bv1Kg1q+EP1u/UqDWr4Q/W79SoNavhD9bv1Kg1q+EP1u/UqDWr4Q/W79SoNavhD9bv1Kg1q+EP1u/UqDWr4Q/W79SoNavhD9bv1Kg1q+EP1u/UqDWr4Q/W79SoNavhD9bv1Kg1q+EP1u/UqDWr4Q/W79SoNavhD9bv1Kg1q+EP1u/UqDWr4Q/W79SoNavhD9bv1Kg1q+EP1u/UqDWr4Q/W79SoNavhD9bv1Kg1q+EP1u/UqDWr4Q/W79SoNavhD9bv1Kg1q+EP1u/UqDWr4Q/W79SoNavhD9bv1Kg1q+EP1u/UqDWr4Q/W79SoNavhD9bv1Kg1q+EP1u/UqDWr4Q/W79SoNavhD9bv1Kg1q+EP1u/UqDWr4Q/W79SoNavhD9bv1Kg1q+EP1u/UqDWr4Q/W79SoNavhD9bv1Kg1q+EP1u/UqDWr4Q/W79SoNavhD9bv1Kg1q+EP1u/UqDWr4Q/W79SoNavhD9bv1Kg1q+EP1u/UqDWr4Q/W79SoNavhD9bv1Kg1q+EP1u/UqDWr4Q/W79SoNavhD9bv1Kg1q+EP1u/UqDWr4Q/W79SoNavhD9bv1Kg1q+EP1u/UqDWr4Q/W79SoNavhD9bv1Kg1q+EP1u/UqDWr4Q/W79SoNavhD9bv1Kg1q+EP1u/UqDWr4Q/W79SoNavhD8=",
                "bandwidth": 4.294919865531019
            },
            "theta_weights": "k05VTVBZAQB2AHsnZGVzY3InOiAnPGY4JywgJ2ZvcnRyYW5fb3JkZXInOiBGYWxzZSwgJ3NoYXBlJzogKDIwMCwpLCB9ICAgICAgICAgICAgICAgICAgICAgICAgICAgICAgICAgICAgICAgICAgICAgICAgICAgICAgICAgIAp7FK5H4Xp0P3sUrkfhenQ/exSuR+F6dD97FK5H4Xp0P3sUrkfhenQ/exSuR+F6dD97FK5H4Xp0P3sUrkfhenQ/exSuR+F6dD97FK5H4Xp0P3sUrkfhenQ/exSuR+F6dD97FK5H4Xp0P3sUrkfhenQ/exSuR+F6dD97FK5H4Xp0P3sUrkfhenQ/exSuR+F6dD97FK5H4Xp0P3sUrkfhenQ/exSuR+F6dD97FK5H4Xp0P3sUrkfhenQ/exSuR+F6dD97FK5H4Xp0P3sUrkfhenQ/exSuR+F6dD97FK5H4Xp0P3sUrkfhenQ/exSuR+F6dD97FK5H4Xp0P3sUrkfhenQ/exSuR+F6dD97FK5H4Xp0P3sUrkfhenQ/exSuR+F6dD97FK5H4Xp0P3sUrkfhenQ/exSuR+F6dD97FK5H4Xp0P3sUrkfhenQ/exSuR+F6dD97FK5H4Xp0P3sUrkfhenQ/exSuR+F6dD97FK5H4Xp0P3sUrkfhenQ/exSuR+F6dD97FK5H4Xp0P3sUrkfhenQ/exSuR+F6dD97FK5H4Xp0P3sUrkfhenQ/exSuR+F6dD97FK5H4Xp0P3sUrkfhenQ/exSuR+F6dD97FK5H4Xp0P3sUrkfhenQ/exSuR+F6dD97FK5H4Xp0P3sUrkfhenQ/exSuR+F6dD97FK5H4Xp0P3sUrkfhenQ/exSuR+F6dD97FK5H4Xp0P3sUrkfhenQ/exSuR+F6dD97FK5H4Xp0P3sUrkfhenQ/exSuR+F6dD97FK5H4Xp0P3sUrkfhenQ/exSuR+F6dD97FK5H4Xp0P3sUrkfhenQ/exSuR+F6dD97FK5H4Xp0P3sUrkfhenQ/exSuR+F6dD97FK5H4Xp0P3sUrkfhenQ/exSuR+F6dD97FK5H4Xp0P3sUrkfhenQ/exSuR+F6dD97FK5H4Xp0P3sUrkfhenQ/exSuR+F6dD97FK5H4Xp0P3sUrkfhenQ/exSuR+F6dD97FK5H4Xp0P3sUrkfhenQ/exSuR+F6dD97FK5H4Xp0P3sUrkfhenQ/exSuR+F6dD97FK5H4Xp0P3sUrkfhenQ/exSuR+F6dD97FK5H4Xp0P3sUrkfhenQ/exSuR+F6dD97FK5H4Xp0P3sUrkfhenQ/exSuR+F6dD97FK5H4Xp0P3sUrkfhenQ/exSuR+F6dD97FK5H4Xp0P3sUrkfhenQ/exSuR+F6dD97FK5H4Xp0P3sUrkfhenQ/exSuR+F6dD97FK5H4Xp0P3sUrkfhenQ/exSuR+F6dD97FK5H4Xp0P3sUrkfhenQ/exSuR+F6dD97FK5H4Xp0P3sUrkfhenQ/exSuR+F6dD97FK5H4Xp0P3sUrkfhenQ/exSuR+F6dD97FK5H4Xp0P3sUrkfhenQ/exSuR+F6dD97FK5H4Xp0P3sUrkfhenQ/exSuR+F6dD97FK5H4Xp0P3sUrkfhenQ/exSuR+F6dD97FK5H4Xp0P3sUrkfhenQ/exSuR+F6dD97FK5H4Xp0P3sUrkfhenQ/exSuR+F6dD97FK5H4Xp0P3sUrkfhenQ/exSuR+F6dD97FK5H4Xp0P3sUrkfhenQ/exSuR+F6dD97FK5H4Xp0P3sUrkfhenQ/exSuR+F6dD97FK5H4Xp0P3sUrkfhenQ/exSuR+F6dD97FK5H4Xp0P3sUrkfhenQ/exSuR+F6dD97FK5H4Xp0P3sUrkfhenQ/exSuR+F6dD97FK5H4Xp0P3sUrkfhenQ/exSuR+F6dD97FK5H4Xp0P3sUrkfhenQ/exSuR+F6dD97FK5H4Xp0P3sUrkfhenQ/exSuR+F6dD97FK5H4Xp0P3sUrkfhenQ/exSuR+F6dD97FK5H4Xp0P3sUrkfhenQ/exSuR+F6dD97FK5H4Xp0P3sUrkfhenQ/exSuR+F6dD97FK5H4Xp0P3sUrkfhenQ/exSuR+F6dD97FK5H4Xp0P3sUrkfhenQ/exSuR+F6dD97FK5H4Xp0P3sUrkfhenQ/exSuR+F6dD97FK5H4Xp0P3sUrkfhenQ/exSuR+F6dD97FK5H4Xp0P3sUrkfhenQ/exSuR+F6dD97FK5H4Xp0P3sUrkfhenQ/exSuR+F6dD97FK5H4Xp0P3sUrkfhenQ/",
            "phi_kde": {
                "data": "k05VTVBZAQB2AHsnZGVzY3InOiAnPGY4JywgJ2ZvcnRyYW5fb3JkZXInOiBGYWxzZSwgJ3NoYXBlJzogKDEwMSwpLCB9ICAgICAgICAgICAgICAgICAgICAgICAgICAgICAgICAgICAgICAgICAgICAgICAgICAgICAgICAgIApLt4XGjGtJQIUdXcVebkxA3jGd+1VeRUDgMuzl/K5GQLmropHV10tAdXLl2xR+QkDDJ/EM2DpCQFLa9TYbnkdA/tjGHP1GRUB4KjZCNPtGQAOf/T1vRVBALkEegDhzR0A87rzRQkRDQPq6JD5EjEpAu7GX56x2SUDhvVy2TSdQQIQg55Isa0RAyijfD+LgSECQCBPuM21DQMzqpy26bkRAk8HP2bOxSUB08EcGdn1FQCAZKrEjAkRAM5nc2rI1RkCswCtPGrBTQLdHOWh1qk9AMRmGuNP7S0BndHmFhpZDQGKK77MbMUNAX0Uzhw22SECupch5HH9EQEaAlrNnO0JAL79RLhplRkCnH6cYzudMQIrC4HBtiUhA35kwlXwfTEB/nhjgnWJDQNKEeOZ2uUJAPEpxVHMeQkBKaKk9FkZFQOrCLujlF0ZAv1jFN1W2RUC5Oj1GPDdJQGcBXSUUYFJAEnRWffmRR0BTAdAw09BEQH752V0DOlJABt2xU7BHRUDwjuwrIjNNQMB+x22z0kNApiCBlmxXQkBuagTUQt9EQHOx0w/CQ0VAIOB/ogCFR0BCmwyrStdCQF8NI4CmWkdAlqWqsZmyS0CPQuK1LpdNQOmtpwQsIk5AZxRwiOEtS0CkMCdsX9hIQDnNhyNHuUJANeIqH5V6T0Dy4hCYs3NEQLdPkfzzpkRAvyugif7QQkCHCkL9NiFKQCfOgnOrrUNAFgJmGOxYQ0AtXgdERfBGQIcXyefKz0NAR3kVxlMvSEDx23lbs61KQGVJrZTagklA1gEMwp1WRUCGAq95l7FMQECSoCxVqUlANzRgOxwnS0DALYHFvbdDQM9pWq0wXFBAlFl5T0B0SkDNLjejYQdKQNAlH791uUtAx8ii/E7wU0DNFCVmIvVNQLvp/UrxEUNA4R5AeObXRUAWpO9SUMdFQGVnk+lIaklADIKjasJkTkDX2ulAELVFQPj52EQ3eElAFANvwkc9Q0DDGOdZ6XJFQOhDxmQ8PkhA1XbuWfrfQ0ADHTGV8BZEQCpjJvJQcUhA6CPRO6RYTkChcNIv6FBJQD+EL1I7/EJA",
                "weights": "k05VTVBZAQB2AHsnZGVzY3InOiAnPGY4JywgJ2ZvcnRyYW5fb3JkZXInOiBGYWxzZSwgJ3NoYXBlJzogKDEwMSwpLCB9ICAgICAgICAgICAgICAgICAgICAgICAgICAgICAgICAgICAgICAgICAgICAgICAgICAgICAgICAgIAr72WJl+EaEP/vZYmX4RoQ/+9liZfhGhD/72WJl+EaEP/vZYmX4RoQ/+9liZfhGhD/72WJl+EaEP/vZYmX4RoQ/+9liZfhGhD/72WJl+EaEP/vZYmX4RoQ/+9liZfhGhD/72WJl+EaEP/vZYmX4RoQ/+9liZfhGhD/72WJl+EaEP/vZYmX4RoQ/+9liZfhGhD/72WJl+EaEP/vZYmX4RoQ/+9liZfhGhD/72WJl+EaEP/vZYmX4RoQ/+9liZfhGhD/72WJl+EaEP/vZYmX4RoQ/+9liZfhGhD/72WJl+EaEP/vZYmX4RoQ/+9liZfhGhD/72WJl+EaEP/vZYmX4RoQ/+9liZfhGhD/72WJl+EaEP/vZYmX4RoQ/+9liZfhGhD/72WJl+EaEP/vZYmX4RoQ/+9liZfhGhD/72WJl+EaEP/vZYmX4RoQ/+9liZfhGhD/72WJl+EaEP/vZYmX4RoQ/+9liZfhGhD/72WJl+EaEP/vZYmX4RoQ/+9liZfhGhD/72WJl+EaEP/vZYmX4RoQ/+9liZfhGhD/72WJl+EaEP/vZYmX4RoQ/+9liZfhGhD/72WJl+EaEP/vZYmX4RoQ/+9liZfhGhD/72WJl+EaEP/vZYmX4RoQ/+9liZfhGhD/72WJl+EaEP/vZYmX4RoQ/+9liZfhGhD/72WJl+EaEP/vZYmX4RoQ/+9liZfhGhD/72WJl+EaEP/vZYmX4RoQ/+9liZfhGhD/72WJl+EaEP/vZYmX4RoQ/+9liZfhGhD/72WJl+EaEP/vZYmX4RoQ/+9liZfhGhD/72WJl+EaEP/vZYmX4RoQ/+9liZfhGhD/72WJl+EaEP/vZYmX4RoQ/+9liZfhGhD/72WJl+EaEP/vZYmX4RoQ/+9liZfhGhD/72WJl+EaEP/vZYmX4RoQ/+9liZfhGhD/72WJl+EaEP/vZYmX4RoQ/+9liZfhGhD/72WJl+EaEP/vZYmX4RoQ/+9liZfhGhD/72WJl+EaEP/vZYmX4RoQ/+9liZfhGhD/72WJl+EaEP/vZYmX4RoQ/+9liZfhGhD/72WJl+EaEP/vZYmX4RoQ/",
                "bandwidth": 4.040193379157793
            },
            "phi_weights": "k05VTVBZAQB2AHsnZGVzY3InOiAnPGY4JywgJ2ZvcnRyYW5fb3JkZXInOiBGYWxzZSwgJ3NoYXBlJzogKDIwMCwpLCB9ICAgICAgICAgICAgICAgICAgICAgICAgICAgICAgICAgICAgICAgICAgICAgICAgICAgICAgICAgIAp7FK5H4Xp0P3sUrkfhenQ/exSuR+F6dD97FK5H4Xp0P3sUrkfhenQ/exSuR+F6dD97FK5H4Xp0P3sUrkfhenQ/exSuR+F6dD97FK5H4Xp0P3sUrkfhenQ/exSuR+F6dD97FK5H4Xp0P3sUrkfhenQ/exSuR+F6dD97FK5H4Xp0P3sUrkfhenQ/exSuR+F6dD97FK5H4Xp0P3sUrkfhenQ/exSuR+F6dD97FK5H4Xp0P3sUrkfhenQ/exSuR+F6dD97FK5H4Xp0P3sUrkfhenQ/exSuR+F6dD97FK5H4Xp0P3sUrkfhenQ/exSuR+F6dD97FK5H4Xp0P3sUrkfhenQ/exSuR+F6dD97FK5H4Xp0P3sUrkfhenQ/exSuR+F6dD97FK5H4Xp0P3sUrkfhenQ/exSuR+F6dD97FK5H4Xp0P3sUrkfhenQ/exSuR+F6dD97FK5H4Xp0P3sUrkfhenQ/exSuR+F6dD97FK5H4Xp0P3sUrkfhenQ/exSuR+F6dD97FK5H4Xp0P3sUrkfhenQ/exSuR+F6dD97FK5H4Xp0P3sUrkfhenQ/exSuR+F6dD97FK5H4Xp0P3sUrkfhenQ/exSuR+F6dD97FK5H4Xp0P3sUrkfhenQ/exSuR+F6dD97FK5H4Xp0P3sUrkfhenQ/exSuR+F6dD97FK5H4Xp0P3sUrkfhenQ/exSuR+F6dD97FK5H4Xp0P3sUrkfhenQ/exSuR+F6dD97FK5H4Xp0P3sUrkfhenQ/exSuR+F6dD97FK5H4Xp0P3sUrkfhenQ/exSuR+F6dD97FK5H4Xp0P3sUrkfhenQ/exSuR+F6dD97FK5H4Xp0P3sUrkfhenQ/exSuR+F6dD97FK5H4Xp0P3sUrkfhenQ/exSuR+F6dD97FK5H4Xp0P3sUrkfhenQ/exSuR+F6dD97FK5H4Xp0P3sUrkfhenQ/exSuR+F6dD97FK5H4Xp0P3sUrkfhenQ/exSuR+F6dD97FK5H4Xp0P3sUrkfhenQ/exSuR+F6dD97FK5H4Xp0P3sUrkfhenQ/exSuR+F6dD97FK5H4Xp0P3sUrkfhenQ/exSuR+F6dD97FK5H4Xp0P3sUrkfhenQ/exSuR+F6dD97FK5H4Xp0P3sUrkfhenQ/exSuR+F6dD97FK5H4Xp0P3sUrkfhenQ/exSuR+F6dD97FK5H4Xp0P3sUrkfhenQ/exSuR+F6dD97FK5H4Xp0P3sUrkfhenQ/exSuR+F6dD97FK5H4Xp0P3sUrkfhenQ/exSuR+F6dD97FK5H4Xp0P3sUrkfhenQ/exSuR+F6dD97FK5H4Xp0P3sUrkfhenQ/exSuR+F6dD97FK5H4Xp0P3sUrkfhenQ/exSuR+F6dD97FK5H4Xp0P3sUrkfhenQ/exSuR+F6dD97FK5H4Xp0P3sUrkfhenQ/exSuR+F6dD97FK5H4Xp0P3sUrkfhenQ/exSuR+F6dD97FK5H4Xp0P3sUrkfhenQ/exSuR+F6dD97FK5H4Xp0P3sUrkfhenQ/exSuR+F6dD97FK5H4Xp0P3sUrkfhenQ/exSuR+F6dD97FK5H4Xp0P3sUrkfhenQ/exSuR+F6dD97FK5H4Xp0P3sUrkfhenQ/exSuR+F6dD97FK5H4Xp0P3sUrkfhenQ/exSuR+F6dD97FK5H4Xp0P3sUrkfhenQ/exSuR+F6dD97FK5H4Xp0P3sUrkfhenQ/exSuR+F6dD97FK5H4Xp0P3sUrkfhenQ/exSuR+F6dD97FK5H4Xp0P3sUrkfhenQ/exSuR+F6dD97FK5H4Xp0P3sUrkfhenQ/exSuR+F6dD97FK5H4Xp0P3sUrkfhenQ/exSuR+F6dD97FK5H4Xp0P3sUrkfhenQ/exSuR+F6dD97FK5H4Xp0P3sUrkfhenQ/exSuR+F6dD97FK5H4Xp0P3sUrkfhenQ/exSuR+F6dD97FK5H4Xp0P3sUrkfhenQ/exSuR+F6dD97FK5H4Xp0P3sUrkfhenQ/exSuR+F6dD97FK5H4Xp0P3sUrkfhenQ/exSuR+F6dD97FK5H4Xp0P3sUrkfhenQ/exSuR+F6dD97FK5H4Xp0P3sUrkfhenQ/exSuR+F6dD97FK5H4Xp0P3sUrkfhenQ/"
        },
        "FUS-FCI": {
            "theta_kde": {
                "data": "k05VTVBZAQB2AHsnZGVzY3InOiAnPGY4JywgJ2ZvcnRyYW5fb3JkZXInOiBGYWxzZSwgJ3NoYXBlJzogKDk5LCksIH0gICAgICAgICAgICAgICAgICAgICAgICAgICAgICAgICAgICAgICAgICAgICAgICAgICAgICAgICAgIAqYyQPi9fYpwDeMe0MxMijA31ytxDDgJcBzSd0wUiorwFzDoOvPAyfAyMbn+ndPKMA5i6PFz5clwC19BGVOYifAVu0UT/XmJ8DnJoCJyZwswMFWChC4UyvAofleHVwlMcAs0IznJdUmwFi94QIuyTPA89NnGHM3JcB9EEACQJAowOiLefEgJivAPnCdiqu6JsDtZ/hxyR8xwBnZhZV0/yzAItboJ36UK8DSOb1elgAxwHYpRFopfSbAbhtn7JHYLsColVTliDMrwDrQGTdgYSjA18xv2CfVLcBRf/5l/xEmwLyd4LxzBSvAYjsN7HPPKcCkRS0ZnnUmwLPh2ZgmKirA6CXR5/2gJ8BCOJBotUMnwNGIFAYokDPAxo16wktfLsAjDducEIIpwMPExgho/C3AuO5QE+hMMMCCMY728DspwK+uDQ0KySbAsd16ZqbMKMACpOB/oZ8mwEZIJeT2eTDAW6TQBIsSJsDSlUo1IEowwMh22+wd6SrAUKeljPTiLsDCWHSi1rkswGRMy2uPcTHAY3kqzbczJsDGNbsATRYnwIczZDcUxSnAl2UiTNxsLMAplxIhs44lwFgPU4vURyXAsdKCqNbCJcBE+HeVwcstwHl6dWxz/yjAR5l4wSd9KcC0LjaKNgowwLLKyvgOBjDAIm23/riuKMCPeFLXrA0pwKsSjwypISzAiXct5NtcLMD9OElyuFYqwA0ktIACXCnAd6eRXUcoLMDSDuC9LNgywCs/1obI0ijAbIcgDy99KcAZkT9NwpAnwLnVXEgaQCrA9QymkDLQKMAcilrV27kuwH24cMOydCfAINGwFnyHKsBHFQEHAw42wFjktGlV7ybALolBtSkHJsDKr+jmi+4wwI3K348vuyvACF7aIfybJsAlPVIkaPwowOKNj4+4PSjAEs7po6zQNMCHQdAyAEcpwEt0k0M28yfA3BBJsEPkMsCHy7Z+DvclwICFZRkqHjHAZUC6dhwxJsC07UBdiKsrwCqP4CGzNSbA1YcovzKnJ8AqQkGA+IcvwEh85i1qjCjA/0RIFFrnKsA=",
                "weights": "k05VTVBZAQB2AHsnZGVzY3InOiAnPGY4JywgJ2ZvcnRyYW5fb3JkZXInOiBGYWxzZSwgJ3NoYXBlJzogKDk5LCksIH0gICAgICAgICAgICAgICAgICAgICAgICAgICAgICAgICAgICAgICAgICAgICAgICAgICAgICAgICAgIApbv1Kg1q+EP1u/UqDWr4Q/W79SoNavhD9bv1Kg1q+EP1u/UqDWr4Q/W79SoNavhD9bv1Kg1q+EP1u/UqDWr4Q/W79SoNavhD9bv1Kg1q+EP1u/UqDWr4Q/W79SoNavhD9bv1Kg1q+EP1u/UqDWr4Q/W79SoNavhD9bv1Kg1q+EP1u/UqDWr4Q/W79SoNavhD9bv1Kg1q+EP1u/UqDWr4Q/W79SoNavhD9bv1Kg1q+EP1u/UqDWr4Q/W79SoNavhD9bv1Kg1q+EP1u/UqDWr4Q/W79SoNavhD9bv1Kg1q+EP1u/UqDWr4Q/W79SoNavhD9bv1Kg1q+EP1u/UqDWr4Q/W79SoNavhD9bv1Kg1q+EP1u/UqDWr4Q/W79SoNavhD9bv1Kg1q+EP1u/UqDWr4Q/W79SoNavhD9bv1Kg1q+EP1u/UqDWr4Q/W79SoNavhD9bv1Kg1q+EP1u/UqDWr4Q/W79SoNavhD9bv1Kg1q+EP1u/UqDWr4Q/W79SoNavhD9bv1Kg1q+EP1u/UqDWr4Q/W79SoNavhD9bv1Kg1q+EP1u/UqDWr4Q/W79SoNavhD9bv1Kg1q+EP1u/UqDWr4Q/W79SoNavhD9bv1Kg1q+EP1u/UqDWr4Q/W79SoNavhD9bv1Kg1q+EP1u/UqDWr4Q/W79SoNavhD9bv1Kg1q+EP1u/UqDWr4Q/W79SoNavhD9bv1Kg1q+EP1u/UqDWr4Q/W79SoNavhD9bv1Kg1q+EP1u/UqDWr4Q/W79SoNavhD9bv1Kg1q+EP1u/UqDWr4Q/W79SoNavhD9bv1Kg1q+EP1u/UqDWr4Q/W79SoNavhD9bv1Kg1q+EP1u/UqDWr4Q/W79SoNavhD9bv1Kg1q+EP1u/UqDWr4Q/W79SoNavhD9bv1Kg1q+EP1u/UqDWr4Q/W79SoNavhD9bv1Kg1q+EP1u/UqDWr4Q/W79SoNavhD9bv1Kg1q+EP1u/UqDWr4Q/W79SoNavhD9bv1Kg1q+EP1u/UqDWr4Q/W79SoNavhD9bv1Kg1q+EP1u/UqDWr4Q/W79SoNavhD8=",
                "bandwidth": 1.027130129682347
            },
            "theta_weights": "k05VTVBZAQB2AHsnZGVzY3InOiAnPGY4JywgJ2ZvcnRyYW5fb3JkZXInOiBGYWxzZSwgJ3NoYXBlJzogKDIwMCwpLCB9ICAgICAgICAgICAgICAgICAgICAgICAgICAgICAgICAgICAgICAgICAgICAgICAgICAgICAgICAgIAp7FK5H4Xp0P3sUrkfhenQ/exSuR+F6dD97FK5H4Xp0P3sUrkfhenQ/exSuR+F6dD97FK5H4Xp0P3sUrkfhenQ/exSuR+F6dD97FK5H4Xp0P3sUrkfhenQ/exSuR+F6dD97FK5H4Xp0P3sUrkfhenQ/exSuR+F6dD97FK5H4Xp0P3sUrkfhenQ/exSuR+F6dD97FK5H4Xp0P3sUrkfhenQ/exSuR+F6dD97FK5H4Xp0P3sUrkfhenQ/exSuR+F6dD97FK5H4Xp0P3sUrkfhenQ/exSuR+F6dD97FK5H4Xp0P3sUrkfhenQ/exSuR+F6dD97FK5H4Xp0P3sUrkfhenQ/exSuR+F6dD97FK5H4Xp0P3sUrkfhenQ/exSuR+F6dD97FK5H4Xp0P3sUrkfhenQ/exSuR+F6dD97FK5H4Xp0P3sUrkfhenQ/exSuR+F6dD97FK5H4Xp0P3sUrkfhenQ/exSuR+F6dD97FK5H4Xp0P3sUrkfhenQ/exSuR+F6dD97FK5H4Xp0P3sUrkfhenQ/exSuR+F6dD97FK5H4Xp0P3sUrkfhenQ/exSuR+F6dD97FK5H4Xp0P3sUrkfhenQ/exSuR+F6dD97FK5H4Xp0P3sUrkfhenQ/exSuR+F6dD97FK5H4Xp0P3sUrkfhenQ/exSuR+F6dD97FK5H4Xp0P3sUrkfhenQ/exSuR+F6dD97FK5H4Xp0P3sUrkfhenQ/exSuR+F6dD97FK5H4Xp0P3sUrkfhenQ/exSuR+F6dD97FK5H4Xp0P3sUrkfhenQ/exSuR+F6dD97FK5H4Xp0P3sUrkfhenQ/exSuR+F6dD97FK5H4Xp0P3sUrkfhenQ/exSuR+F6dD97FK5H4Xp0P3sUrkfhenQ/exSuR+F6dD97FK5H4Xp0P3sUrkfhenQ/exSuR+F6dD97FK5H4Xp0P3sUrkfhenQ/exSuR+F6dD97FK5H4Xp0P3sUrkfhenQ/exSuR+F6dD97FK5H4Xp0P3sUrkfhenQ/exSuR+F6dD97FK5H4Xp0P3sUrkfhenQ/exSuR+F6dD97FK5H4Xp0P3sUrkfhenQ/exSuR+F6dD97FK5H4Xp0P3sUrkfhenQ/exSuR+F6dD97FK5H4Xp0P3sUrkfhenQ/exSuR+F6dD97FK5H4Xp0P3sUrkfhenQ/exSuR+F6dD97FK5H4Xp0P3sUrkfhenQ/exSuR+F6dD97FK5H4Xp0P3sUrkfhenQ/exSuR+F6dD97FK5H4Xp0P3sUrkfhenQ/exSuR+F6dD97FK5H4Xp0P3sUrkfhenQ/exSuR+F6dD97FK5H4Xp0P3sUrkfhenQ/exSuR+F6dD97FK5H4Xp0P3sUrkfhenQ/exSuR+F6dD97FK5H4Xp0P3sUrkfhenQ/exSuR+F6dD97FK5H4Xp0P3sUrkfhenQ/exSuR+F6dD97FK5H4Xp0P3sUrkfhenQ/exSuR+F6dD97FK5H4Xp0P3sUrkfhenQ/exSuR+F6dD97FK5H4Xp0P3sUrkfhenQ/exSuR+F6dD97FK5H4Xp0P3sUrkfhenQ/exSuR+F6dD97FK5H4Xp0P3sUrkfhenQ/exSuR+F6dD97FK5H4Xp0P3sUrkfhenQ/exSuR+F6dD97FK5H4Xp0P3sUrkfhenQ/exSuR+F6dD97FK5H4Xp0P3sUrkfhenQ/exSuR+F6dD97FK5H4Xp0P3sUrkfhenQ/exSuR+F6dD97FK5H4Xp0P3sUrkfhenQ/exSuR+F6dD97FK5H4Xp0P3sUrkfhenQ/exSuR+F6dD97FK5H4Xp0P3sUrkfhenQ/exSuR+F6dD97FK5H4Xp0P3sUrkfhenQ/exSuR+F6dD97FK5H4Xp0P3sUrkfhenQ/exSuR+F6dD97FK5H4Xp0P3sUrkfhenQ/exSuR+F6dD97FK5H4Xp0P3sUrkfhenQ/exSuR+F6dD97FK5H4Xp0P3sUrkfhenQ/exSuR+F6dD97FK5H4Xp0P3sUrkfhenQ/exSuR+F6dD97FK5H4Xp0P3sUrkfhenQ/exSuR+F6dD97FK5H4Xp0P3sUrkfhenQ/exSuR+F6dD97FK5H4Xp0P3sUrkfhenQ/exSuR+F6dD97FK5H4Xp0P3sUrkfhenQ/",
            "phi_kde": {
                "data": "k05VTVBZAQB2AHsnZGVzY3InOiAnPGY4JywgJ2ZvcnRyYW5fb3JkZXInOiBGYWxzZSwgJ3NoYXBlJzogKDEwMSwpLCB9ICAgICAgICAgICAgICAgICAgICAgICAgICAgICAgICAgICAgICAgICAgICAgICAgICAgICAgICAgIAq/mBRHBfIWwFH5wibOUiTARkMJIhP/H8DP3FWszUckwHTJsdD7jSHA2zWLbtPxI8BpjmIQMEMRwAAGnIzCIA3ADZhnx2tLIcDeYiKg8+UewPqi1THEIiHANEDc+gTG+r8cpT/adbYgwBhFuZRUQBzAXw144JQ4IMAph2LoanggwDjAY32UmRvAfehxijIPDMB31NZbXwIewMiNTTbrDyHAQuLWAlKeG8D36oSs9/QiwOv3/qvzUhnARNyq9Cc0I8AFo8wPbrsSwMDnNs9JtRzAq6n/WkOkDsDf0+U9E5kiwP9d1+LcVCHAhK/eyVHXFMAvNumGQOYgwMkIMJ6wIBvAezU09T/fIcD/S2MVjmwXwKQC0ZPTcyLAkL4eau3tHcDjYhZoeh8iwBvWY8qohSDAp8IwP7NyGMBsIkz9yM0iwF/AvpsQCx7ADMcHx8HPFcCjcDi7srcSwJb2tvPjeyPAOjjxrpHOIMBFl5Uj6/wZwH26OMetxRzA/uNX+wUPD8APE1Gt4dQhwOd6hT+aHBvAAqVWHY28I8B/EBoN1V0gwAgT72YoOPy/o1vkHxWRIsAOwq5pHxgjwMJHgNOCgBrAvCb++UggIMDaS/uDanAiwPspoU+nBiLAVCP49gQHAcBtFGR0344WwC3iMWqKySLAudEz6dGHJMCPUpHKXTQawJh/OGMGgiHAxoBhQYZcIsCpm+ePdWwhwP9Hg2qFNyLA2e9uFyDRIcBaOP12HdUdwIjnfR3zdxzAKnpOsGFPGcC2WSKpTXcfwH1OWHqBYx7ApVAoU6jgI8CTPCFsCoUiwNIfb43vYSLAbMSxXERkGsBzQZEFir4gwNw6gfAlxx3AjvghKF0qFcC6GRNneqYjwEdBHMYerSHAdGCM8TM9HcAZM1iWcSEYwJMuk9pB2R/Ac1gTnsfVIcBtycSPAUMkwNaWrj4ibRTABE7KQqyJHcDEVi2WkL8UwEwzrwZXNhzASfeM/h/MJMBWkw+92AQkwHM4f48z6R3AJpXNMb/pIMCXkj4auzQfwNnhW/XP5iLAmBIMmZziI8Bl+CL6r9oYwKo7YhFBVR3A",
                "weights": "k05VTVBZAQB2AHsnZGVzY3InOiAnPGY4JywgJ2ZvcnRyYW5fb3JkZXInOiBGYWxzZSwgJ3NoYXBlJzogKDEwMSwpLCB9ICAgICAgICAgICAgICAgICAgICAgICAgICAgICAgICAgICAgICAgICAgICAgICAgICAgICAgICAgIAr72WJl+EaEP/vZYmX4RoQ/+9liZfhGhD/72WJl+EaEP/vZYmX4RoQ/+9liZfhGhD/72WJl+EaEP/vZYmX4RoQ/+9liZfhGhD/72WJl+EaEP/vZYmX4RoQ/+9liZfhGhD/72WJl+EaEP/vZYmX4RoQ/+9liZfhGhD/72WJl+EaEP/vZYmX4RoQ/+9liZfhGhD/72WJl+EaEP/vZYmX4RoQ/+9liZfhGhD/72WJl+EaEP/vZYmX4RoQ/+9liZfhGhD/72WJl+EaEP/vZYmX4RoQ/+9liZfhGhD/72WJl+EaEP/vZYmX4RoQ/+9liZfhGhD/72WJl+EaEP/vZYmX4RoQ/+9liZfhGhD/72WJl+EaEP/vZYmX4RoQ/+9liZfhGhD/72WJl+EaEP/vZYmX4RoQ/+9liZfhGhD/72WJl+EaEP/vZYmX4RoQ/+9liZfhGhD/72WJl+EaEP/vZYmX4RoQ/+9liZfhGhD/72WJl+EaEP/vZYmX4RoQ/+9liZfhGhD/72WJl+EaEP/vZYmX4RoQ/+9liZfhGhD/72WJl+EaEP/vZYmX4RoQ/+9liZfhGhD/72WJl+EaEP/vZYmX4RoQ/+9liZfhGhD/72WJl+EaEP/vZYmX4RoQ/+9liZfhGhD/72WJl+EaEP/vZYmX4RoQ/+9liZfhGhD/72WJl+EaEP/vZYmX4RoQ/+9liZfhGhD/72WJl+EaEP/vZYmX4RoQ/+9liZfhGhD/72WJl+EaEP/vZYmX4RoQ/+9liZfhGhD/72WJl+EaEP/vZYmX4RoQ/+9liZfhGhD/72WJl+EaEP/vZYmX4RoQ/+9liZfhGhD/72WJl+EaEP/vZYmX4RoQ/+9liZfhGhD/72WJl+EaEP/vZYmX4RoQ/+9liZfhGhD/72WJl+EaEP/vZYmX4RoQ/+9liZfhGhD/72WJl+EaEP/vZYmX4RoQ/+9liZfhGhD/72WJl+EaEP/vZYmX4RoQ/+9liZfhGhD/72WJl+EaEP/vZYmX4RoQ/+9liZfhGhD/72WJl+EaEP/vZYmX4RoQ/+9liZfhGhD/72WJl+EaEP/vZYmX4RoQ/",
                "bandwidth": 0.8194922853632708
            },
            "phi_weights": "k05VTVBZAQB2AHsnZGVzY3InOiAnPGY4JywgJ2ZvcnRyYW5fb3JkZXInOiBGYWxzZSwgJ3NoYXBlJzogKDIwMCwpLCB9ICAgICAgICAgICAgICAgICAgICAgICAgICAgICAgICAgICAgICAgICAgICAgICAgICAgICAgICAgIAp7FK5H4Xp0P3sUrkfhenQ/exSuR+F6dD97FK5H4Xp0P3sUrkfhenQ/exSuR+F6dD97FK5H4Xp0P3sUrkfhenQ/exSuR+F6dD97FK5H4Xp0P3sUrkfhenQ/exSuR+F6dD97FK5H4Xp0P3sUrkfhenQ/exSuR+F6dD97FK5H4Xp0P3sUrkfhenQ/exSuR+F6dD97FK5H4Xp0P3sUrkfhenQ/exSuR+F6dD97FK5H4Xp0P3sUrkfhenQ/exSuR+F6dD97FK5H4Xp0P3sUrkfhenQ/exSuR+F6dD97FK5H4Xp0P3sUrkfhenQ/exSuR+F6dD97FK5H4Xp0P3sUrkfhenQ/exSuR+F6dD97FK5H4Xp0P3sUrkfhenQ/exSuR+F6dD97FK5H4Xp0P3sUrkfhenQ/exSuR+F6dD97FK5H4Xp0P3sUrkfhenQ/exSuR+F6dD97FK5H4Xp0P3sUrkfhenQ/exSuR+F6dD97FK5H4Xp0P3sUrkfhenQ/exSuR+F6dD97FK5H4Xp0P3sUrkfhenQ/exSuR+F6dD97FK5H4Xp0P3sUrkfhenQ/exSuR+F6dD97FK5H4Xp0P3sUrkfhenQ/exSuR+F6dD97FK5H4Xp0P3sUrkfhenQ/exSuR+F6dD97FK5H4Xp0P3sUrkfhenQ/exSuR+F6dD97FK5H4Xp0P3sUrkfhenQ/exSuR+F6dD97FK5H4Xp0P3sUrkfhenQ/exSuR+F6dD97FK5H4Xp0P3sUrkfhenQ/exSuR+F6dD97FK5H4Xp0P3sUrkfhenQ/exSuR+F6dD97FK5H4Xp0P3sUrkfhenQ/exSuR+F6dD97FK5H4Xp0P3sUrkfhenQ/exSuR+F6dD97FK5H4Xp0P3sUrkfhenQ/exSuR+F6dD97FK5H4Xp0P3sUrkfhenQ/exSuR+F6dD97FK5H4Xp0P3sUrkfhenQ/exSuR+F6dD97FK5H4Xp0P3sUrkfhenQ/exSuR+F6dD97FK5H4Xp0P3sUrkfhenQ/exSuR+F6dD97FK5H4Xp0P3sUrkfhenQ/exSuR+F6dD97FK5H4Xp0P3sUrkfhenQ/exSuR+F6dD97FK5H4Xp0P3sUrkfhenQ/exSuR+F6dD97FK5H4Xp0P3sUrkfhenQ/exSuR+F6dD97FK5H4Xp0P3sUrkfhenQ/exSuR+F6dD97FK5H4Xp0P3sUrkfhenQ/exSuR+F6dD97FK5H4Xp0P3sUrkfhenQ/exSuR+F6dD97FK5H4Xp0P3sUrkfhenQ/exSuR+F6dD97FK5H4Xp0P3sUrkfhenQ/exSuR+F6dD97FK5H4Xp0P3sUrkfhenQ/exSuR+F6dD97FK5H4Xp0P3sUrkfhenQ/exSuR+F6dD97FK5H4Xp0P3sUrkfhenQ/exSuR+F6dD97FK5H4Xp0P3sUrkfhenQ/exSuR+F6dD97FK5H4Xp0P3sUrkfhenQ/exSuR+F6dD97FK5H4Xp0P3sUrkfhenQ/exSuR+F6dD97FK5H4Xp0P3sUrkfhenQ/exSuR+F6dD97FK5H4Xp0P3sUrkfhenQ/exSuR+F6dD97FK5H4Xp0P3sUrkfhenQ/exSuR+F6dD97FK5H4Xp0P3sUrkfhenQ/exSuR+F6dD97FK5H4Xp0P3sUrkfhenQ/exSuR+F6dD97FK5H4Xp0P3sUrkfhenQ/exSuR+F6dD97FK5H4Xp0P3sUrkfhenQ/exSuR+F6dD97FK5H4Xp0P3sUrkfhenQ/exSuR+F6dD97FK5H4Xp0P3sUrkfhenQ/exSuR+F6dD97FK5H4Xp0P3sUrkfhenQ/exSuR+F6dD97FK5H4Xp0P3sUrkfhenQ/exSuR+F6dD97FK5H4Xp0P3sUrkfhenQ/exSuR+F6dD97FK5H4Xp0P3sUrkfhenQ/exSuR+F6dD97FK5H4Xp0P3sUrkfhenQ/exSuR+F6dD97FK5H4Xp0P3sUrkfhenQ/exSuR+F6dD97FK5H4Xp0P3sUrkfhenQ/exSuR+F6dD97FK5H4Xp0P3sUrkfhenQ/exSuR+F6dD97FK5H4Xp0P3sUrkfhenQ/exSuR+F6dD97FK5H4Xp0P3sUrkfhenQ/exSuR+F6dD97FK5H4Xp0P3sUrkfhenQ/"
        },
        "FUS-GMI": {
            "theta_kde": {
                "data": "k05VTVBZAQB2AHsnZGVzY3InOiAnPGY4JywgJ2ZvcnRyYW5fb3JkZXInOiBGYWxzZSwgJ3NoYXBlJzogKDEwNiwpLCB9ICAgICAgICAgICAgICAgICAgICAgICAgICAgICAgICAgICAgICAgICAgICAgICAgICAgICAgICAgIApCT+ANEkXiP24A8uVdQ+A/5Vg9L8db2j9mBumP5pXhP+4G21Kj+90/wy2yRbsX2j9lBzQpmovbP7IbqFbgR+E/rlQIoTf24D/s+pmezwXfP/I8N+GPv+A/nko3xSvi4T/G5i5LTqPhP6njz0ihJt8/Zw+VH2WQ4T9Na0ib3eHgPzAa+9Hw4d4/Tf/DTfpG4j/Tl8oOJHPhP+BWUezZtt8/6/jBvdJQ4T/R9Zfui9jgPxaipNZqx+A/rI+4zvRM4T/akv0djcDdPz/FD0DI8eE/Pm1JESSB3j9CeypXveTgP3W1z0shnOE/KW0yUMB24j+9puucGgzhP+M+9gUON+I/arW3prji4D+lY7pmjhDfP773rJJbXd8/rXdeQs9j4j8nB3m8QvvfP5m9JBhDV+I/r9KMvbLN3j811G9wjSvhP8+0QD8iOuE/Pfwgf8l14j/omlZaYCLfPxVn3gmWdd4/j0j02XvY4T/xv9qcalDiP+dp6KHBcOE/l2nYcmEE4j+mkMNrNszePztzrhP6aOI/MO76Dghw4j8POGAPt2PfP0d1LLGRSOA/L6Xl/B3s4T+x1Xm8A1PgPy61RsvMQdo/c+jtgbp03D/CqQVdKeDcPyb+8+XnOeI/7VDCpYx74T+imZ+CjObgP4X7F0dW5uA//RxtZHgm3D/Q4vYgIqLfP1bMqx5VDOE/nwMqlhia4T+deSuojmHeP3Hz5+tIAuE/TACS39IW4j/GuZ1hPEniP16jz+6eY+I/1v0np+zG4T87ipYgHyXiPw4Ju+mogeA/XD9VoKO23j/tuV7wNRDhP+TeIRwbJts/nLxX1eXO4T9OGgqgW3bhP9TmthFSFuE/v2ZcBriw4T/sjtYMfubfPz8sHvg88uA/VLnEoOI94j+n+u8j57bgP1Z/osgobuA/iBI7FsLc4T9y0BwggHziP9RII+xpV90/DsoPr00j4j/gfFHo4WngP//FkMRFot8/hcLSS3N14T9Li/fw38LcP7h8d+DdYN0/BevcPxhR4D+DqzvjG7XhP6VzxpyRoOE/N+3haDz93j/TU7NqaKjTP2Wa38xx5eE/SLBdMQpq3z8VQQ1jI1HhP0MbMZHHOOI/kCiIpUZ54j/4lOGrxw/hPw==",
                "weights": "k05VTVBZAQB2AHsnZGVzY3InOiAnPGY4JywgJ2ZvcnRyYW5fb3JkZXInOiBGYWxzZSwgJ3NoYXBlJzogKDEwNiwpLCB9ICAgICAgICAgICAgICAgICAgICAgICAgICAgICAgICAgICAgICAgICAgICAgICAgICAgICAgICAgIArBeCv7HFKDP8F4K/scUoM/wXgr+xxSgz/BeCv7HFKDP8F4K/scUoM/wXgr+xxSgz/BeCv7HFKDP8F4K/scUoM/wXgr+xxSgz/BeCv7HFKDP8F4K/scUoM/wXgr+xxSgz/BeCv7HFKDP8F4K/scUoM/wXgr+xxSgz/BeCv7HFKDP8F4K/scUoM/wXgr+xxSgz/BeCv7HFKDP8F4K/scUoM/wXgr+xxSgz/BeCv7HFKDP8F4K/scUoM/wXgr+xxSgz/BeCv7HFKDP8F4K/scUoM/wXgr+xxSgz/BeCv7HFKDP8F4K/scUoM/wXgr+xxSgz/BeCv7HFKDP8F4K/scUoM/wXgr+xxSgz/BeCv7HFKDP8F4K/scUoM/wXgr+xxSgz/BeCv7HFKDP8F4K/scUoM/wXgr+xxSgz/BeCv7HFKDP8F4K/scUoM/wXgr+xxSgz/BeCv7HFKDP8F4K/scUoM/wXgr+xxSgz/BeCv7HFKDP8F4K/scUoM/wXgr+xxSgz/BeCv7HFKDP8F4K/scUoM/wXgr+xxSgz/BeCv7HFKDP8F4K/scUoM/wXgr+xxSgz/BeCv7HFKDP8F4K/scUoM/wXgr+xxSgz/BeCv7HFKDP8F4K/scUoM/wXgr+xxSgz/BeCv7HFKDP8F4K/scUoM/wXgr+xxSgz/BeCv7HFKDP8F4K/scUoM/wXgr+xxSgz/BeCv7HFKDP8F4K/scUoM/wXgr+xxSgz/BeCv7HFKDP8F4K/scUoM/wXgr+xxSgz/BeCv7HFKDP8F4K/scUoM/wXgr+xxSgz/BeCv7HFKDP8F4K/scUoM/wXgr+xxSgz/BeCv7HFKDP8F4K/scUoM/wXgr+xxSgz/BeCv7HFKDP8F4K/scUoM/wXgr+xxSgz/BeCv7HFKDP8F4K/scUoM/wXgr+xxSgz/BeCv7HFKDP8F4K/scUoM/wXgr+xxSgz/BeCv7HFKDP8F4K/scUoM/wXgr+xxSgz/BeCv7HFKDP8F4K/scUoM/wXgr+xxSgz/BeCv7HFKDP8F4K/scUoM/wXgr+xxSgz/BeCv7HFKDP8F4K/scUoM/wXgr+xxSgz/BeCv7HFKDP8F4K/scUoM/wXgr+xxSgz/BeCv7HFKDPw==",
                "bandwidth": 0.01987989506465125
            },
            "theta_weights": "k05VTVBZAQB2AHsnZGVzY3InOiAnPGY4JywgJ2ZvcnRyYW5fb3JkZXInOiBGYWxzZSwgJ3NoYXBlJzogKDIwMCwpLCB9ICAgICAgICAgICAgICAgICAgICAgICAgICAgICAgICAgICAgICAgICAgICAgICAgICAgICAgICAgIAp7FK5H4Xp0P3sUrkfhenQ/exSuR+F6dD97FK5H4Xp0P3sUrkfhenQ/exSuR+F6dD97FK5H4Xp0P3sUrkfhenQ/exSuR+F6dD97FK5H4Xp0P3sUrkfhenQ/exSuR+F6dD97FK5H4Xp0P3sUrkfhenQ/exSuR+F6dD97FK5H4Xp0P3sUrkfhenQ/exSuR+F6dD97FK5H4Xp0P3sUrkfhenQ/exSuR+F6dD97FK5H4Xp0P3sUrkfhenQ/exSuR+F6dD97FK5H4Xp0P3sUrkfhenQ/exSuR+F6dD97FK5H4Xp0P3sUrkfhenQ/exSuR+F6dD97FK5H4Xp0P3sUrkfhenQ/exSuR+F6dD97FK5H4Xp0P3sUrkfhenQ/exSuR+F6dD97FK5H4Xp0P3sUrkfhenQ/exSuR+F6dD97FK5H4Xp0P3sUrkfhenQ/exSuR+F6dD97FK5H4Xp0P3sUrkfhenQ/exSuR+F6dD97FK5H4Xp0P3sUrkfhenQ/exSuR+F6dD97FK5H4Xp0P3sUrkfhenQ/exSuR+F6dD97FK5H4Xp0P3sUrkfhenQ/exSuR+F6dD97FK5H4Xp0P3sUrkfhenQ/exSuR+F6dD97FK5H4Xp0P3sUrkfhenQ/exSuR+F6dD97FK5H4Xp0P3sUrkfhenQ/exSuR+F6dD97FK5H4Xp0P3sUrkfhenQ/exSuR+F6dD97FK5H4Xp0P3sUrkfhenQ/exSuR+F6dD97FK5H4Xp0P3sUrkfhenQ/exSuR+F6dD97FK5H4Xp0P3sUrkfhenQ/exSuR+F6dD97FK5H4Xp0P3sUrkfhenQ/exSuR+F6dD97FK5H4Xp0P3sUrkfhenQ/exSuR+F6dD97FK5H4Xp0P3sUrkfhenQ/exSuR+F6dD97FK5H4Xp0P3sUrkfhenQ/exSuR+F6dD97FK5H4Xp0P3sUrkfhenQ/exSuR+F6dD97FK5H4Xp0P3sUrkfhenQ/exSuR+F6dD97FK5H4Xp0P3sUrkfhenQ/exSuR+F6dD97FK5H4Xp0P3sUrkfhenQ/exSuR+F6dD97FK5H4Xp0P3sUrkfhenQ/exSuR+F6dD97FK5H4Xp0P3sUrkfhenQ/exSuR+F6dD97FK5H4Xp0P3sUrkfhenQ/exSuR+F6dD97FK5H4Xp0P3sUrkfhenQ/exSuR+F6dD97FK5H4Xp0P3sUrkfhenQ/exSuR+F6dD97FK5H4Xp0P3sUrkfhenQ/exSuR+F6dD97FK5H4Xp0P3sUrkfhenQ/exSuR+F6dD97FK5H4Xp0P3sUrkfhenQ/exSuR+F6dD97FK5H4Xp0P3sUrkfhenQ/exSuR+F6dD97FK5H4Xp0P3sUrkfhenQ/exSuR+F6dD97FK5H4Xp0P3sUrkfhenQ/exSuR+F6dD97FK5H4Xp0P3sUrkfhenQ/exSuR+F6dD97FK5H4Xp0P3sUrkfhenQ/exSuR+F6dD97FK5H4Xp0P3sUrkfhenQ/exSuR+F6dD97FK5H4Xp0P3sUrkfhenQ/exSuR+F6dD97FK5H4Xp0P3sUrkfhenQ/exSuR+F6dD97FK5H4Xp0P3sUrkfhenQ/exSuR+F6dD97FK5H4Xp0P3sUrkfhenQ/exSuR+F6dD97FK5H4Xp0P3sUrkfhenQ/exSuR+F6dD97FK5H4Xp0P3sUrkfhenQ/exSuR+F6dD97FK5H4Xp0P3sUrkfhenQ/exSuR+F6dD97FK5H4Xp0P3sUrkfhenQ/exSuR+F6dD97FK5H4Xp0P3sUrkfhenQ/exSuR+F6dD97FK5H4Xp0P3sUrkfhenQ/exSuR+F6dD97FK5H4Xp0P3sUrkfhenQ/exSuR+F6dD97FK5H4Xp0P3sUrkfhenQ/exSuR+F6dD97FK5H4Xp0P3sUrkfhenQ/exSuR+F6dD97FK5H4Xp0P3sUrkfhenQ/exSuR+F6dD97FK5H4Xp0P3sUrkfhenQ/exSuR+F6dD97FK5H4Xp0P3sUrkfhenQ/exSuR+F6dD97FK5H4Xp0P3sUrkfhenQ/exSuR+F6dD97FK5H4Xp0P3sUrkfhenQ/exSuR+F6dD97FK5H4Xp0P3sUrkfhenQ/exSuR+F6dD97FK5H4Xp0P3sUrkfhenQ/",
            "phi_kde": {
                "data": "k05VTVBZAQB2AHsnZGVzY3InOiAnPGY4JywgJ2ZvcnRyYW5fb3JkZXInOiBGYWxzZSwgJ3NoYXBlJzogKDk0LCksIH0gICAgICAgICAgICAgICAgICAgICAgICAgICAgICAgICAgICAgICAgICAgICAgICAgICAgICAgICAgIAodS0+5WwnlP+nH6B5OZuY/7HTJZKs64z9HUXlBJfTjP33buXxJL+U/C1MUlyWr4j+zK3OtWxbkP9Za/aClL+Q/Ouo3SSsl5D/tYGkTNK/iP5KwSbjOXeQ/hSGODkq54j97rrQ7mALkP3RXGIuRHOQ/Cnkuzb3O4j+8+oEMIETkP8bXo42HfeU/3AIYWhWS4z9z6XhFMNvjP6EIb1Lb+OU/vOGt6EUV5T/hDfBqTb/iP1EwoNJTsOQ/x/h2MCoD5D+QJ0TKqLHiP7Xppt6x1OQ/D2ZMv8815T9viKes5zvmPxQYYmixEOo/ZdWHsebU4j8xqBF+RgXkP+3IHBGQDOU/ZsOWgWDA4j9yKiECgxPkP1rf0HvUkeU/iN/xFtWz4z+4dQEegTHmPxltgBxpneM/bJ0hOeeL4z/Sz+mFWhnmP/g9TgSc+uM/mvJIFPnL4z9rm22M0QDjP9zRNfFkZ+Q/Omredbsl5D+DkZoHYeviPxqtyu+5MeU/MwWE3ke44z86SNbHGxvjP/qYO0MJnOI/clgibYMY5T+JQvyqTwjnP5duljUf2uI/mfCs+LLf4z+watoi0RvoP+KQlQ7zjeI/0kXwnnqx5T8+WKiu4snmP4tZ6ngRpeI/LErY43Uq5D8ayX4WCk3nP0X8Kg3rIOM/4r9i9mYv4z8n5YN5om7jPxK8+aLCCeY/8ur70ocb5T+9bpB8OEDkPx/HVaAAQ+Q/MbkT0MCX5D+39I/2LEvmPxGvAN55eOQ/X8BJK1w84z8yh0p06XvlP6p5k14AiOM/wSqdQ5B34z/Rx42xWcbnPw9aStvTc+M/+vwi56v14j8v/vMaLankP3PlsDeIIOQ/jrxIYk8y5D+fd2pwmpbiP5RgO3gU0uI/IU/OubwB5T96Hg6DuHDlP3gSbCXkHuU/x1zof+MI5T8hqVhQRpTjP6YTudYyZeY/k1C0EBrb5D9A08dPaCXjP3qov9KB0OI/C7pVGR4r5T82/hl8MlrlPw==",
                "weights": "k05VTVBZAQB2AHsnZGVzY3InOiAnPGY4JywgJ2ZvcnRyYW5fb3JkZXInOiBGYWxzZSwgJ3NoYXBlJzogKDk0LCksIH0gICAgICAgICAgICAgICAgICAgICAgICAgICAgICAgICAgICAgICAgICAgICAgICAgICAgICAgICAgIApXEJMriMmFP1cQkyuIyYU/VxCTK4jJhT9XEJMriMmFP1cQkyuIyYU/VxCTK4jJhT9XEJMriMmFP1cQkyuIyYU/VxCTK4jJhT9XEJMriMmFP1cQkyuIyYU/VxCTK4jJhT9XEJMriMmFP1cQkyuIyYU/VxCTK4jJhT9XEJMriMmFP1cQkyuIyYU/VxCTK4jJhT9XEJMriMmFP1cQkyuIyYU/VxCTK4jJhT9XEJMriMmFP1cQkyuIyYU/VxCTK4jJhT9XEJMriMmFP1cQkyuIyYU/VxCTK4jJhT9XEJMriMmFP1cQkyuIyYU/VxCTK4jJhT9XEJMriMmFP1cQkyuIyYU/VxCTK4jJhT9XEJMriMmFP1cQkyuIyYU/VxCTK4jJhT9XEJMriMmFP1cQkyuIyYU/VxCTK4jJhT9XEJMriMmFP1cQkyuIyYU/VxCTK4jJhT9XEJMriMmFP1cQkyuIyYU/VxCTK4jJhT9XEJMriMmFP1cQkyuIyYU/VxCTK4jJhT9XEJMriMmFP1cQkyuIyYU/VxCTK4jJhT9XEJMriMmFP1cQkyuIyYU/VxCTK4jJhT9XEJMriMmFP1cQkyuIyYU/VxCTK4jJhT9XEJMriMmFP1cQkyuIyYU/VxCTK4jJhT9XEJMriMmFP1cQkyuIyYU/VxCTK4jJhT9XEJMriMmFP1cQkyuIyYU/VxCTK4jJhT9XEJMriMmFP1cQkyuIyYU/VxCTK4jJhT9XEJMriMmFP1cQkyuIyYU/VxCTK4jJhT9XEJMriMmFP1cQkyuIyYU/VxCTK4jJhT9XEJMriMmFP1cQkyuIyYU/VxCTK4jJhT9XEJMriMmFP1cQkyuIyYU/VxCTK4jJhT9XEJMriMmFP1cQkyuIyYU/VxCTK4jJhT9XEJMriMmFP1cQkyuIyYU/VxCTK4jJhT9XEJMriMmFP1cQkyuIyYU/VxCTK4jJhT9XEJMriMmFP1cQkyuIyYU/VxCTK4jJhT9XEJMriMmFPw==",
                "bandwidth": 0.018759992578588635
            },
            "phi_weights": "k05VTVBZAQB2AHsnZGVzY3InOiAnPGY4JywgJ2ZvcnRyYW5fb3JkZXInOiBGYWxzZSwgJ3NoYXBlJzogKDIwMCwpLCB9ICAgICAgICAgICAgICAgICAgICAgICAgICAgICAgICAgICAgICAgICAgICAgICAgICAgICAgICAgIAp7FK5H4Xp0P3sUrkfhenQ/exSuR+F6dD97FK5H4Xp0P3sUrkfhenQ/exSuR+F6dD97FK5H4Xp0P3sUrkfhenQ/exSuR+F6dD97FK5H4Xp0P3sUrkfhenQ/exSuR+F6dD97FK5H4Xp0P3sUrkfhenQ/exSuR+F6dD97FK5H4Xp0P3sUrkfhenQ/exSuR+F6dD97FK5H4Xp0P3sUrkfhenQ/exSuR+F6dD97FK5H4Xp0P3sUrkfhenQ/exSuR+F6dD97FK5H4Xp0P3sUrkfhenQ/exSuR+F6dD97FK5H4Xp0P3sUrkfhenQ/exSuR+F6dD97FK5H4Xp0P3sUrkfhenQ/exSuR+F6dD97FK5H4Xp0P3sUrkfhenQ/exSuR+F6dD97FK5H4Xp0P3sUrkfhenQ/exSuR+F6dD97FK5H4Xp0P3sUrkfhenQ/exSuR+F6dD97FK5H4Xp0P3sUrkfhenQ/exSuR+F6dD97FK5H4Xp0P3sUrkfhenQ/exSuR+F6dD97FK5H4Xp0P3sUrkfhenQ/exSuR+F6dD97FK5H4Xp0P3sUrkfhenQ/exSuR+F6dD97FK5H4Xp0P3sUrkfhenQ/exSuR+F6dD97FK5H4Xp0P3sUrkfhenQ/exSuR+F6dD97FK5H4Xp0P3sUrkfhenQ/exSuR+F6dD97FK5H4Xp0P3sUrkfhenQ/exSuR+F6dD97FK5H4Xp0P3sUrkfhenQ/exSuR+F6dD97FK5H4Xp0P3sUrkfhenQ/exSuR+F6dD97FK5H4Xp0P3sUrkfhenQ/exSuR+F6dD97FK5H4Xp0P3sUrkfhenQ/exSuR+F6dD97FK5H4Xp0P3sUrkfhenQ/exSuR+F6dD97FK5H4Xp0P3sUrkfhenQ/exSuR+F6dD97FK5H4Xp0P3sUrkfhenQ/exSuR+F6dD97FK5H4Xp0P3sUrkfhenQ/exSuR+F6dD97FK5H4Xp0P3sUrkfhenQ/exSuR+F6dD97FK5H4Xp0P3sUrkfhenQ/exSuR+F6dD97FK5H4Xp0P3sUrkfhenQ/exSuR+F6dD97FK5H4Xp0P3sUrkfhenQ/exSuR+F6dD97FK5H4Xp0P3sUrkfhenQ/exSuR+F6dD97FK5H4Xp0P3sUrkfhenQ/exSuR+F6dD97FK5H4Xp0P3sUrkfhenQ/exSuR+F6dD97FK5H4Xp0P3sUrkfhenQ/exSuR+F6dD97FK5H4Xp0P3sUrkfhenQ/exSuR+F6dD97FK5H4Xp0P3sUrkfhenQ/exSuR+F6dD97FK5H4Xp0P3sUrkfhenQ/exSuR+F6dD97FK5H4Xp0P3sUrkfhenQ/exSuR+F6dD97FK5H4Xp0P3sUrkfhenQ/exSuR+F6dD97FK5H4Xp0P3sUrkfhenQ/exSuR+F6dD97FK5H4Xp0P3sUrkfhenQ/exSuR+F6dD97FK5H4Xp0P3sUrkfhenQ/exSuR+F6dD97FK5H4Xp0P3sUrkfhenQ/exSuR+F6dD97FK5H4Xp0P3sUrkfhenQ/exSuR+F6dD97FK5H4Xp0P3sUrkfhenQ/exSuR+F6dD97FK5H4Xp0P3sUrkfhenQ/exSuR+F6dD97FK5H4Xp0P3sUrkfhenQ/exSuR+F6dD97FK5H4Xp0P3sUrkfhenQ/exSuR+F6dD97FK5H4Xp0P3sUrkfhenQ/exSuR+F6dD97FK5H4Xp0P3sUrkfhenQ/exSuR+F6dD97FK5H4Xp0P3sUrkfhenQ/exSuR+F6dD97FK5H4Xp0P3sUrkfhenQ/exSuR+F6dD97FK5H4Xp0P3sUrkfhenQ/exSuR+F6dD97FK5H4Xp0P3sUrkfhenQ/exSuR+F6dD97FK5H4Xp0P3sUrkfhenQ/exSuR+F6dD97FK5H4Xp0P3sUrkfhenQ/exSuR+F6dD97FK5H4Xp0P3sUrkfhenQ/exSuR+F6dD97FK5H4Xp0P3sUrkfhenQ/exSuR+F6dD97FK5H4Xp0P3sUrkfhenQ/exSuR+F6dD97FK5H4Xp0P3sUrkfhenQ/exSuR+F6dD97FK5H4Xp0P3sUrkfhenQ/exSuR+F6dD97FK5H4Xp0P3sUrkfhenQ/exSuR+F6dD97FK5H4Xp0P3sUrkfhenQ/"
        },
        "HIP-FCI": {
            "theta_kde": {
                "data": "k05VTVBZAQB2AHsnZGVzY3InOiAnPGY4JywgJ2ZvcnRyYW5fb3JkZXInOiBGYWxzZSwgJ3NoYXBlJzogKDE0NCwpLCB9ICAgICAgICAgICAgICAgICAgICAgICAgICAgICAgICAgICAgICAgICAgICAgICAgICAgICAgICAgIAqAVoUazeIJwCiVWHVRWfm/wkbWNo4RCsCF+vH4HlAawHPdCwK5/h3AZj53ytSTH8ACUJEDqYIWwNa8P+T2bB3A8LNbZHiqEsAk21O6AG4NwGiA5wG0yiDA2Kpk6gC0DcAe+zbf4TgSwJlWfelGIBDANP8GvMlHFcBjIhPWnloQwP11BHKi9BPAkAzpQ1R4FsAw+MSN5KkKwFNRamzOOxPA0KdO3R30+r8SRLM4lAUHwLgG8piDUxvAh4rt2K1pE8CsKiLcyBoOwKbMoEof5xXAzGJK8NyjG8C8S8l2WbAVwCZQk6peWwbAJhvAy5lDDcBN2NHqN1YXwCb5oGzf2BjASXgnYhxwEsDMA6+I7cUKwCTgBaoutQ7AZIWd8sJ2CMCOQbfSHZYHwIk8hcQkgfW/hE12lbwsIMBOmCWPRoAGwB4xshufmgvAWL6aEahvD8BKOTQah3sCwDvQ1DrHmRfAgq5n30XIA8DyGsq53L0cwHHZeya2fBjAvA+ZLqq/EsBKDZmuvCwXwEN+PyCB5xzAAyzgTC6pEMAZJkVN+8UQwH3ZbMi9bRbA4DoAWGV02b+GRE4J9C0gwA11qJYoPBTADq96eQp2GsDMzFNAKooWwG/JpSz+GwrAKZ84u67EFcBFrmyegnUTwIBJZt2PcRjAlzpKw1wvG8AYCWspuSchwIzi/y4fuBLAVlVk2CNfEsBZUMk8MiUSwDrRSO+hJRjAEM/0y4E17L9xbAfZyJ0YwILb8X/E6RfAzq7guat1FcDwjr+7rM4TwIAcJa/99uC/YomWhpZvC8D7BdXcYwwTwOyFeHqbFAbAVs14U16UFsBA8EOiZHQSwA7sVwxGng/AzgMUkCsLE8Dvo8V+a7QWwAPi86mq1xjAgh4uTp7mFMB8JjlpvCUCwP/DM7/kaRTAeKIcJQcOCcAo5TZ0vIoawDEW2qn3dxjABsv6TC1iDMDfcCFv7ngTwJLMuo6WrBLAYgfIL9GBG8Bv832LSd4awHiS/WilqxjAaiEJ44oDDsBxlAxoQKAYwENVslMlXyHAMP/AxnlmCcD+IKTRCQUKwBntx4fVKRzALJ/1b6sCAMAhus1rAf8hwP+Qtlb37BbAEN/iKW33E8DseXh9PGAKwN3wCu8dGhPAj8NJn47+B8C+sUTHSl8WwFi/p5smBwXAiuKF3YitFsAJFeOy/SARwDXXuzEjCh7AwL9oSPmg7b8QePHHqoYXwMDgaKDVhBrAVsOPomQ3EcBL1ckjUSYSwPTmTM4cEwXAIbCHv35LEMAAu56U0O4VwPyzERmUEhDAuNK/yVXzHMDAdsZDKt7Uv/qu5c37W5I/voGakUjYBMB+ALHkygAdwIwIydnURwXAVE0o6+wK+7+oXBRAO9ISwKKMgXYQ+gvArcPws8oNF8CL0gy3cF8bwPRKMlamQh3AbqZRPe5V9b/U+RPoGv4VwKN66N6ebiDA/M0o2hCWCsCu1JqQZ0MOwF+LuK2YRxLAlk2jaWQeFsDHgxFy7tcNwJIvzv/LzwvAkNhWE986978=",
                "weights": "k05VTVBZAQB2AHsnZGVzY3InOiAnPGY4JywgJ2ZvcnRyYW5fb3JkZXInOiBGYWxzZSwgJ3NoYXBlJzogKDE0NCwpLCB9ICAgICAgICAgICAgICAgICAgICAgICAgICAgICAgICAgICAgICAgICAgICAgICAgICAgICAgICAgIAocx3Ecx3F8PxzHcRzHcXw/HMdxHMdxfD8cx3Ecx3F8PxzHcRzHcXw/HMdxHMdxfD8cx3Ecx3F8PxzHcRzHcXw/HMdxHMdxfD8cx3Ecx3F8PxzHcRzHcXw/HMdxHMdxfD8cx3Ecx3F8PxzHcRzHcXw/HMdxHMdxfD8cx3Ecx3F8PxzHcRzHcXw/HMdxHMdxfD8cx3Ecx3F8PxzHcRzHcXw/HMdxHMdxfD8cx3Ecx3F8PxzHcRzHcXw/HMdxHMdxfD8cx3Ecx3F8PxzHcRzHcXw/HMdxHMdxfD8cx3Ecx3F8PxzHcRzHcXw/HMdxHMdxfD8cx3Ecx3F8PxzHcRzHcXw/HMdxHMdxfD8cx3Ecx3F8PxzHcRzHcXw/HMdxHMdxfD8cx3Ecx3F8PxzHcRzHcXw/HMdxHMdxfD8cx3Ecx3F8PxzHcRzHcXw/HMdxHMdxfD8cx3Ecx3F8PxzHcRzHcXw/HMdxHMdxfD8cx3Ecx3F8PxzHcRzHcXw/HMdxHMdxfD8cx3Ecx3F8PxzHcRzHcXw/HMdxHMdxfD8cx3Ecx3F8PxzHcRzHcXw/HMdxHMdxfD8cx3Ecx3F8PxzHcRzHcXw/HMdxHMdxfD8cx3Ecx3F8PxzHcRzHcXw/HMdxHMdxfD8cx3Ecx3F8PxzHcRzHcXw/HMdxHMdxfD8cx3Ecx3F8PxzHcRzHcXw/HMdxHMdxfD8cx3Ecx3F8PxzHcRzHcXw/HMdxHMdxfD8cx3Ecx3F8PxzHcRzHcXw/HMdxHMdxfD8cx3Ecx3F8PxzHcRzHcXw/HMdxHMdxfD8cx3Ecx3F8PxzHcRzHcXw/HMdxHMdxfD8cx3Ecx3F8PxzHcRzHcXw/HMdxHMdxfD8cx3Ecx3F8PxzHcRzHcXw/HMdxHMdxfD8cx3Ecx3F8PxzHcRzHcXw/HMdxHMdxfD8cx3Ecx3F8PxzHcRzHcXw/HMdxHMdxfD8cx3Ecx3F8PxzHcRzHcXw/HMdxHMdxfD8cx3Ecx3F8PxzHcRzHcXw/HMdxHMdxfD8cx3Ecx3F8PxzHcRzHcXw/HMdxHMdxfD8cx3Ecx3F8PxzHcRzHcXw/HMdxHMdxfD8cx3Ecx3F8PxzHcRzHcXw/HMdxHMdxfD8cx3Ecx3F8PxzHcRzHcXw/HMdxHMdxfD8cx3Ecx3F8PxzHcRzHcXw/HMdxHMdxfD8cx3Ecx3F8PxzHcRzHcXw/HMdxHMdxfD8cx3Ecx3F8PxzHcRzHcXw/HMdxHMdxfD8cx3Ecx3F8PxzHcRzHcXw/HMdxHMdxfD8cx3Ecx3F8PxzHcRzHcXw/HMdxHMdxfD8cx3Ecx3F8PxzHcRzHcXw/HMdxHMdxfD8cx3Ecx3F8PxzHcRzHcXw/HMdxHMdxfD8cx3Ecx3F8PxzHcRzHcXw/HMdxHMdxfD8cx3Ecx3F8PxzHcRzHcXw/HMdxHMdxfD8cx3Ecx3F8PxzHcRzHcXw/HMdxHMdxfD8cx3Ecx3F8PxzHcRzHcXw/HMdxHMdxfD8cx3Ecx3F8PxzHcRzHcXw/HMdxHMdxfD8=",
                "bandwidth": 0.7462155986669267
            },
            "theta_weights": "k05VTVBZAQB2AHsnZGVzY3InOiAnPGY4JywgJ2ZvcnRyYW5fb3JkZXInOiBGYWxzZSwgJ3NoYXBlJzogKDIwMCwpLCB9ICAgICAgICAgICAgICAgICAgICAgICAgICAgICAgICAgICAgICAgICAgICAgICAgICAgICAgICAgIAp7FK5H4Xp0P3sUrkfhenQ/exSuR+F6dD97FK5H4Xp0P3sUrkfhenQ/exSuR+F6dD97FK5H4Xp0P3sUrkfhenQ/exSuR+F6dD97FK5H4Xp0P3sUrkfhenQ/exSuR+F6dD97FK5H4Xp0P3sUrkfhenQ/exSuR+F6dD97FK5H4Xp0P3sUrkfhenQ/exSuR+F6dD97FK5H4Xp0P3sUrkfhenQ/exSuR+F6dD97FK5H4Xp0P3sUrkfhenQ/exSuR+F6dD97FK5H4Xp0P3sUrkfhenQ/exSuR+F6dD97FK5H4Xp0P3sUrkfhenQ/exSuR+F6dD97FK5H4Xp0P3sUrkfhenQ/exSuR+F6dD97FK5H4Xp0P3sUrkfhenQ/exSuR+F6dD97FK5H4Xp0P3sUrkfhenQ/exSuR+F6dD97FK5H4Xp0P3sUrkfhenQ/exSuR+F6dD97FK5H4Xp0P3sUrkfhenQ/exSuR+F6dD97FK5H4Xp0P3sUrkfhenQ/exSuR+F6dD97FK5H4Xp0P3sUrkfhenQ/exSuR+F6dD97FK5H4Xp0P3sUrkfhenQ/exSuR+F6dD97FK5H4Xp0P3sUrkfhenQ/exSuR+F6dD97FK5H4Xp0P3sUrkfhenQ/exSuR+F6dD97FK5H4Xp0P3sUrkfhenQ/exSuR+F6dD97FK5H4Xp0P3sUrkfhenQ/exSuR+F6dD97FK5H4Xp0P3sUrkfhenQ/exSuR+F6dD97FK5H4Xp0P3sUrkfhenQ/exSuR+F6dD97FK5H4Xp0P3sUrkfhenQ/exSuR+F6dD97FK5H4Xp0P3sUrkfhenQ/exSuR+F6dD97FK5H4Xp0P3sUrkfhenQ/exSuR+F6dD97FK5H4Xp0P3sUrkfhenQ/exSuR+F6dD97FK5H4Xp0P3sUrkfhenQ/exSuR+F6dD97FK5H4Xp0P3sUrkfhenQ/exSuR+F6dD97FK5H4Xp0P3sUrkfhenQ/exSuR+F6dD97FK5H4Xp0P3sUrkfhenQ/exSuR+F6dD97FK5H4Xp0P3sUrkfhenQ/exSuR+F6dD97FK5H4Xp0P3sUrkfhenQ/exSuR+F6dD97FK5H4Xp0P3sUrkfhenQ/exSuR+F6dD97FK5H4Xp0P3sUrkfhenQ/exSuR+F6dD97FK5H4Xp0P3sUrkfhenQ/exSuR+F6dD97FK5H4Xp0P3sUrkfhenQ/exSuR+F6dD97FK5H4Xp0P3sUrkfhenQ/exSuR+F6dD97FK5H4Xp0P3sUrkfhenQ/exSuR+F6dD97FK5H4Xp0P3sUrkfhenQ/exSuR+F6dD97FK5H4Xp0P3sUrkfhenQ/exSuR+F6dD97FK5H4Xp0P3sUrkfhenQ/exSuR+F6dD97FK5H4Xp0P3sUrkfhenQ/exSuR+F6dD97FK5H4Xp0P3sUrkfhenQ/exSuR+F6dD97FK5H4Xp0P3sUrkfhenQ/exSuR+F6dD97FK5H4Xp0P3sUrkfhenQ/exSuR+F6dD97FK5H4Xp0P3sUrkfhenQ/exSuR+F6dD97FK5H4Xp0P3sUrkfhenQ/exSuR+F6dD97FK5H4Xp0P3sUrkfhenQ/exSuR+F6dD97FK5H4Xp0P3sUrkfhenQ/exSuR+F6dD97FK5H4Xp0P3sUrkfhenQ/exSuR+F6dD97FK5H4Xp0P3sUrkfhenQ/exSuR+F6dD97FK5H4Xp0P3sUrkfhenQ/exSuR+F6dD97FK5H4Xp0P3sUrkfhenQ/exSuR+F6dD97FK5H4Xp0P3sUrkfhenQ/exSuR+F6dD97FK5H4Xp0P3sUrkfhenQ/exSuR+F6dD97FK5H4Xp0P3sUrkfhenQ/exSuR+F6dD97FK5H4Xp0P3sUrkfhenQ/exSuR+F6dD97FK5H4Xp0P3sUrkfhenQ/exSuR+F6dD97FK5H4Xp0P3sUrkfhenQ/exSuR+F6dD97FK5H4Xp0P3sUrkfhenQ/exSuR+F6dD97FK5H4Xp0P3sUrkfhenQ/exSuR+F6dD97FK5H4Xp0P3sUrkfhenQ/exSuR+F6dD97FK5H4Xp0P3sUrkfhenQ/exSuR+F6dD97FK5H4Xp0P3sUrkfhenQ/exSuR+F6dD97FK5H4Xp0P3sUrkfhenQ/",
            "phi_kde": {
                "data": "k05VTVBZAQB2AHsnZGVzY3InOiAnPGY4JywgJ2ZvcnRyYW5fb3JkZXInOiBGYWxzZSwgJ3NoYXBlJzogKDU2LCksIH0gICAgICAgICAgICAgICAgICAgICAgICAgICAgICAgICAgICAgICAgICAgICAgICAgICAgICAgICAgIApOOdhn5OveP2E1Aq5IDRlA8/K2TnCtG0AjXl9+MaETQFPG/mB9YhBARM9Yjs4rG0B+2f6GwUYWQDbVAwBkhA5Ak+VwOAoVCkBvVMH4h9weQAUMXhGlvBBAcAm2xOoX4j8NypRBgMoJQEcuuoyx0BdA6T2biuWMGkAIKtnNmoX8P8zVcl96AhhAkKqqJbib2z8k9c5tIacIQHkw17yP0RNAvjTxqq/6HEDve+KzVjkdQCqx/u+ww/c/xxLgudEQGECptT1jlr4PQAfeJXPz8yBA0Fg+dJft/D++ZuhOO9kbQOEa6mtj4BRAPNQURJnC8j/GkCuInKwaQE5kQl0nvApA6yZcD77YGEBhQGpmujwWQIpY9QMgPhdA6/Krm+fOF0ACpMCNCPIVQKBzy4BowBxATGoF/leqG0ASo00LHowDQMfE5jkP6+0/WJDUH9eLFkDsDqI7XfgYQMgK9E/MnSFAOvo3oVUrFUDZJ11XfxgYQMWUs5iUnxhA0AasXKTeAUAM/5k6GjgLQL+qdRWuDR1AfrNRtDoiGkC16P19eh4LQJCBof2Yaec/itjKRWpBEkBwmv9oYRAGQA7sDwvbihpA",
                "weights": "k05VTVBZAQB2AHsnZGVzY3InOiAnPGY4JywgJ2ZvcnRyYW5fb3JkZXInOiBGYWxzZSwgJ3NoYXBlJzogKDU2LCksIH0gICAgICAgICAgICAgICAgICAgICAgICAgICAgICAgICAgICAgICAgICAgICAgICAgICAgICAgICAgIAqSJEmSJEmSP5IkSZIkSZI/kiRJkiRJkj+SJEmSJEmSP5IkSZIkSZI/kiRJkiRJkj+SJEmSJEmSP5IkSZIkSZI/kiRJkiRJkj+SJEmSJEmSP5IkSZIkSZI/kiRJkiRJkj+SJEmSJEmSP5IkSZIkSZI/kiRJkiRJkj+SJEmSJEmSP5IkSZIkSZI/kiRJkiRJkj+SJEmSJEmSP5IkSZIkSZI/kiRJkiRJkj+SJEmSJEmSP5IkSZIkSZI/kiRJkiRJkj+SJEmSJEmSP5IkSZIkSZI/kiRJkiRJkj+SJEmSJEmSP5IkSZIkSZI/kiRJkiRJkj+SJEmSJEmSP5IkSZIkSZI/kiRJkiRJkj+SJEmSJEmSP5IkSZIkSZI/kiRJkiRJkj+SJEmSJEmSP5IkSZIkSZI/kiRJkiRJkj+SJEmSJEmSP5IkSZIkSZI/kiRJkiRJkj+SJEmSJEmSP5IkSZIkSZI/kiRJkiRJkj+SJEmSJEmSP5IkSZIkSZI/kiRJkiRJkj+SJEmSJEmSP5IkSZIkSZI/kiRJkiRJkj+SJEmSJEmSP5IkSZIkSZI/kiRJkiRJkj+SJEmSJEmSP5IkSZIkSZI/",
                "bandwidth": 1.04751634348798
            },
            "phi_weights": "k05VTVBZAQB2AHsnZGVzY3InOiAnPGY4JywgJ2ZvcnRyYW5fb3JkZXInOiBGYWxzZSwgJ3NoYXBlJzogKDIwMCwpLCB9ICAgICAgICAgICAgICAgICAgICAgICAgICAgICAgICAgICAgICAgICAgICAgICAgICAgICAgICAgIAp7FK5H4Xp0P3sUrkfhenQ/exSuR+F6dD97FK5H4Xp0P3sUrkfhenQ/exSuR+F6dD97FK5H4Xp0P3sUrkfhenQ/exSuR+F6dD97FK5H4Xp0P3sUrkfhenQ/exSuR+F6dD97FK5H4Xp0P3sUrkfhenQ/exSuR+F6dD97FK5H4Xp0P3sUrkfhenQ/exSuR+F6dD97FK5H4Xp0P3sUrkfhenQ/exSuR+F6dD97FK5H4Xp0P3sUrkfhenQ/exSuR+F6dD97FK5H4Xp0P3sUrkfhenQ/exSuR+F6dD97FK5H4Xp0P3sUrkfhenQ/exSuR+F6dD97FK5H4Xp0P3sUrkfhenQ/exSuR+F6dD97FK5H4Xp0P3sUrkfhenQ/exSuR+F6dD97FK5H4Xp0P3sUrkfhenQ/exSuR+F6dD97FK5H4Xp0P3sUrkfhenQ/exSuR+F6dD97FK5H4Xp0P3sUrkfhenQ/exSuR+F6dD97FK5H4Xp0P3sUrkfhenQ/exSuR+F6dD97FK5H4Xp0P3sUrkfhenQ/exSuR+F6dD97FK5H4Xp0P3sUrkfhenQ/exSuR+F6dD97FK5H4Xp0P3sUrkfhenQ/exSuR+F6dD97FK5H4Xp0P3sUrkfhenQ/exSuR+F6dD97FK5H4Xp0P3sUrkfhenQ/exSuR+F6dD97FK5H4Xp0P3sUrkfhenQ/exSuR+F6dD97FK5H4Xp0P3sUrkfhenQ/exSuR+F6dD97FK5H4Xp0P3sUrkfhenQ/exSuR+F6dD97FK5H4Xp0P3sUrkfhenQ/exSuR+F6dD97FK5H4Xp0P3sUrkfhenQ/exSuR+F6dD97FK5H4Xp0P3sUrkfhenQ/exSuR+F6dD97FK5H4Xp0P3sUrkfhenQ/exSuR+F6dD97FK5H4Xp0P3sUrkfhenQ/exSuR+F6dD97FK5H4Xp0P3sUrkfhenQ/exSuR+F6dD97FK5H4Xp0P3sUrkfhenQ/exSuR+F6dD97FK5H4Xp0P3sUrkfhenQ/exSuR+F6dD97FK5H4Xp0P3sUrkfhenQ/exSuR+F6dD97FK5H4Xp0P3sUrkfhenQ/exSuR+F6dD97FK5H4Xp0P3sUrkfhenQ/exSuR+F6dD97FK5H4Xp0P3sUrkfhenQ/exSuR+F6dD97FK5H4Xp0P3sUrkfhenQ/exSuR+F6dD97FK5H4Xp0P3sUrkfhenQ/exSuR+F6dD97FK5H4Xp0P3sUrkfhenQ/exSuR+F6dD97FK5H4Xp0P3sUrkfhenQ/exSuR+F6dD97FK5H4Xp0P3sUrkfhenQ/exSuR+F6dD97FK5H4Xp0P3sUrkfhenQ/exSuR+F6dD97FK5H4Xp0P3sUrkfhenQ/exSuR+F6dD97FK5H4Xp0P3sUrkfhenQ/exSuR+F6dD97FK5H4Xp0P3sUrkfhenQ/exSuR+F6dD97FK5H4Xp0P3sUrkfhenQ/exSuR+F6dD97FK5H4Xp0P3sUrkfhenQ/exSuR+F6dD97FK5H4Xp0P3sUrkfhenQ/exSuR+F6dD97FK5H4Xp0P3sUrkfhenQ/exSuR+F6dD97FK5H4Xp0P3sUrkfhenQ/exSuR+F6dD97FK5H4Xp0P3sUrkfhenQ/exSuR+F6dD97FK5H4Xp0P3sUrkfhenQ/exSuR+F6dD97FK5H4Xp0P3sUrkfhenQ/exSuR+F6dD97FK5H4Xp0P3sUrkfhenQ/exSuR+F6dD97FK5H4Xp0P3sUrkfhenQ/exSuR+F6dD97FK5H4Xp0P3sUrkfhenQ/exSuR+F6dD97FK5H4Xp0P3sUrkfhenQ/exSuR+F6dD97FK5H4Xp0P3sUrkfhenQ/exSuR+F6dD97FK5H4Xp0P3sUrkfhenQ/exSuR+F6dD97FK5H4Xp0P3sUrkfhenQ/exSuR+F6dD97FK5H4Xp0P3sUrkfhenQ/exSuR+F6dD97FK5H4Xp0P3sUrkfhenQ/exSuR+F6dD97FK5H4Xp0P3sUrkfhenQ/exSuR+F6dD97FK5H4Xp0P3sUrkfhenQ/exSuR+F6dD97FK5H4Xp0P3sUrkfhenQ/exSuR+F6dD97FK5H4Xp0P3sUrkfhenQ/exSuR+F6dD97FK5H4Xp0P3sUrkfhenQ/"
        },
        "HIP-GMI": {
            "theta_kde": {
                "data": "k05VTVBZAQB2AHsnZGVzY3InOiAnPGY4JywgJ2ZvcnRyYW5fb3JkZXInOiBGYWxzZSwgJ3NoYXBlJzogKDk1LCksIH0gICAgICAgICAgICAgICAgICAgICAgICAgICAgICAgICAgICAgICAgICAgICAgICAgICAgICAgICAgIAoa1o/kZzy5P5IslXuHrMA/e5mDjSzrw78dlpe+LTDKP8hrzfqCv9I/Ll+HKYqX1T/++gNWIvHOP6tmwOaD/8c/YS6BfqKjyz8yQT0GnZfLP0oBLVfTo8s/DWojKsjnuj9dZ+bZvorUP63w25cdQ9M/HWmPnCRlyD/jI1foM9y+P6NXpXNVJtY/7ajwheng0D+PycoxhOS4P9cjsQqrF9U/XiB/2QxQ1D/2SDSDRw2rv1am7UnCQMi/w7+dCe8Ezz/1F2Ol5TnFP8cfX1ZXj6q/o8epKOi/zj/vGH8SfrO/P5ZJJiEPorw/S2YLYIT2ob8JE6YIkrqzP5q1Zt99T88/gxAqmmL+yD+YQd+UCMjSPwj3K/+078U/1VNdfDPczj/CqARLLVGaPy9HiIK1/L0/KH2P1iaeuj8kh79E/fvJP5Z5O3a6ydQ/Phh/Fdadzj9jHmueokvTPxYdDGxzRcE/eNtUHx2n0D+2cWApGRLHP0QkUSDpGdM/evnGepIUo7/9wsEw2P67v+lm8EG+Jrc/f3BVNb/f1T/4ejktHlOwP8iFWp3m8dM/nSPAfc5Kyr+86q2291rMPxhr+HYV2bG/LHLVjyUs0T/NCoWP4M2tP0nwuT+cFsA/d+6vepbOy7+A95kd9GbPP0XYK9nZHNE/M0AznzEG0L++kBBd6m/RP70vkO3bZ9Q/kBcb4BRkzz+2TLmOsgbVP+NzGLtLpL0/9HGH12KIvj+XN2Yb7gzUP5JFaeAcdMw/3FEmafT1vz+d0ptDS+iHv+0LHTaOw9M/KvnMowIjtj+WhR/qlPrDP1qPVDhRIrk/Y0jSOhQnvz8ohGjiAQauv/qNil8VYtI/ZeRN1Mpgzj9Vmw/4wy2CP6Lcru8nRI0/73SYcfhuwL9dgbAdiRrVP8yP+sM3csO/hju3bRzy0j+Le1+pIr/LPzViu33Orrg/wKKDqFtqsz9YCdG2KgnRPw4qlYEz4cU/MPBxXtY1xT9x/r7jIcTGP2/Bc2d+Kc8/",
                "weights": "k05VTVBZAQB2AHsnZGVzY3InOiAnPGY4JywgJ2ZvcnRyYW5fb3JkZXInOiBGYWxzZSwgJ3NoYXBlJzogKDk1LCksIH0gICAgICAgICAgICAgICAgICAgICAgICAgICAgICAgICAgICAgICAgICAgICAgICAgICAgICAgICAgIArtWIEw0o6FP+1YgTDSjoU/7ViBMNKOhT/tWIEw0o6FP+1YgTDSjoU/7ViBMNKOhT/tWIEw0o6FP+1YgTDSjoU/7ViBMNKOhT/tWIEw0o6FP+1YgTDSjoU/7ViBMNKOhT/tWIEw0o6FP+1YgTDSjoU/7ViBMNKOhT/tWIEw0o6FP+1YgTDSjoU/7ViBMNKOhT/tWIEw0o6FP+1YgTDSjoU/7ViBMNKOhT/tWIEw0o6FP+1YgTDSjoU/7ViBMNKOhT/tWIEw0o6FP+1YgTDSjoU/7ViBMNKOhT/tWIEw0o6FP+1YgTDSjoU/7ViBMNKOhT/tWIEw0o6FP+1YgTDSjoU/7ViBMNKOhT/tWIEw0o6FP+1YgTDSjoU/7ViBMNKOhT/tWIEw0o6FP+1YgTDSjoU/7ViBMNKOhT/tWIEw0o6FP+1YgTDSjoU/7ViBMNKOhT/tWIEw0o6FP+1YgTDSjoU/7ViBMNKOhT/tWIEw0o6FP+1YgTDSjoU/7ViBMNKOhT/tWIEw0o6FP+1YgTDSjoU/7ViBMNKOhT/tWIEw0o6FP+1YgTDSjoU/7ViBMNKOhT/tWIEw0o6FP+1YgTDSjoU/7ViBMNKOhT/tWIEw0o6FP+1YgTDSjoU/7ViBMNKOhT/tWIEw0o6FP+1YgTDSjoU/7ViBMNKOhT/tWIEw0o6FP+1YgTDSjoU/7ViBMNKOhT/tWIEw0o6FP+1YgTDSjoU/7ViBMNKOhT/tWIEw0o6FP+1YgTDSjoU/7ViBMNKOhT/tWIEw0o6FP+1YgTDSjoU/7ViBMNKOhT/tWIEw0o6FP+1YgTDSjoU/7ViBMNKOhT/tWIEw0o6FP+1YgTDSjoU/7ViBMNKOhT/tWIEw0o6FP+1YgTDSjoU/7ViBMNKOhT/tWIEw0o6FP+1YgTDSjoU/7ViBMNKOhT/tWIEw0o6FP+1YgTDSjoU/7ViBMNKOhT/tWIEw0o6FP+1YgTDSjoU/7ViBMNKOhT/tWIEw0o6FP+1YgTDSjoU/",
                "bandwidth": 0.06188466721523916
            },
            "theta_weights": "k05VTVBZAQB2AHsnZGVzY3InOiAnPGY4JywgJ2ZvcnRyYW5fb3JkZXInOiBGYWxzZSwgJ3NoYXBlJzogKDIwMCwpLCB9ICAgICAgICAgICAgICAgICAgICAgICAgICAgICAgICAgICAgICAgICAgICAgICAgICAgICAgICAgIAp7FK5H4Xp0P3sUrkfhenQ/exSuR+F6dD97FK5H4Xp0P3sUrkfhenQ/exSuR+F6dD97FK5H4Xp0P3sUrkfhenQ/exSuR+F6dD97FK5H4Xp0P3sUrkfhenQ/exSuR+F6dD97FK5H4Xp0P3sUrkfhenQ/exSuR+F6dD97FK5H4Xp0P3sUrkfhenQ/exSuR+F6dD97FK5H4Xp0P3sUrkfhenQ/exSuR+F6dD97FK5H4Xp0P3sUrkfhenQ/exSuR+F6dD97FK5H4Xp0P3sUrkfhenQ/exSuR+F6dD97FK5H4Xp0P3sUrkfhenQ/exSuR+F6dD97FK5H4Xp0P3sUrkfhenQ/exSuR+F6dD97FK5H4Xp0P3sUrkfhenQ/exSuR+F6dD97FK5H4Xp0P3sUrkfhenQ/exSuR+F6dD97FK5H4Xp0P3sUrkfhenQ/exSuR+F6dD97FK5H4Xp0P3sUrkfhenQ/exSuR+F6dD97FK5H4Xp0P3sUrkfhenQ/exSuR+F6dD97FK5H4Xp0P3sUrkfhenQ/exSuR+F6dD97FK5H4Xp0P3sUrkfhenQ/exSuR+F6dD97FK5H4Xp0P3sUrkfhenQ/exSuR+F6dD97FK5H4Xp0P3sUrkfhenQ/exSuR+F6dD97FK5H4Xp0P3sUrkfhenQ/exSuR+F6dD97FK5H4Xp0P3sUrkfhenQ/exSuR+F6dD97FK5H4Xp0P3sUrkfhenQ/exSuR+F6dD97FK5H4Xp0P3sUrkfhenQ/exSuR+F6dD97FK5H4Xp0P3sUrkfhenQ/exSuR+F6dD97FK5H4Xp0P3sUrkfhenQ/exSuR+F6dD97FK5H4Xp0P3sUrkfhenQ/exSuR+F6dD97FK5H4Xp0P3sUrkfhenQ/exSuR+F6dD97FK5H4Xp0P3sUrkfhenQ/exSuR+F6dD97FK5H4Xp0P3sUrkfhenQ/exSuR+F6dD97FK5H4Xp0P3sUrkfhenQ/exSuR+F6dD97FK5H4Xp0P3sUrkfhenQ/exSuR+F6dD97FK5H4Xp0P3sUrkfhenQ/exSuR+F6dD97FK5H4Xp0P3sUrkfhenQ/exSuR+F6dD97FK5H4Xp0P3sUrkfhenQ/exSuR+F6dD97FK5H4Xp0P3sUrkfhenQ/exSuR+F6dD97FK5H4Xp0P3sUrkfhenQ/exSuR+F6dD97FK5H4Xp0P3sUrkfhenQ/exSuR+F6dD97FK5H4Xp0P3sUrkfhenQ/exSuR+F6dD97FK5H4Xp0P3sUrkfhenQ/exSuR+F6dD97FK5H4Xp0P3sUrkfhenQ/exSuR+F6dD97FK5H4Xp0P3sUrkfhenQ/exSuR+F6dD97FK5H4Xp0P3sUrkfhenQ/exSuR+F6dD97FK5H4Xp0P3sUrkfhenQ/exSuR+F6dD97FK5H4Xp0P3sUrkfhenQ/exSuR+F6dD97FK5H4Xp0P3sUrkfhenQ/exSuR+F6dD97FK5H4Xp0P3sUrkfhenQ/exSuR+F6dD97FK5H4Xp0P3sUrkfhenQ/exSuR+F6dD97FK5H4Xp0P3sUrkfhenQ/exSuR+F6dD97FK5H4Xp0P3sUrkfhenQ/exSuR+F6dD97FK5H4Xp0P3sUrkfhenQ/exSuR+F6dD97FK5H4Xp0P3sUrkfhenQ/exSuR+F6dD97FK5H4Xp0P3sUrkfhenQ/exSuR+F6dD97FK5H4Xp0P3sUrkfhenQ/exSuR+F6dD97FK5H4Xp0P3sUrkfhenQ/exSuR+F6dD97FK5H4Xp0P3sUrkfhenQ/exSuR+F6dD97FK5H4Xp0P3sUrkfhenQ/exSuR+F6dD97FK5H4Xp0P3sUrkfhenQ/exSuR+F6dD97FK5H4Xp0P3sUrkfhenQ/exSuR+F6dD97FK5H4Xp0P3sUrkfhenQ/exSuR+F6dD97FK5H4Xp0P3sUrkfhenQ/exSuR+F6dD97FK5H4Xp0P3sUrkfhenQ/exSuR+F6dD97FK5H4Xp0P3sUrkfhenQ/exSuR+F6dD97FK5H4Xp0P3sUrkfhenQ/exSuR+F6dD97FK5H4Xp0P3sUrkfhenQ/exSuR+F6dD97FK5H4Xp0P3sUrkfhenQ/exSuR+F6dD97FK5H4Xp0P3sUrkfhenQ/",
            "phi_kde": {
                "data": "k05VTVBZAQB2AHsnZGVzY3InOiAnPGY4JywgJ2ZvcnRyYW5fb3JkZXInOiBGYWxzZSwgJ3NoYXBlJzogKDEwNSwpLCB9ICAgICAgICAgICAgICAgICAgICAgICAgICAgICAgICAgICAgICAgICAgICAgICAgICAgICAgICAgIAo+2u/lrBDpPwRf3A6ynto/polw+ApD4D9TbMqbzLfcP3T6Spn7b+U/2S+KgFqf2j9iQFR8As3hP/Ttpm3glNs/CPIf3/a24T/pzhyG2KLfP9teTUPVe9c/UUlYLinc5j+IBPQREwbiP95P1TvN4u4/JLoBj1W67T/rkPHNBa3aP0cQIKlZ6fM/lNCix77A2T86io7tt57XPzXj2SlG7+A/8zANFxkR3T9Y1JlWjBDePyCWxTtGoeM/taqkleFY2z/xDlpCgs7kP2JrGBu9PuE/xF6WZV9V4T9GlstEi/naPx8vySM7jtg/CYOS6ntC3D8hhNrI0bPoP8rxMVdBTd8/VVKEbQkg4j9FcV9aobrXP3KmdKGKMNk/MpSytm8O6z+e/hqeMG/hP+JV9P++Ots/w+q6NFVf4j+CvnsDJkbgP1RshHOlidk/4s1uzWd45D8BInS/A5vfP2HvyGFeJ+c/7R37NxQc6T+KdJHBKDvZP3Ci/pV7qtw/8G0GU86o3T9rEHfE51fbP2Pqiy40fOQ/YO3ml3d13T/SB5muCsHbP41LCbUzYuQ/gvXEyuYS6T+ZA0fYMWrcP3wIS4DbDNk/JSPQr+XB5T9JGwkkXivfP8DbU1ci0eY/wjXNouB+5T/yg7Z6wRHbP2VQQ0Q6Gt8/wQo7Hwny5D8g6ovMP3/ZP3GGsAKi5Ng/Ja5ykf/G4j8pdmmedzLiP5b97ugwL9s/cJZW81sQ2z9ul/EgqlLZP/pn7YMgZ9s/IbqJl2kZ5D9ca55Kmw3fP53+4iJyp+E/SFq1lY/93D+aMKrnxazhPy0tU4vOOus/w3Ux6uxE3j+JS9zaaerYP2m2FZdpZ9w/XrS5OVna6T9rYBAxieTcP5qJIFXyrNw/5Sk9VTqg5T+0FXWLRNPoP5W8VAFGC+0/+1SOZ26t3T955MECNinjPyrjEfG4CuE/zWVHdDNZ2D+rIwAqcjTgP4sOwHNCF+A/DB9SJplf5z+4yd0xQvXpP1/l2jgQ3OQ/il5SPZfS4D/RimrcxuPXP5qlHzWtBOM/H5imXju/5T+KxJmYefbYPzMkIkDhKeo/AuF9m54t5j9Wju6Jw/TfP+RYg3PvLd4/3dy2uEHY4D8=",
                "weights": "k05VTVBZAQB2AHsnZGVzY3InOiAnPGY4JywgJ2ZvcnRyYW5fb3JkZXInOiBGYWxzZSwgJ3NoYXBlJzogKDEwNSwpLCB9ICAgICAgICAgICAgICAgICAgICAgICAgICAgICAgICAgICAgICAgICAgICAgICAgICAgICAgICAgIAoUOIETOIGDPxQ4gRM4gYM/FDiBEziBgz8UOIETOIGDPxQ4gRM4gYM/FDiBEziBgz8UOIETOIGDPxQ4gRM4gYM/FDiBEziBgz8UOIETOIGDPxQ4gRM4gYM/FDiBEziBgz8UOIETOIGDPxQ4gRM4gYM/FDiBEziBgz8UOIETOIGDPxQ4gRM4gYM/FDiBEziBgz8UOIETOIGDPxQ4gRM4gYM/FDiBEziBgz8UOIETOIGDPxQ4gRM4gYM/FDiBEziBgz8UOIETOIGDPxQ4gRM4gYM/FDiBEziBgz8UOIETOIGDPxQ4gRM4gYM/FDiBEziBgz8UOIETOIGDPxQ4gRM4gYM/FDiBEziBgz8UOIETOIGDPxQ4gRM4gYM/FDiBEziBgz8UOIETOIGDPxQ4gRM4gYM/FDiBEziBgz8UOIETOIGDPxQ4gRM4gYM/FDiBEziBgz8UOIETOIGDPxQ4gRM4gYM/FDiBEziBgz8UOIETOIGDPxQ4gRM4gYM/FDiBEziBgz8UOIETOIGDPxQ4gRM4gYM/FDiBEziBgz8UOIETOIGDPxQ4gRM4gYM/FDiBEziBgz8UOIETOIGDPxQ4gRM4gYM/FDiBEziBgz8UOIETOIGDPxQ4gRM4gYM/FDiBEziBgz8UOIETOIGDPxQ4gRM4gYM/FDiBEziBgz8UOIETOIGDPxQ4gRM4gYM/FDiBEziBgz8UOIETOIGDPxQ4gRM4gYM/FDiBEziBgz8UOIETOIGDPxQ4gRM4gYM/FDiBEziBgz8UOIETOIGDPxQ4gRM4gYM/FDiBEziBgz8UOIETOIGDPxQ4gRM4gYM/FDiBEziBgz8UOIETOIGDPxQ4gRM4gYM/FDiBEziBgz8UOIETOIGDPxQ4gRM4gYM/FDiBEziBgz8UOIETOIGDPxQ4gRM4gYM/FDiBEziBgz8UOIETOIGDPxQ4gRM4gYM/FDiBEziBgz8UOIETOIGDPxQ4gRM4gYM/FDiBEziBgz8UOIETOIGDPxQ4gRM4gYM/FDiBEziBgz8UOIETOIGDPxQ4gRM4gYM/FDiBEziBgz8UOIETOIGDPxQ4gRM4gYM/FDiBEziBgz8UOIETOIGDPxQ4gRM4gYM/FDiBEziBgz8=",
                "bandwidth": 0.06653628729673414
            },
            "phi_weights": "k05VTVBZAQB2AHsnZGVzY3InOiAnPGY4JywgJ2ZvcnRyYW5fb3JkZXInOiBGYWxzZSwgJ3NoYXBlJzogKDIwMCwpLCB9ICAgICAgICAgICAgICAgICAgICAgICAgICAgICAgICAgICAgICAgICAgICAgICAgICAgICAgICAgIAp7FK5H4Xp0P3sUrkfhenQ/exSuR+F6dD97FK5H4Xp0P3sUrkfhenQ/exSuR+F6dD97FK5H4Xp0P3sUrkfhenQ/exSuR+F6dD97FK5H4Xp0P3sUrkfhenQ/exSuR+F6dD97FK5H4Xp0P3sUrkfhenQ/exSuR+F6dD97FK5H4Xp0P3sUrkfhenQ/exSuR+F6dD97FK5H4Xp0P3sUrkfhenQ/exSuR+F6dD97FK5H4Xp0P3sUrkfhenQ/exSuR+F6dD97FK5H4Xp0P3sUrkfhenQ/exSuR+F6dD97FK5H4Xp0P3sUrkfhenQ/exSuR+F6dD97FK5H4Xp0P3sUrkfhenQ/exSuR+F6dD97FK5H4Xp0P3sUrkfhenQ/exSuR+F6dD97FK5H4Xp0P3sUrkfhenQ/exSuR+F6dD97FK5H4Xp0P3sUrkfhenQ/exSuR+F6dD97FK5H4Xp0P3sUrkfhenQ/exSuR+F6dD97FK5H4Xp0P3sUrkfhenQ/exSuR+F6dD97FK5H4Xp0P3sUrkfhenQ/exSuR+F6dD97FK5H4Xp0P3sUrkfhenQ/exSuR+F6dD97FK5H4Xp0P3sUrkfhenQ/exSuR+F6dD97FK5H4Xp0P3sUrkfhenQ/exSuR+F6dD97FK5H4Xp0P3sUrkfhenQ/exSuR+F6dD97FK5H4Xp0P3sUrkfhenQ/exSuR+F6dD97FK5H4Xp0P3sUrkfhenQ/exSuR+F6dD97FK5H4Xp0P3sUrkfhenQ/exSuR+F6dD97FK5H4Xp0P3sUrkfhenQ/exSuR+F6dD97FK5H4Xp0P3sUrkfhenQ/exSuR+F6dD97FK5H4Xp0P3sUrkfhenQ/exSuR+F6dD97FK5H4Xp0P3sUrkfhenQ/exSuR+F6dD97FK5H4Xp0P3sUrkfhenQ/exSuR+F6dD97FK5H4Xp0P3sUrkfhenQ/exSuR+F6dD97FK5H4Xp0P3sUrkfhenQ/exSuR+F6dD97FK5H4Xp0P3sUrkfhenQ/exSuR+F6dD97FK5H4Xp0P3sUrkfhenQ/exSuR+F6dD97FK5H4Xp0P3sUrkfhenQ/exSuR+F6dD97FK5H4Xp0P3sUrkfhenQ/exSuR+F6dD97FK5H4Xp0P3sUrkfhenQ/exSuR+F6dD97FK5H4Xp0P3sUrkfhenQ/exSuR+F6dD97FK5H4Xp0P3sUrkfhenQ/exSuR+F6dD97FK5H4Xp0P3sUrkfhenQ/exSuR+F6dD97FK5H4Xp0P3sUrkfhenQ/exSuR+F6dD97FK5H4Xp0P3sUrkfhenQ/exSuR+F6dD97FK5H4Xp0P3sUrkfhenQ/exSuR+F6dD97FK5H4Xp0P3sUrkfhenQ/exSuR+F6dD97FK5H4Xp0P3sUrkfhenQ/exSuR+F6dD97FK5H4Xp0P3sUrkfhenQ/exSuR+F6dD97FK5H4Xp0P3sUrkfhenQ/exSuR+F6dD97FK5H4Xp0P3sUrkfhenQ/exSuR+F6dD97FK5H4Xp0P3sUrkfhenQ/exSuR+F6dD97FK5H4Xp0P3sUrkfhenQ/exSuR+F6dD97FK5H4Xp0P3sUrkfhenQ/exSuR+F6dD97FK5H4Xp0P3sUrkfhenQ/exSuR+F6dD97FK5H4Xp0P3sUrkfhenQ/exSuR+F6dD97FK5H4Xp0P3sUrkfhenQ/exSuR+F6dD97FK5H4Xp0P3sUrkfhenQ/exSuR+F6dD97FK5H4Xp0P3sUrkfhenQ/exSuR+F6dD97FK5H4Xp0P3sUrkfhenQ/exSuR+F6dD97FK5H4Xp0P3sUrkfhenQ/exSuR+F6dD97FK5H4Xp0P3sUrkfhenQ/exSuR+F6dD97FK5H4Xp0P3sUrkfhenQ/exSuR+F6dD97FK5H4Xp0P3sUrkfhenQ/exSuR+F6dD97FK5H4Xp0P3sUrkfhenQ/exSuR+F6dD97FK5H4Xp0P3sUrkfhenQ/exSuR+F6dD97FK5H4Xp0P3sUrkfhenQ/exSuR+F6dD97FK5H4Xp0P3sUrkfhenQ/exSuR+F6dD97FK5H4Xp0P3sUrkfhenQ/exSuR+F6dD97FK5H4Xp0P3sUrkfhenQ/exSuR+F6dD97FK5H4Xp0P3sUrkfhenQ/"
        },
        "MMSE": {
            "theta_kde": {
                "data": "k05VTVBZAQB2AHsnZGVzY3InOiAnPGY4JywgJ2ZvcnRyYW5fb3JkZXInOiBGYWxzZSwgJ3NoYXBlJzogKDkzLCksIH0gICAgICAgICAgICAgICAgICAgICAgICAgICAgICAgICAgICAgICAgICAgICAgICAgICAgICAgICAgIAo0PmLL4k44QILymqTnlDVAfUuJPawpNkDIIp9bZ/w4QE7T+nM3+DVAQvQYEc70OED05GwWLqk2QJHOTxoBtDVAxrEwo+9YN0B2AmypnLE1QO44FL+ZNjZA5jdIbWp3NkDeajXmso02QFgFIH94xDZAyjO5HCNzNkCoiKaMoFQ1QP95LaCC4jZA+KJ584v4NUBg/lgLZ+k2QGhPkK052DZAKi4jRwSfNkBpH7hX5m01QK6v041SLDVA/I7CpbvSNUCuannFKFg1QExi2IQ7kzhAXoESSn31NUD+2N4erZ03QGnAm4cUljdAcg6djjAfN0A86X56J844QMaSBjwGVjZANfG4b+qdOEBYF4c5KX41QMmD1oJaBzdADw8+vKd/NkB44WIY0/A1QLqUYvGs3zVARIIt8DW4NED5qGJ2vEM2QGTgGQe8MDZAlNzH2iNUNUCXS2BP71c2QLLJhZIXcDZA4giAg08RNUD00V3HKlA1QMfDolv3JDlAnPMrA29JN0AE3njRHPs1QDI4K4SnHTZAuaJkatbMNkAWsAYXrW42QNrPAVce1DZA/kUdfTUcN0Ayhd7WWd81QGzS4v9MmDZA+oleeBU+NUAy9pLLTVg4QAqSTvRP3DVAHG9KfVHuOEC6JK2/yek2QK7onuNcIjhAM1bYyWKpNkBvWqhqnSs3QP+lMoWXqDhAaWoS7+r7NUB+GJ6f8FY4QMSIAnR33jhAas/l3+oCNkCEHIh+L2w4QHvr2UIfWDZAgEhmIs0uNkCmA8ZX0AY2QO/X4NvSHzVAQPqQ+vcrNkAAIzUK2g02QJwLny1VGzZA7+AedAwaNkCWkTJyBd02QIQw9r8mvTRAl+hjOjOuNUDwAyuQVmU1QPqUdSz2GjZAbh6UfWkNN0DmS516VbI2QOnkCAOZ+DVAUo3f2+iLNkDkX0r0eds1QNmDAqLoCzZAVpJ9+hNNNkAO7OaNCQc5QEegmrPLtzVAkaKWeBkpNUA=",
                "weights": "k05VTVBZAQB2AHsnZGVzY3InOiAnPGY4JywgJ2ZvcnRyYW5fb3JkZXInOiBGYWxzZSwgJ3NoYXBlJzogKDkzLCksIH0gICAgICAgICAgICAgICAgICAgICAgICAgICAgICAgICAgICAgICAgICAgICAgICAgICAgICAgICAgIAoGFlhggQWGPwYWWGCBBYY/BhZYYIEFhj8GFlhggQWGPwYWWGCBBYY/BhZYYIEFhj8GFlhggQWGPwYWWGCBBYY/BhZYYIEFhj8GFlhggQWGPwYWWGCBBYY/BhZYYIEFhj8GFlhggQWGPwYWWGCBBYY/BhZYYIEFhj8GFlhggQWGPwYWWGCBBYY/BhZYYIEFhj8GFlhggQWGPwYWWGCBBYY/BhZYYIEFhj8GFlhggQWGPwYWWGCBBYY/BhZYYIEFhj8GFlhggQWGPwYWWGCBBYY/BhZYYIEFhj8GFlhggQWGPwYWWGCBBYY/BhZYYIEFhj8GFlhggQWGPwYWWGCBBYY/BhZYYIEFhj8GFlhggQWGPwYWWGCBBYY/BhZYYIEFhj8GFlhggQWGPwYWWGCBBYY/BhZYYIEFhj8GFlhggQWGPwYWWGCBBYY/BhZYYIEFhj8GFlhggQWGPwYWWGCBBYY/BhZYYIEFhj8GFlhggQWGPwYWWGCBBYY/BhZYYIEFhj8GFlhggQWGPwYWWGCBBYY/BhZYYIEFhj8GFlhggQWGPwYWWGCBBYY/BhZYYIEFhj8GFlhggQWGPwYWWGCBBYY/BhZYYIEFhj8GFlhggQWGPwYWWGCBBYY/BhZYYIEFhj8GFlhggQWGPwYWWGCBBYY/BhZYYIEFhj8GFlhggQWGPwYWWGCBBYY/BhZYYIEFhj8GFlhggQWGPwYWWGCBBYY/BhZYYIEFhj8GFlhggQWGPwYWWGCBBYY/BhZYYIEFhj8GFlhggQWGPwYWWGCBBYY/BhZYYIEFhj8GFlhggQWGPwYWWGCBBYY/BhZYYIEFhj8GFlhggQWGPwYWWGCBBYY/BhZYYIEFhj8GFlhggQWGPwYWWGCBBYY/BhZYYIEFhj8GFlhggQWGPwYWWGCBBYY/BhZYYIEFhj8GFlhggQWGPwYWWGCBBYY/BhZYYIEFhj8GFlhggQWGPwYWWGCBBYY/BhZYYIEFhj8=",
                "bandwidth": 0.4699027188740575
            },
            "theta_weights": "k05VTVBZAQB2AHsnZGVzY3InOiAnPGY4JywgJ2ZvcnRyYW5fb3JkZXInOiBGYWxzZSwgJ3NoYXBlJzogKDIwMCwpLCB9ICAgICAgICAgICAgICAgICAgICAgICAgICAgICAgICAgICAgICAgICAgICAgICAgICAgICAgICAgIAp7FK5H4Xp0P3sUrkfhenQ/exSuR+F6dD97FK5H4Xp0P3sUrkfhenQ/exSuR+F6dD97FK5H4Xp0P3sUrkfhenQ/exSuR+F6dD97FK5H4Xp0P3sUrkfhenQ/exSuR+F6dD97FK5H4Xp0P3sUrkfhenQ/exSuR+F6dD97FK5H4Xp0P3sUrkfhenQ/exSuR+F6dD97FK5H4Xp0P3sUrkfhenQ/exSuR+F6dD97FK5H4Xp0P3sUrkfhenQ/exSuR+F6dD97FK5H4Xp0P3sUrkfhenQ/exSuR+F6dD97FK5H4Xp0P3sUrkfhenQ/exSuR+F6dD97FK5H4Xp0P3sUrkfhenQ/exSuR+F6dD97FK5H4Xp0P3sUrkfhenQ/exSuR+F6dD97FK5H4Xp0P3sUrkfhenQ/exSuR+F6dD97FK5H4Xp0P3sUrkfhenQ/exSuR+F6dD97FK5H4Xp0P3sUrkfhenQ/exSuR+F6dD97FK5H4Xp0P3sUrkfhenQ/exSuR+F6dD97FK5H4Xp0P3sUrkfhenQ/exSuR+F6dD97FK5H4Xp0P3sUrkfhenQ/exSuR+F6dD97FK5H4Xp0P3sUrkfhenQ/exSuR+F6dD97FK5H4Xp0P3sUrkfhenQ/exSuR+F6dD97FK5H4Xp0P3sUrkfhenQ/exSuR+F6dD97FK5H4Xp0P3sUrkfhenQ/exSuR+F6dD97FK5H4Xp0P3sUrkfhenQ/exSuR+F6dD97FK5H4Xp0P3sUrkfhenQ/exSuR+F6dD97FK5H4Xp0P3sUrkfhenQ/exSuR+F6dD97FK5H4Xp0P3sUrkfhenQ/exSuR+F6dD97FK5H4Xp0P3sUrkfhenQ/exSuR+F6dD97FK5H4Xp0P3sUrkfhenQ/exSuR+F6dD97FK5H4Xp0P3sUrkfhenQ/exSuR+F6dD97FK5H4Xp0P3sUrkfhenQ/exSuR+F6dD97FK5H4Xp0P3sUrkfhenQ/exSuR+F6dD97FK5H4Xp0P3sUrkfhenQ/exSuR+F6dD97FK5H4Xp0P3sUrkfhenQ/exSuR+F6dD97FK5H4Xp0P3sUrkfhenQ/exSuR+F6dD97FK5H4Xp0P3sUrkfhenQ/exSuR+F6dD97FK5H4Xp0P3sUrkfhenQ/exSuR+F6dD97FK5H4Xp0P3sUrkfhenQ/exSuR+F6dD97FK5H4Xp0P3sUrkfhenQ/exSuR+F6dD97FK5H4Xp0P3sUrkfhenQ/exSuR+F6dD97FK5H4Xp0P3sUrkfhenQ/exSuR+F6dD97FK5H4Xp0P3sUrkfhenQ/exSuR+F6dD97FK5H4Xp0P3sUrkfhenQ/exSuR+F6dD97FK5H4Xp0P3sUrkfhenQ/exSuR+F6dD97FK5H4Xp0P3sUrkfhenQ/exSuR+F6dD97FK5H4Xp0P3sUrkfhenQ/exSuR+F6dD97FK5H4Xp0P3sUrkfhenQ/exSuR+F6dD97FK5H4Xp0P3sUrkfhenQ/exSuR+F6dD97FK5H4Xp0P3sUrkfhenQ/exSuR+F6dD97FK5H4Xp0P3sUrkfhenQ/exSuR+F6dD97FK5H4Xp0P3sUrkfhenQ/exSuR+F6dD97FK5H4Xp0P3sUrkfhenQ/exSuR+F6dD97FK5H4Xp0P3sUrkfhenQ/exSuR+F6dD97FK5H4Xp0P3sUrkfhenQ/exSuR+F6dD97FK5H4Xp0P3sUrkfhenQ/exSuR+F6dD97FK5H4Xp0P3sUrkfhenQ/exSuR+F6dD97FK5H4Xp0P3sUrkfhenQ/exSuR+F6dD97FK5H4Xp0P3sUrkfhenQ/exSuR+F6dD97FK5H4Xp0P3sUrkfhenQ/exSuR+F6dD97FK5H4Xp0P3sUrkfhenQ/exSuR+F6dD97FK5H4Xp0P3sUrkfhenQ/exSuR+F6dD97FK5H4Xp0P3sUrkfhenQ/exSuR+F6dD97FK5H4Xp0P3sUrkfhenQ/exSuR+F6dD97FK5H4Xp0P3sUrkfhenQ/exSuR+F6dD97FK5H4Xp0P3sUrkfhenQ/exSuR+F6dD97FK5H4Xp0P3sUrkfhenQ/exSuR+F6dD97FK5H4Xp0P3sUrkfhenQ/exSuR+F6dD97FK5H4Xp0P3sUrkfhenQ/",
            "phi_kde": {
                "data": "k05VTVBZAQB2AHsnZGVzY3InOiAnPGY4JywgJ2ZvcnRyYW5fb3JkZXInOiBGYWxzZSwgJ3NoYXBlJzogKDEwNywpLCB9ICAgICAgICAgICAgICAgICAgICAgICAgICAgICAgICAgICAgICAgICAgICAgICAgICAgICAgICAgIAr/yJWqktM7QLCypiGMjTtAwqd5GXJCO0A3zEFETj88QKjqgYFHKTxAB/VrkavEOkCfDQN96fE9QJO33mqZJjxAH1dvSMuzO0AqxVCdS1Y7QMCbzBicbDxAe4WnD3sAPEDk8DV0uJM9QIIePTSQzztAOTqTmy31OkBTvGepYWk5QJ2D9j8xZTxAvmBHco0xPEBE2l+pOz09QN+PKs+J7TtAHYn4cga3O0CCZxod7PQ7QKJHCH7y/jtAHPj/i2fnOkCvufVctnI7QOxz6xr6njtAhdXufeneO0ClY3PefRQ8QDbh7T3lmjtAoyO9VFEhPECnRwA2a5U6QJgctf+PozxAbHcuQIuhO0CbcoF47T46QCrcmrU45jpAToburz9hPEArl9xY4WE8QJ6nSCGIHjxAwvZJL8efPEDdWE6HwAo7QLOpnmC7jjtAl+DP1nlEO0DoMvM/BLw8QDv3BfkQazxAZD11nFbmOkB/x6Md8Rc7QJVw2zdOeTxAJhxYNczAOUAbO62CFIg6QLAbySrxjzpA3EelWkuoPECXQbR5bXY7QJxRV3P1YztAqaj/q9ZgPEA2meqX88o8QL5JXbGfejxAO/uCrqKCO0Dtw+u9+Ik7QKPHCWhpsTxAhXWUafijPEBF4K1uWDM8QFf7wrfzojpAObPQAwTiPED/BI12sJw7QEQpt9LRijxAWepsy4VXOkCmb1mPHY08QPGJPo1KAjtA/anL9sfHPED1Xi/M5DA8QFyGamxAezxAH7XOSZGcO0DQEzWCSwA8QHqOzyRZEztAk29keRnmPEBA+6SvKrU7QCcAwR6rlDtAWHGUjlElO0C0O7334EE7QB47rAuHWjxAxqt6sDL8OkBznEm2Jc88QGzC5GNEWjtA/0HHx4W+OUD/RwkQVuc7QKdjWSKaKzxA2TANKwdMO0BM89pMK2Y7QDdwnBlX+DpAqy6waOlHOUD9cg3Izgk8QDUbx5Ji8DxAMMijjOT+PECvaYZpPtY7QG+MjipN4jpAr7c0oE75O0DCMbB8Ox07QMBrIJPjYTtAevx2bfhfO0A44eP4BAI8QOWWcHW9UTtALnWtyqiCO0A4fOX0UVA8QElpOMt9tjpA1cchJQ6/O0CHSgKvlT89QBaIWCGqLz1A",
                "weights": "k05VTVBZAQB2AHsnZGVzY3InOiAnPGY4JywgJ2ZvcnRyYW5fb3JkZXInOiBGYWxzZSwgJ3NoYXBlJzogKDEwNywpLCB9ICAgICAgICAgICAgICAgICAgICAgICAgICAgICAgICAgICAgICAgICAgICAgICAgICAgICAgICAgIAq/ECtK4yODP78QK0rjI4M/vxArSuMjgz+/ECtK4yODP78QK0rjI4M/vxArSuMjgz+/ECtK4yODP78QK0rjI4M/vxArSuMjgz+/ECtK4yODP78QK0rjI4M/vxArSuMjgz+/ECtK4yODP78QK0rjI4M/vxArSuMjgz+/ECtK4yODP78QK0rjI4M/vxArSuMjgz+/ECtK4yODP78QK0rjI4M/vxArSuMjgz+/ECtK4yODP78QK0rjI4M/vxArSuMjgz+/ECtK4yODP78QK0rjI4M/vxArSuMjgz+/ECtK4yODP78QK0rjI4M/vxArSuMjgz+/ECtK4yODP78QK0rjI4M/vxArSuMjgz+/ECtK4yODP78QK0rjI4M/vxArSuMjgz+/ECtK4yODP78QK0rjI4M/vxArSuMjgz+/ECtK4yODP78QK0rjI4M/vxArSuMjgz+/ECtK4yODP78QK0rjI4M/vxArSuMjgz+/ECtK4yODP78QK0rjI4M/vxArSuMjgz+/ECtK4yODP78QK0rjI4M/vxArSuMjgz+/ECtK4yODP78QK0rjI4M/vxArSuMjgz+/ECtK4yODP78QK0rjI4M/vxArSuMjgz+/ECtK4yODP78QK0rjI4M/vxArSuMjgz+/ECtK4yODP78QK0rjI4M/vxArSuMjgz+/ECtK4yODP78QK0rjI4M/vxArSuMjgz+/ECtK4yODP78QK0rjI4M/vxArSuMjgz+/ECtK4yODP78QK0rjI4M/vxArSuMjgz+/ECtK4yODP78QK0rjI4M/vxArSuMjgz+/ECtK4yODP78QK0rjI4M/vxArSuMjgz+/ECtK4yODP78QK0rjI4M/vxArSuMjgz+/ECtK4yODP78QK0rjI4M/vxArSuMjgz+/ECtK4yODP78QK0rjI4M/vxArSuMjgz+/ECtK4yODP78QK0rjI4M/vxArSuMjgz+/ECtK4yODP78QK0rjI4M/vxArSuMjgz+/ECtK4yODP78QK0rjI4M/vxArSuMjgz+/ECtK4yODP78QK0rjI4M/vxArSuMjgz+/ECtK4yODP78QK0rjI4M/vxArSuMjgz+/ECtK4yODP78QK0rjI4M/vxArSuMjgz+/ECtK4yODP78QK0rjI4M/",
                "bandwidth": 0.35546504436724136
            },
            "phi_weights": "k05VTVBZAQB2AHsnZGVzY3InOiAnPGY4JywgJ2ZvcnRyYW5fb3JkZXInOiBGYWxzZSwgJ3NoYXBlJzogKDIwMCwpLCB9ICAgICAgICAgICAgICAgICAgICAgICAgICAgICAgICAgICAgICAgICAgICAgICAgICAgICAgICAgIAp7FK5H4Xp0P3sUrkfhenQ/exSuR+F6dD97FK5H4Xp0P3sUrkfhenQ/exSuR+F6dD97FK5H4Xp0P3sUrkfhenQ/exSuR+F6dD97FK5H4Xp0P3sUrkfhenQ/exSuR+F6dD97FK5H4Xp0P3sUrkfhenQ/exSuR+F6dD97FK5H4Xp0P3sUrkfhenQ/exSuR+F6dD97FK5H4Xp0P3sUrkfhenQ/exSuR+F6dD97FK5H4Xp0P3sUrkfhenQ/exSuR+F6dD97FK5H4Xp0P3sUrkfhenQ/exSuR+F6dD97FK5H4Xp0P3sUrkfhenQ/exSuR+F6dD97FK5H4Xp0P3sUrkfhenQ/exSuR+F6dD97FK5H4Xp0P3sUrkfhenQ/exSuR+F6dD97FK5H4Xp0P3sUrkfhenQ/exSuR+F6dD97FK5H4Xp0P3sUrkfhenQ/exSuR+F6dD97FK5H4Xp0P3sUrkfhenQ/exSuR+F6dD97FK5H4Xp0P3sUrkfhenQ/exSuR+F6dD97FK5H4Xp0P3sUrkfhenQ/exSuR+F6dD97FK5H4Xp0P3sUrkfhenQ/exSuR+F6dD97FK5H4Xp0P3sUrkfhenQ/exSuR+F6dD97FK5H4Xp0P3sUrkfhenQ/exSuR+F6dD97FK5H4Xp0P3sUrkfhenQ/exSuR+F6dD97FK5H4Xp0P3sUrkfhenQ/exSuR+F6dD97FK5H4Xp0P3sUrkfhenQ/exSuR+F6dD97FK5H4Xp0P3sUrkfhenQ/exSuR+F6dD97FK5H4Xp0P3sUrkfhenQ/exSuR+F6dD97FK5H4Xp0P3sUrkfhenQ/exSuR+F6dD97FK5H4Xp0P3sUrkfhenQ/exSuR+F6dD97FK5H4Xp0P3sUrkfhenQ/exSuR+F6dD97FK5H4Xp0P3sUrkfhenQ/exSuR+F6dD97FK5H4Xp0P3sUrkfhenQ/exSuR+F6dD97FK5H4Xp0P3sUrkfhenQ/exSuR+F6dD97FK5H4Xp0P3sUrkfhenQ/exSuR+F6dD97FK5H4Xp0P3sUrkfhenQ/exSuR+F6dD97FK5H4Xp0P3sUrkfhenQ/exSuR+F6dD97FK5H4Xp0P3sUrkfhenQ/exSuR+F6dD97FK5H4Xp0P3sUrkfhenQ/exSuR+F6dD97FK5H4Xp0P3sUrkfhenQ/exSuR+F6dD97FK5H4Xp0P3sUrkfhenQ/exSuR+F6dD97FK5H4Xp0P3sUrkfhenQ/exSuR+F6dD97FK5H4Xp0P3sUrkfhenQ/exSuR+F6dD97FK5H4Xp0P3sUrkfhenQ/exSuR+F6dD97FK5H4Xp0P3sUrkfhenQ/exSuR+F6dD97FK5H4Xp0P3sUrkfhenQ/exSuR+F6dD97FK5H4Xp0P3sUrkfhenQ/exSuR+F6dD97FK5H4Xp0P3sUrkfhenQ/exSuR+F6dD97FK5H4Xp0P3sUrkfhenQ/exSuR+F6dD97FK5H4Xp0P3sUrkfhenQ/exSuR+F6dD97FK5H4Xp0P3sUrkfhenQ/exSuR+F6dD97FK5H4Xp0P3sUrkfhenQ/exSuR+F6dD97FK5H4Xp0P3sUrkfhenQ/exSuR+F6dD97FK5H4Xp0P3sUrkfhenQ/exSuR+F6dD97FK5H4Xp0P3sUrkfhenQ/exSuR+F6dD97FK5H4Xp0P3sUrkfhenQ/exSuR+F6dD97FK5H4Xp0P3sUrkfhenQ/exSuR+F6dD97FK5H4Xp0P3sUrkfhenQ/exSuR+F6dD97FK5H4Xp0P3sUrkfhenQ/exSuR+F6dD97FK5H4Xp0P3sUrkfhenQ/exSuR+F6dD97FK5H4Xp0P3sUrkfhenQ/exSuR+F6dD97FK5H4Xp0P3sUrkfhenQ/exSuR+F6dD97FK5H4Xp0P3sUrkfhenQ/exSuR+F6dD97FK5H4Xp0P3sUrkfhenQ/exSuR+F6dD97FK5H4Xp0P3sUrkfhenQ/exSuR+F6dD97FK5H4Xp0P3sUrkfhenQ/exSuR+F6dD97FK5H4Xp0P3sUrkfhenQ/exSuR+F6dD97FK5H4Xp0P3sUrkfhenQ/exSuR+F6dD97FK5H4Xp0P3sUrkfhenQ/exSuR+F6dD97FK5H4Xp0P3sUrkfhenQ/"
        },
        "P-Tau": {
            "theta_kde": {
                "data": "k05VTVBZAQB2AHsnZGVzY3InOiAnPGY4JywgJ2ZvcnRyYW5fb3JkZXInOiBGYWxzZSwgJ3NoYXBlJzogKDEwOSwpLCB9ICAgICAgICAgICAgICAgICAgICAgICAgICAgICAgICAgICAgICAgICAgICAgICAgICAgICAgICAgIAqJnoBD4S9QwNDEqyily0XAy0p8/mgTSMCKYu5hd35NwPj5a+i2C0TA54ovr3ekR8Ay+C7l5MtTwFwWO6hBnFLA7CpgADChSsA8IGMrlqhDwOQ9qqslr0bA8i76EpPWTcBcEBtIP2FRwHefZUETeUTAfmvcBgDrTcDIdbx9neRJwC7CpRO6gk3ABgvH5B72RMCUwAxD2wdHwEiNXx7VhlLAVeghPncTUMBvfeX7KIdSwFp6MiClf03AJfxCSHJuS8BCL2ryESBPwEyZPzrMHUjAbEamVXgNTcD2VCFK2CNOwLsogkof2ErAOg3hG5QLSMAD8iyndsBMwDuCU1gXCUXAGr0S+s69TMBQeiL6JO9CwPhfnoDGYkbAs+rLc5YYQ8BKya50PSVJwImOEzTo6EXASAWLl5/ERMAaf9V+yEBIwLL0eYswCkfAFZ9EdhS+UcB8vsJSBDxSwNgNHF4Kb0rA4p/aoIkzScDMfqqBAstGwMhDZreCMUnAYzGrTw2vQ8DTsZyNECJKwPlmdSq/tUXATnNt43/6U8Aa1djC4GpQwNGvOcAc8k/A9S0UqkfER8CWgSxCPNlIwHJNzkx3YkjAXH1iBDPwSMAVatDzVgFSwO2uLlD/20XARby9jwpBRcC6d+fqlepGwDrU6ONg4EPASlGMAPF+R8BwiM5a/TdLwMQKMWxnn0XAG3q+rjEARMCKtyt3fKhRwA2RF46ONEfAp98mZLkjS8Cu0NnnE7BDwOt+/hGeOUvAvB6+VluBTcBqB5hDFv1FwNZHBzY6hkfA3bNJfb0CRcALGzpFfWFHwPzoWFgbPEPA/LSFZ652R8CeGB+vNXFLwMb9ADk/8EfAoEW49QJ8TMA5jzCy8LRQwPnuh5CXpEjA3o4cit3wS8BzvH2BTeJUwFDQELO4c1HAxxN1RaaJU8DcCUXLo2xLwLV81/fpRETACbLicsE9Q8CT2C7TPmlSwHTrNAfeNlLAjA3YFvv9QsBB/bwzyP1FwInOqqbVh0nAQB7PH4O0RsAmgtqljX9FwL0b+iLy90LA67iWIf84RMBKvOkfhM5FwKUKly9ksknAo5OuqKG3RMCG71yhZa1OwFUok3CnWUzAJ3Vj+Ja+TMAccVLw7TBGwPkRJDDuZ0nA7uhRr8w2SsA0xQUjNEhFwA==",
                "weights": "k05VTVBZAQB2AHsnZGVzY3InOiAnPGY4JywgJ2ZvcnRyYW5fb3JkZXInOiBGYWxzZSwgJ3NoYXBlJzogKDEwOSwpLCB9ICAgICAgICAgICAgICAgICAgICAgICAgICAgICAgICAgICAgICAgICAgICAgICAgICAgICAgICAgIAqgLIFN+8mCP6AsgU37yYI/oCyBTfvJgj+gLIFN+8mCP6AsgU37yYI/oCyBTfvJgj+gLIFN+8mCP6AsgU37yYI/oCyBTfvJgj+gLIFN+8mCP6AsgU37yYI/oCyBTfvJgj+gLIFN+8mCP6AsgU37yYI/oCyBTfvJgj+gLIFN+8mCP6AsgU37yYI/oCyBTfvJgj+gLIFN+8mCP6AsgU37yYI/oCyBTfvJgj+gLIFN+8mCP6AsgU37yYI/oCyBTfvJgj+gLIFN+8mCP6AsgU37yYI/oCyBTfvJgj+gLIFN+8mCP6AsgU37yYI/oCyBTfvJgj+gLIFN+8mCP6AsgU37yYI/oCyBTfvJgj+gLIFN+8mCP6AsgU37yYI/oCyBTfvJgj+gLIFN+8mCP6AsgU37yYI/oCyBTfvJgj+gLIFN+8mCP6AsgU37yYI/oCyBTfvJgj+gLIFN+8mCP6AsgU37yYI/oCyBTfvJgj+gLIFN+8mCP6AsgU37yYI/oCyBTfvJgj+gLIFN+8mCP6AsgU37yYI/oCyBTfvJgj+gLIFN+8mCP6AsgU37yYI/oCyBTfvJgj+gLIFN+8mCP6AsgU37yYI/oCyBTfvJgj+gLIFN+8mCP6AsgU37yYI/oCyBTfvJgj+gLIFN+8mCP6AsgU37yYI/oCyBTfvJgj+gLIFN+8mCP6AsgU37yYI/oCyBTfvJgj+gLIFN+8mCP6AsgU37yYI/oCyBTfvJgj+gLIFN+8mCP6AsgU37yYI/oCyBTfvJgj+gLIFN+8mCP6AsgU37yYI/oCyBTfvJgj+gLIFN+8mCP6AsgU37yYI/oCyBTfvJgj+gLIFN+8mCP6AsgU37yYI/oCyBTfvJgj+gLIFN+8mCP6AsgU37yYI/oCyBTfvJgj+gLIFN+8mCP6AsgU37yYI/oCyBTfvJgj+gLIFN+8mCP6AsgU37yYI/oCyBTfvJgj+gLIFN+8mCP6AsgU37yYI/oCyBTfvJgj+gLIFN+8mCP6AsgU37yYI/oCyBTfvJgj+gLIFN+8mCP6AsgU37yYI/oCyBTfvJgj+gLIFN+8mCP6AsgU37yYI/oCyBTfvJgj+gLIFN+8mCP6AsgU37yYI/oCyBTfvJgj+gLIFN+8mCP6AsgU37yYI/oCyBTfvJgj+gLIFN+8mCPw==",
                "bandwidth": 4.665610066707375
            },
            "theta_weights": "k05VTVBZAQB2AHsnZGVzY3InOiAnPGY4JywgJ2ZvcnRyYW5fb3JkZXInOiBGYWxzZSwgJ3NoYXBlJzogKDIwMCwpLCB9ICAgICAgICAgICAgICAgICAgICAgICAgICAgICAgICAgICAgICAgICAgICAgICAgICAgICAgICAgIAp7FK5H4Xp0P3sUrkfhenQ/exSuR+F6dD97FK5H4Xp0P3sUrkfhenQ/exSuR+F6dD97FK5H4Xp0P3sUrkfhenQ/exSuR+F6dD97FK5H4Xp0P3sUrkfhenQ/exSuR+F6dD97FK5H4Xp0P3sUrkfhenQ/exSuR+F6dD97FK5H4Xp0P3sUrkfhenQ/exSuR+F6dD97FK5H4Xp0P3sUrkfhenQ/exSuR+F6dD97FK5H4Xp0P3sUrkfhenQ/exSuR+F6dD97FK5H4Xp0P3sUrkfhenQ/exSuR+F6dD97FK5H4Xp0P3sUrkfhenQ/exSuR+F6dD97FK5H4Xp0P3sUrkfhenQ/exSuR+F6dD97FK5H4Xp0P3sUrkfhenQ/exSuR+F6dD97FK5H4Xp0P3sUrkfhenQ/exSuR+F6dD97FK5H4Xp0P3sUrkfhenQ/exSuR+F6dD97FK5H4Xp0P3sUrkfhenQ/exSuR+F6dD97FK5H4Xp0P3sUrkfhenQ/exSuR+F6dD97FK5H4Xp0P3sUrkfhenQ/exSuR+F6dD97FK5H4Xp0P3sUrkfhenQ/exSuR+F6dD97FK5H4Xp0P3sUrkfhenQ/exSuR+F6dD97FK5H4Xp0P3sUrkfhenQ/exSuR+F6dD97FK5H4Xp0P3sUrkfhenQ/exSuR+F6dD97FK5H4Xp0P3sUrkfhenQ/exSuR+F6dD97FK5H4Xp0P3sUrkfhenQ/exSuR+F6dD97FK5H4Xp0P3sUrkfhenQ/exSuR+F6dD97FK5H4Xp0P3sUrkfhenQ/exSuR+F6dD97FK5H4Xp0P3sUrkfhenQ/exSuR+F6dD97FK5H4Xp0P3sUrkfhenQ/exSuR+F6dD97FK5H4Xp0P3sUrkfhenQ/exSuR+F6dD97FK5H4Xp0P3sUrkfhenQ/exSuR+F6dD97FK5H4Xp0P3sUrkfhenQ/exSuR+F6dD97FK5H4Xp0P3sUrkfhenQ/exSuR+F6dD97FK5H4Xp0P3sUrkfhenQ/exSuR+F6dD97FK5H4Xp0P3sUrkfhenQ/exSuR+F6dD97FK5H4Xp0P3sUrkfhenQ/exSuR+F6dD97FK5H4Xp0P3sUrkfhenQ/exSuR+F6dD97FK5H4Xp0P3sUrkfhenQ/exSuR+F6dD97FK5H4Xp0P3sUrkfhenQ/exSuR+F6dD97FK5H4Xp0P3sUrkfhenQ/exSuR+F6dD97FK5H4Xp0P3sUrkfhenQ/exSuR+F6dD97FK5H4Xp0P3sUrkfhenQ/exSuR+F6dD97FK5H4Xp0P3sUrkfhenQ/exSuR+F6dD97FK5H4Xp0P3sUrkfhenQ/exSuR+F6dD97FK5H4Xp0P3sUrkfhenQ/exSuR+F6dD97FK5H4Xp0P3sUrkfhenQ/exSuR+F6dD97FK5H4Xp0P3sUrkfhenQ/exSuR+F6dD97FK5H4Xp0P3sUrkfhenQ/exSuR+F6dD97FK5H4Xp0P3sUrkfhenQ/exSuR+F6dD97FK5H4Xp0P3sUrkfhenQ/exSuR+F6dD97FK5H4Xp0P3sUrkfhenQ/exSuR+F6dD97FK5H4Xp0P3sUrkfhenQ/exSuR+F6dD97FK5H4Xp0P3sUrkfhenQ/exSuR+F6dD97FK5H4Xp0P3sUrkfhenQ/exSuR+F6dD97FK5H4Xp0P3sUrkfhenQ/exSuR+F6dD97FK5H4Xp0P3sUrkfhenQ/exSuR+F6dD97FK5H4Xp0P3sUrkfhenQ/exSuR+F6dD97FK5H4Xp0P3sUrkfhenQ/exSuR+F6dD97FK5H4Xp0P3sUrkfhenQ/exSuR+F6dD97FK5H4Xp0P3sUrkfhenQ/exSuR+F6dD97FK5H4Xp0P3sUrkfhenQ/exSuR+F6dD97FK5H4Xp0P3sUrkfhenQ/exSuR+F6dD97FK5H4Xp0P3sUrkfhenQ/exSuR+F6dD97FK5H4Xp0P3sUrkfhenQ/exSuR+F6dD97FK5H4Xp0P3sUrkfhenQ/exSuR+F6dD97FK5H4Xp0P3sUrkfhenQ/exSuR+F6dD97FK5H4Xp0P3sUrkfhenQ/exSuR+F6dD97FK5H4Xp0P3sUrkfhenQ/exSuR+F6dD97FK5H4Xp0P3sUrkfhenQ/",
            "phi_kde": {
                "data": "k05VTVBZAQB2AHsnZGVzY3InOiAnPGY4JywgJ2ZvcnRyYW5fb3JkZXInOiBGYWxzZSwgJ3NoYXBlJzogKDkxLCksIH0gICAgICAgICAgICAgICAgICAgICAgICAgICAgICAgICAgICAgICAgICAgICAgICAgICAgICAgICAgIAo9ShvOvnc4wMqKwF06SjjAGDVTcPNTDMBZP56T4xw7wCs0LncbwT/ABRmbxFt6QMDkNbYPilY+wGVTAdO1KgXA9o59a96uMMBFex3IXxNBwKtUkgulftq/9W9eKZRqOMBQdMmtZ+00wM/w8xWcTiDA2SCYe+CJP8Ai9C2bU2JBwMkIFY7mYDTAFkx6nuBpQsBy4vn8NdY9wF3jtQyqITjAkFbPyPUsEcAMZ2OLICATQBlqxZ1+5ijAm2/0M/PjPMDB48NAx0Q/wJP43hLxl0HA2P5u/EbHK8BKTpd6RAo/wEgd6uyBNjnAiPq7R9l3LsBvZwWmLVM8wN0zcRpWakHAS7sRGC7gIcBq5W4cTKc+wO41U2sEPTnA+2GtWdSIPMD6dDMKN4RAwAxhGLVmkEDAJjXM8eW5McBHAok/RUtCwAcTLvpoSTvAQ+89awn2QcBnXqeKLaIswAx45WSw9EDAbe5+4/0gIsDBwrg3bYUiQDB8Skj0Xj/AZK7zNiFRQsDyD8VX5K0pQGxqrslT2jzALEBSJA2VO8DIW8I/IH9BwPIg6HsT6DzADsl9clXKQcDnpmjNeBYewN98HHHGiS3A7t/Hh1qzNsDgNsBnWLIvwEqi2f3zFkDA8H2I1rx2HsB39fmvMYU5wFb6oa5FSyDAy9lmTRyaPMCobs6vKIQywP59ESgjJ0DAjU/SDa+sQcDRLtaZwpRAwNRVOTBu1DXAjb5fHjxGMsAmONHLbRY2wArh4p8J4DXAOVbfW4KyP8AU2KmmSxEXwHWH3C3jIz3ABzKMUDMLA8CpTXr34BTjv1HeAxJWmEHAu0ecTlIUKMDxwkiG4X8awK8aED0VijHA3HhIQ2AOQsBBhLDIHMo8wAjLQ1q9cEDAqm8h93HRP8Dd6b/rQGwpwNheYCnduwzAFsWX0/jmEcCxkpLOGXZBwOEuEZ82vTPAvtLdg2fiIsA8sORnC1RAwA==",
                "weights": "k05VTVBZAQB2AHsnZGVzY3InOiAnPGY4JywgJ2ZvcnRyYW5fb3JkZXInOiBGYWxzZSwgJ3NoYXBlJzogKDkxLCksIH0gICAgICAgICAgICAgICAgICAgICAgICAgICAgICAgICAgICAgICAgICAgICAgICAgICAgICAgICAgIAoXaIEWaIGGPxdogRZogYY/F2iBFmiBhj8XaIEWaIGGPxdogRZogYY/F2iBFmiBhj8XaIEWaIGGPxdogRZogYY/F2iBFmiBhj8XaIEWaIGGPxdogRZogYY/F2iBFmiBhj8XaIEWaIGGPxdogRZogYY/F2iBFmiBhj8XaIEWaIGGPxdogRZogYY/F2iBFmiBhj8XaIEWaIGGPxdogRZogYY/F2iBFmiBhj8XaIEWaIGGPxdogRZogYY/F2iBFmiBhj8XaIEWaIGGPxdogRZogYY/F2iBFmiBhj8XaIEWaIGGPxdogRZogYY/F2iBFmiBhj8XaIEWaIGGPxdogRZogYY/F2iBFmiBhj8XaIEWaIGGPxdogRZogYY/F2iBFmiBhj8XaIEWaIGGPxdogRZogYY/F2iBFmiBhj8XaIEWaIGGPxdogRZogYY/F2iBFmiBhj8XaIEWaIGGPxdogRZogYY/F2iBFmiBhj8XaIEWaIGGPxdogRZogYY/F2iBFmiBhj8XaIEWaIGGPxdogRZogYY/F2iBFmiBhj8XaIEWaIGGPxdogRZogYY/F2iBFmiBhj8XaIEWaIGGPxdogRZogYY/F2iBFmiBhj8XaIEWaIGGPxdogRZogYY/F2iBFmiBhj8XaIEWaIGGPxdogRZogYY/F2iBFmiBhj8XaIEWaIGGPxdogRZogYY/F2iBFmiBhj8XaIEWaIGGPxdogRZogYY/F2iBFmiBhj8XaIEWaIGGPxdogRZogYY/F2iBFmiBhj8XaIEWaIGGPxdogRZogYY/F2iBFmiBhj8XaIEWaIGGPxdogRZogYY/F2iBFmiBhj8XaIEWaIGGPxdogRZogYY/F2iBFmiBhj8XaIEWaIGGPxdogRZogYY/F2iBFmiBhj8XaIEWaIGGPxdogRZogYY/F2iBFmiBhj8XaIEWaIGGPxdogRZogYY/F2iBFmiBhj8XaIEWaIGGPw==",
                "bandwidth": 5.196100749617764
            },
            "phi_weights": "k05VTVBZAQB2AHsnZGVzY3InOiAnPGY4JywgJ2ZvcnRyYW5fb3JkZXInOiBGYWxzZSwgJ3NoYXBlJzogKDIwMCwpLCB9ICAgICAgICAgICAgICAgICAgICAgICAgICAgICAgICAgICAgICAgICAgICAgICAgICAgICAgICAgIAp7FK5H4Xp0P3sUrkfhenQ/exSuR+F6dD97FK5H4Xp0P3sUrkfhenQ/exSuR+F6dD97FK5H4Xp0P3sUrkfhenQ/exSuR+F6dD97FK5H4Xp0P3sUrkfhenQ/exSuR+F6dD97FK5H4Xp0P3sUrkfhenQ/exSuR+F6dD97FK5H4Xp0P3sUrkfhenQ/exSuR+F6dD97FK5H4Xp0P3sUrkfhenQ/exSuR+F6dD97FK5H4Xp0P3sUrkfhenQ/exSuR+F6dD97FK5H4Xp0P3sUrkfhenQ/exSuR+F6dD97FK5H4Xp0P3sUrkfhenQ/exSuR+F6dD97FK5H4Xp0P3sUrkfhenQ/exSuR+F6dD97FK5H4Xp0P3sUrkfhenQ/exSuR+F6dD97FK5H4Xp0P3sUrkfhenQ/exSuR+F6dD97FK5H4Xp0P3sUrkfhenQ/exSuR+F6dD97FK5H4Xp0P3sUrkfhenQ/exSuR+F6dD97FK5H4Xp0P3sUrkfhenQ/exSuR+F6dD97FK5H4Xp0P3sUrkfhenQ/exSuR+F6dD97FK5H4Xp0P3sUrkfhenQ/exSuR+F6dD97FK5H4Xp0P3sUrkfhenQ/exSuR+F6dD97FK5H4Xp0P3sUrkfhenQ/exSuR+F6dD97FK5H4Xp0P3sUrkfhenQ/exSuR+F6dD97FK5H4Xp0P3sUrkfhenQ/exSuR+F6dD97FK5H4Xp0P3sUrkfhenQ/exSuR+F6dD97FK5H4Xp0P3sUrkfhenQ/exSuR+F6dD97FK5H4Xp0P3sUrkfhenQ/exSuR+F6dD97FK5H4Xp0P3sUrkfhenQ/exSuR+F6dD97FK5H4Xp0P3sUrkfhenQ/exSuR+F6dD97FK5H4Xp0P3sUrkfhenQ/exSuR+F6dD97FK5H4Xp0P3sUrkfhenQ/exSuR+F6dD97FK5H4Xp0P3sUrkfhenQ/exSuR+F6dD97FK5H4Xp0P3sUrkfhenQ/exSuR+F6dD97FK5H4Xp0P3sUrkfhenQ/exSuR+F6dD97FK5H4Xp0P3sUrkfhenQ/exSuR+F6dD97FK5H4Xp0P3sUrkfhenQ/exSuR+F6dD97FK5H4Xp0P3sUrkfhenQ/exSuR+F6dD97FK5H4Xp0P3sUrkfhenQ/exSuR+F6dD97FK5H4Xp0P3sUrkfhenQ/exSuR+F6dD97FK5H4Xp0P3sUrkfhenQ/exSuR+F6dD97FK5H4Xp0P3sUrkfhenQ/exSuR+F6dD97FK5H4Xp0P3sUrkfhenQ/exSuR+F6dD97FK5H4Xp0P3sUrkfhenQ/exSuR+F6dD97FK5H4Xp0P3sUrkfhenQ/exSuR+F6dD97FK5H4Xp0P3sUrkfhenQ/exSuR+F6dD97FK5H4Xp0P3sUrkfhenQ/exSuR+F6dD97FK5H4Xp0P3sUrkfhenQ/exSuR+F6dD97FK5H4Xp0P3sUrkfhenQ/exSuR+F6dD97FK5H4Xp0P3sUrkfhenQ/exSuR+F6dD97FK5H4Xp0P3sUrkfhenQ/exSuR+F6dD97FK5H4Xp0P3sUrkfhenQ/exSuR+F6dD97FK5H4Xp0P3sUrkfhenQ/exSuR+F6dD97FK5H4Xp0P3sUrkfhenQ/exSuR+F6dD97FK5H4Xp0P3sUrkfhenQ/exSuR+F6dD97FK5H4Xp0P3sUrkfhenQ/exSuR+F6dD97FK5H4Xp0P3sUrkfhenQ/exSuR+F6dD97FK5H4Xp0P3sUrkfhenQ/exSuR+F6dD97FK5H4Xp0P3sUrkfhenQ/exSuR+F6dD97FK5H4Xp0P3sUrkfhenQ/exSuR+F6dD97FK5H4Xp0P3sUrkfhenQ/exSuR+F6dD97FK5H4Xp0P3sUrkfhenQ/exSuR+F6dD97FK5H4Xp0P3sUrkfhenQ/exSuR+F6dD97FK5H4Xp0P3sUrkfhenQ/exSuR+F6dD97FK5H4Xp0P3sUrkfhenQ/exSuR+F6dD97FK5H4Xp0P3sUrkfhenQ/exSuR+F6dD97FK5H4Xp0P3sUrkfhenQ/exSuR+F6dD97FK5H4Xp0P3sUrkfhenQ/exSuR+F6dD97FK5H4Xp0P3sUrkfhenQ/exSuR+F6dD97FK5H4Xp0P3sUrkfhenQ/"
        },
        "PCC-FCI": {
            "theta_kde": {
                "data": "k05VTVBZAQB2AHsnZGVzY3InOiAnPGY4JywgJ2ZvcnRyYW5fb3JkZXInOiBGYWxzZSwgJ3NoYXBlJzogKDEyMywpLCB9ICAgICAgICAgICAgICAgICAgICAgICAgICAgICAgICAgICAgICAgICAgICAgICAgICAgICAgICAgIAog0MBCV+IFQL3cr5dWihRA/CH1ziVD/D+26IW4sw8LQBTD3RYpBApAroJ9yjCbFUDOyGJivwkXQG4RXQXEXBJAszSULO8HIEBZMTjaOi0TQO54yHNGdAxAgCH/IKxd1j/+Sea5R9gCQNgsdygUgQFA+MxUhAbXCUCEsMqjflb8P6SIYiJtr/w/BQV8hUHbHUBh3FskOP8VQB2Vl/9Y9RVAUGR5PgxQ6r8wG62wgGXWv9x528vJrxxAcKEC0J5z8T8Bu1iknigaQBQmf3WyaxBApCnuw1vGCkDEIfuKxy0UQP+9H8StUiBArPvRhXh8AkC8GHfqqukZQDrLWaGRXh1ApMhs0AuG9b9sCXRO5NYEQFTIEMMpyADAt0x4BRYxIECtJ29wIEsYQEFKWi8rNBZAMtlkBolUFkDugGaBePANQMD6PRVjxNK/43+Jfu4AHUAnR2oKD0YSQAD4ArjtWvm/3fzrk6z8HUAjUi9wOBYfQFTyFcpxPAVASPhWV4BoFUCkUN0xv13wvzz3c0isIyBAAyWn4KdBG0ACI440UisKQKyjDO7UQh9AyTppX9zwG0BVI8sIrjgZQAxt8+EQ9Py/yVIwxawjH0B+M+1iF7EFQL46mZrQDw5ALcPwzXsEG0DQLf3JsfsPQAT/9kphcvM/ihP7VBvQBkDb86kxd8gRQCgbNnDnMQlAKUwUBdMzFkBEJWyHEHIgQNo2KNGzGRJAec0GeFG5HECGUoQYgRYGQNgtmCs6vhRA7yRR0auJHEArlD2Ny/UZQDZOmRyztBBAmATqzN7T4r+ffApgCHoVQIiU1X9ZfgdAbjruT9mfIEANNRXsOc4cQPmVyPRzNhJA0LNdb9ToG0A0xMpfVysDQPcQMKyLrxlAyLHsfgn+AkCjwt7dfuQfQFxM1BJ8RA1AdvWrkLonDED0rCJhzgwgQPhyXejHGOI/OcwNQTdDGkB8z3fRT1YXQGtLQUeIXB9AiBNi3sR79j9cyW4/4CsaQFu9ZB6hFw5AnT1ZT/pVGUDBNipnyQscQAxgHVWDXyBAz4XsmhVAHED1zxkaYjMdQDSk0BxyehNAmP3UYxqvC0D+8uvk1zq7P6z9ov6deAtArcnQmVyjEUBb7E0fYzgVQLTlhC5z/wVAhCnTOiBt9j/EmqNZdgIgQKAZqjjCjhpAzA4UTKGxFUDCuVGOkEISQBaIwT/wJhlAhve6tNraDkAHg6b4ilgYQEr1V0njEQlAJOWV6MumGEAbbLmi3HH1Pzl0gB84ugZA8JMSNPpw+j8KGqZzZRkaQMY+BBrfkQpAEAmIGRdP4j8=",
                "weights": "k05VTVBZAQB2AHsnZGVzY3InOiAnPGY4JywgJ2ZvcnRyYW5fb3JkZXInOiBGYWxzZSwgJ3NoYXBlJzogKDEyMywpLCB9ICAgICAgICAgICAgICAgICAgICAgICAgICAgICAgICAgICAgICAgICAgICAgICAgICAgICAgICAgIAqnEGgKgaaAP6cQaAqBpoA/pxBoCoGmgD+nEGgKgaaAP6cQaAqBpoA/pxBoCoGmgD+nEGgKgaaAP6cQaAqBpoA/pxBoCoGmgD+nEGgKgaaAP6cQaAqBpoA/pxBoCoGmgD+nEGgKgaaAP6cQaAqBpoA/pxBoCoGmgD+nEGgKgaaAP6cQaAqBpoA/pxBoCoGmgD+nEGgKgaaAP6cQaAqBpoA/pxBoCoGmgD+nEGgKgaaAP6cQaAqBpoA/pxBoCoGmgD+nEGgKgaaAP6cQaAqBpoA/pxBoCoGmgD+nEGgKgaaAP6cQaAqBpoA/pxBoCoGmgD+nEGgKgaaAP6cQaAqBpoA/pxBoCoGmgD+nEGgKgaaAP6cQaAqBpoA/pxBoCoGmgD+nEGgKgaaAP6cQaAqBpoA/pxBoCoGmgD+nEGgKgaaAP6cQaAqBpoA/pxBoCoGmgD+nEGgKgaaAP6cQaAqBpoA/pxBoCoGmgD+nEGgKgaaAP6cQaAqBpoA/pxBoCoGmgD+nEGgKgaaAP6cQaAqBpoA/pxBoCoGmgD+nEGgKgaaAP6cQaAqBpoA/pxBoCoGmgD+nEGgKgaaAP6cQaAqBpoA/pxBoCoGmgD+nEGgKgaaAP6cQaAqBpoA/pxBoCoGmgD+nEGgKgaaAP6cQaAqBpoA/pxBoCoGmgD+nEGgKgaaAP6cQaAqBpoA/pxBoCoGmgD+nEGgKgaaAP6cQaAqBpoA/pxBoCoGmgD+nEGgKgaaAP6cQaAqBpoA/pxBoCoGmgD+nEGgKgaaAP6cQaAqBpoA/pxBoCoGmgD+nEGgKgaaAP6cQaAqBpoA/pxBoCoGmgD+nEGgKgaaAP6cQaAqBpoA/pxBoCoGmgD+nEGgKgaaAP6cQaAqBpoA/pxBoCoGmgD+nEGgKgaaAP6cQaAqBpoA/pxBoCoGmgD+nEGgKgaaAP6cQaAqBpoA/pxBoCoGmgD+nEGgKgaaAP6cQaAqBpoA/pxBoCoGmgD+nEGgKgaaAP6cQaAqBpoA/pxBoCoGmgD+nEGgKgaaAP6cQaAqBpoA/pxBoCoGmgD+nEGgKgaaAP6cQaAqBpoA/pxBoCoGmgD+nEGgKgaaAP6cQaAqBpoA/pxBoCoGmgD+nEGgKgaaAP6cQaAqBpoA/pxBoCoGmgD+nEGgKgaaAP6cQaAqBpoA/pxBoCoGmgD+nEGgKgaaAP6cQaAqBpoA/pxBoCoGmgD+nEGgKgaaAP6cQaAqBpoA/pxBoCoGmgD+nEGgKgaaAP6cQaAqBpoA/pxBoCoGmgD+nEGgKgaaAP6cQaAqBpoA/pxBoCoGmgD8=",
                "bandwidth": 1.0628064268963688
            },
            "theta_weights": "k05VTVBZAQB2AHsnZGVzY3InOiAnPGY4JywgJ2ZvcnRyYW5fb3JkZXInOiBGYWxzZSwgJ3NoYXBlJzogKDIwMCwpLCB9ICAgICAgICAgICAgICAgICAgICAgICAgICAgICAgICAgICAgICAgICAgICAgICAgICAgICAgICAgIAp7FK5H4Xp0P3sUrkfhenQ/exSuR+F6dD97FK5H4Xp0P3sUrkfhenQ/exSuR+F6dD97FK5H4Xp0P3sUrkfhenQ/exSuR+F6dD97FK5H4Xp0P3sUrkfhenQ/exSuR+F6dD97FK5H4Xp0P3sUrkfhenQ/exSuR+F6dD97FK5H4Xp0P3sUrkfhenQ/exSuR+F6dD97FK5H4Xp0P3sUrkfhenQ/exSuR+F6dD97FK5H4Xp0P3sUrkfhenQ/exSuR+F6dD97FK5H4Xp0P3sUrkfhenQ/exSuR+F6dD97FK5H4Xp0P3sUrkfhenQ/exSuR+F6dD97FK5H4Xp0P3sUrkfhenQ/exSuR+F6dD97FK5H4Xp0P3sUrkfhenQ/exSuR+F6dD97FK5H4Xp0P3sUrkfhenQ/exSuR+F6dD97FK5H4Xp0P3sUrkfhenQ/exSuR+F6dD97FK5H4Xp0P3sUrkfhenQ/exSuR+F6dD97FK5H4Xp0P3sUrkfhenQ/exSuR+F6dD97FK5H4Xp0P3sUrkfhenQ/exSuR+F6dD97FK5H4Xp0P3sUrkfhenQ/exSuR+F6dD97FK5H4Xp0P3sUrkfhenQ/exSuR+F6dD97FK5H4Xp0P3sUrkfhenQ/exSuR+F6dD97FK5H4Xp0P3sUrkfhenQ/exSuR+F6dD97FK5H4Xp0P3sUrkfhenQ/exSuR+F6dD97FK5H4Xp0P3sUrkfhenQ/exSuR+F6dD97FK5H4Xp0P3sUrkfhenQ/exSuR+F6dD97FK5H4Xp0P3sUrkfhenQ/exSuR+F6dD97FK5H4Xp0P3sUrkfhenQ/exSuR+F6dD97FK5H4Xp0P3sUrkfhenQ/exSuR+F6dD97FK5H4Xp0P3sUrkfhenQ/exSuR+F6dD97FK5H4Xp0P3sUrkfhenQ/exSuR+F6dD97FK5H4Xp0P3sUrkfhenQ/exSuR+F6dD97FK5H4Xp0P3sUrkfhenQ/exSuR+F6dD97FK5H4Xp0P3sUrkfhenQ/exSuR+F6dD97FK5H4Xp0P3sUrkfhenQ/exSuR+F6dD97FK5H4Xp0P3sUrkfhenQ/exSuR+F6dD97FK5H4Xp0P3sUrkfhenQ/exSuR+F6dD97FK5H4Xp0P3sUrkfhenQ/exSuR+F6dD97FK5H4Xp0P3sUrkfhenQ/exSuR+F6dD97FK5H4Xp0P3sUrkfhenQ/exSuR+F6dD97FK5H4Xp0P3sUrkfhenQ/exSuR+F6dD97FK5H4Xp0P3sUrkfhenQ/exSuR+F6dD97FK5H4Xp0P3sUrkfhenQ/exSuR+F6dD97FK5H4Xp0P3sUrkfhenQ/exSuR+F6dD97FK5H4Xp0P3sUrkfhenQ/exSuR+F6dD97FK5H4Xp0P3sUrkfhenQ/exSuR+F6dD97FK5H4Xp0P3sUrkfhenQ/exSuR+F6dD97FK5H4Xp0P3sUrkfhenQ/exSuR+F6dD97FK5H4Xp0P3sUrkfhenQ/exSuR+F6dD97FK5H4Xp0P3sUrkfhenQ/exSuR+F6dD97FK5H4Xp0P3sUrkfhenQ/exSuR+F6dD97FK5H4Xp0P3sUrkfhenQ/exSuR+F6dD97FK5H4Xp0P3sUrkfhenQ/exSuR+F6dD97FK5H4Xp0P3sUrkfhenQ/exSuR+F6dD97FK5H4Xp0P3sUrkfhenQ/exSuR+F6dD97FK5H4Xp0P3sUrkfhenQ/exSuR+F6dD97FK5H4Xp0P3sUrkfhenQ/exSuR+F6dD97FK5H4Xp0P3sUrkfhenQ/exSuR+F6dD97FK5H4Xp0P3sUrkfhenQ/exSuR+F6dD97FK5H4Xp0P3sUrkfhenQ/exSuR+F6dD97FK5H4Xp0P3sUrkfhenQ/exSuR+F6dD97FK5H4Xp0P3sUrkfhenQ/exSuR+F6dD97FK5H4Xp0P3sUrkfhenQ/exSuR+F6dD97FK5H4Xp0P3sUrkfhenQ/exSuR+F6dD97FK5H4Xp0P3sUrkfhenQ/exSuR+F6dD97FK5H4Xp0P3sUrkfhenQ/exSuR+F6dD97FK5H4Xp0P3sUrkfhenQ/exSuR+F6dD97FK5H4Xp0P3sUrkfhenQ/exSuR+F6dD97FK5H4Xp0P3sUrkfhenQ/",
            "phi_kde": {
                "data": "k05VTVBZAQB2AHsnZGVzY3InOiAnPGY4JywgJ2ZvcnRyYW5fb3JkZXInOiBGYWxzZSwgJ3NoYXBlJzogKDc3LCksIH0gICAgICAgICAgICAgICAgICAgICAgICAgICAgICAgICAgICAgICAgICAgICAgICAgICAgICAgICAgIAprOdS88BEoQNOaEdSBsS9AI6V/Op68MEB0bWpIoZYuQHE3ql6DZyFAN64Y51lvJEAqcptqiOciQNxI9wWvsyJA21i9aWJ8JUBnznGMLQssQHQuYEvJSSlACBYOubkVMEA6w5ZVpusqQP6zl5FmYCdAtFZySvqlKUC6rGlsqPMpQI3Zf26KhSdABZIro60YJUDwJG9LZwcpQPiefql3EyRAIirxE5OVJkBwhJHzbXQyQPdmGpY4nCRACg6SVdSnMEAkJfAr81EuQDaGXQARzytAlqxqtHoRMUAktIDGp5kmQGTb4UyTfiZAvF0FOb2kKkCYCJudPNIvQImx5TEAtyxA0m0L01GCI0BEGKGW+JcrQKVQZOyGJSZAvhOvlkalKUDmZRxy6p0hQD4X+q7hGCVAFqXXpkWOI0Bwk7QgcWMjQPpmVK04dyVAvfdYoBCrJUBInCLXKYgtQBvNpnKzLzJAfEYZUbn2JkCSoehWr5UtQBmxhUdwaSpA33zUTcbTKEBOKxDkXWgvQIBXIFuRBCxArbvimqfCJ0BX7pTaaUowQDfX3CIAZC9APLsaBDbTLkBYWVCIMCIjQALtMxV4aS1ACFlZjJA/JEATiP2kMNgwQFUGjbGvbiFAebXUC2rRJEBzQiy8bEsqQBJewu6JgSpAQecJSZItLUBncJLRb2gjQPIofQqcaiZAiDr+2OCMJkAN2sC/S9MqQA0g0j44oyJAohKOmnehJEDjtCrBSUIiQMoix2Jc/CpAaLbPQG3pJECjrGfxi/4iQK6eXMqk5CNAJucaF+2HIkBS9PJq97QlQAT7BhFx3zFA",
                "weights": "k05VTVBZAQB2AHsnZGVzY3InOiAnPGY4JywgJ2ZvcnRyYW5fb3JkZXInOiBGYWxzZSwgJ3NoYXBlJzogKDc3LCksIH0gICAgICAgICAgICAgICAgICAgICAgICAgICAgICAgICAgICAgICAgICAgICAgICAgICAgICAgICAgIAq+Y2pg75iKP75jamDvmIo/vmNqYO+Yij++Y2pg75iKP75jamDvmIo/vmNqYO+Yij++Y2pg75iKP75jamDvmIo/vmNqYO+Yij++Y2pg75iKP75jamDvmIo/vmNqYO+Yij++Y2pg75iKP75jamDvmIo/vmNqYO+Yij++Y2pg75iKP75jamDvmIo/vmNqYO+Yij++Y2pg75iKP75jamDvmIo/vmNqYO+Yij++Y2pg75iKP75jamDvmIo/vmNqYO+Yij++Y2pg75iKP75jamDvmIo/vmNqYO+Yij++Y2pg75iKP75jamDvmIo/vmNqYO+Yij++Y2pg75iKP75jamDvmIo/vmNqYO+Yij++Y2pg75iKP75jamDvmIo/vmNqYO+Yij++Y2pg75iKP75jamDvmIo/vmNqYO+Yij++Y2pg75iKP75jamDvmIo/vmNqYO+Yij++Y2pg75iKP75jamDvmIo/vmNqYO+Yij++Y2pg75iKP75jamDvmIo/vmNqYO+Yij++Y2pg75iKP75jamDvmIo/vmNqYO+Yij++Y2pg75iKP75jamDvmIo/vmNqYO+Yij++Y2pg75iKP75jamDvmIo/vmNqYO+Yij++Y2pg75iKP75jamDvmIo/vmNqYO+Yij++Y2pg75iKP75jamDvmIo/vmNqYO+Yij++Y2pg75iKP75jamDvmIo/vmNqYO+Yij++Y2pg75iKP75jamDvmIo/vmNqYO+Yij++Y2pg75iKP75jamDvmIo/vmNqYO+Yij++Y2pg75iKP75jamDvmIo/vmNqYO+Yij++Y2pg75iKP75jamDvmIo/",
                "bandwidth": 1.1516558913700976
            },
