{
    "n_iter": 200,
    "n_shuffle": 2,
    "burn_in": 100,
    "thinning": 10,
    "most_likely_order": {
        "HIP-FCI": 1,
        "FUS-FCI": 2,
        "PCC-FCI": 3,
        "AB": 4,
        "P-Tau": 5,
        "AVLT-Sum": 6,
        "MMSE": 7,
        "ADAS": 8,
        "HIP-GMI": 9,
        "FUS-GMI": 10
    },
    "kendalls_tau": 0.5111111111111111,
    "p_value": 0.04662257495590829,
    "original_order": {
        "HIP-FCI": 1,
        "PCC-FCI": 2,
        "AB": 3,
        "P-Tau": 4,
        "MMSE": 5,
        "ADAS": 6,
        "HIP-GMI": 7,
        "AVLT-Sum": 8,
        "FUS-GMI": 9,
        "FUS-FCI": 10
    },
    "order_with_higest_ll": {
        "HIP-FCI": 1,
        "FUS-FCI": 2,
        "PCC-FCI": 3,
        "AB": 4,
        "P-Tau": 5,
        "AVLT-Sum": 6,
        "MMSE": 7,
        "ADAS": 8,
        "HIP-GMI": 9,
        "FUS-GMI": 10
    },
    "kendalls_tau2": 0.5111111111111111,
    "p_value2": 0.04662257495590829,
    "final_theta_phi_params": {
        "AB": {
            "theta_kde": {
                "data": "k05VTVBZAQB2AHsnZGVzY3InOiAnPGY4JywgJ2ZvcnRyYW5fb3JkZXInOiBGYWxzZSwgJ3NoYXBlJzogKDk2LCksIH0gICAgICAgICAgICAgICAgICAgICAgICAgICAgICAgICAgICAgICAgICAgICAgICAgICAgICAgICAgIArvc18FtJlbQJzab4emomRAPvvAZ8VsV0C8RHtF24lbQOfK1W6nGGRAav/3hXuCYkDjvw1Zqg5bQHPhj7BiVFJAwCO/BawLZEBTE7g0SzJlQPxknZq18WRAb93x0bIWVkDoLt7kLNNiQCQ6asKiPmBAdF8PKzlCY0CN0El9WHdgQP3xqWlqhGFAehBWe1TwZUATHmTgkn1nQKvCRICKIV5A72tUsSA7WEDuZvxev49jQE5J/XnvpmJA4+UY3Y6PZEDfvfygW95mQPwuhiYzxGJAeDLHDL4nXEArYZRXQvdfQEw8ncT6rk1Ai7PgFfseVUA8mmuyIfRkQB2HBO4HsVlArvkSytilWkA6lXY9XCdiQNIwuFFqCGRAcuy36DDIUEBAJb67aq5hQCAn5AqX72RA94oL+M3cUkAOS8OmNPdkQPOvn/JN7UlAqGCWSBRIY0CEPyNiZ3BgQHXE0Gw3SmJAGr2KP1NXZUCiByCeL5VhQJ9P64ACx2FA4qJWN8FFSkCigJ1pwDhnQCi5+22cRWNAlSv+0YS9Y0AT0tiFBdZjQBrtHyuVe2dATogKja0EYkBFbC8ZpkpdQClHHUV+AVZAlvmmzy9PYUCjecIH7TphQPnapEg5olJA3Dp94XguQEAJHJyp7oVmQNYPh+Km82BAcxAXb4bzXEDMZeznbqZOQCuNAZqZlV5AOsOJpPxSZ0Asc1k6FJpjQDIDqLwCj2FATMlwZT12YECOovJKybpmQAejzmRAEmBApkDTxbDBVkDmbphqphplQPh2l0xLzWJAQ5+T43XNV0CB3J6z67lnQPB7dqwiw2RAFG/H3mqvYkD2wz+0OKhgQB53BTfLo2NA/gIhLd57TUCSjHXEfhBnQI4Dtpen9GFAC0hKI+W/WkCNK9Ml/R5YQOWi2+ZJfFlAep458rJBY0B+Mojok8VYQOZzGr/qfWJAJTzLGihzUkDwbzaWKaJjQHw8D1dA42FAmOZSrEASYUAhKdXcsV1mQM73bWTc6GVATv1W65ymZUA=",
                "weights": "k05VTVBZAQB2AHsnZGVzY3InOiAnPGY4JywgJ2ZvcnRyYW5fb3JkZXInOiBGYWxzZSwgJ3NoYXBlJzogKDk2LCksIH0gICAgICAgICAgICAgICAgICAgICAgICAgICAgICAgICAgICAgICAgICAgICAgICAgICAgICAgICAgIApVVVVVVVWFP1VVVVVVVYU/VVVVVVVVhT9VVVVVVVWFP1VVVVVVVYU/VVVVVVVVhT9VVVVVVVWFP1VVVVVVVYU/VVVVVVVVhT9VVVVVVVWFP1VVVVVVVYU/VVVVVVVVhT9VVVVVVVWFP1VVVVVVVYU/VVVVVVVVhT9VVVVVVVWFP1VVVVVVVYU/VVVVVVVVhT9VVVVVVVWFP1VVVVVVVYU/VVVVVVVVhT9VVVVVVVWFP1VVVVVVVYU/VVVVVVVVhT9VVVVVVVWFP1VVVVVVVYU/VVVVVVVVhT9VVVVVVVWFP1VVVVVVVYU/VVVVVVVVhT9VVVVVVVWFP1VVVVVVVYU/VVVVVVVVhT9VVVVVVVWFP1VVVVVVVYU/VVVVVVVVhT9VVVVVVVWFP1VVVVVVVYU/VVVVVVVVhT9VVVVVVVWFP1VVVVVVVYU/VVVVVVVVhT9VVVVVVVWFP1VVVVVVVYU/VVVVVVVVhT9VVVVVVVWFP1VVVVVVVYU/VVVVVVVVhT9VVVVVVVWFP1VVVVVVVYU/VVVVVVVVhT9VVVVVVVWFP1VVVVVVVYU/VVVVVVVVhT9VVVVVVVWFP1VVVVVVVYU/VVVVVVVVhT9VVVVVVVWFP1VVVVVVVYU/VVVVVVVVhT9VVVVVVVWFP1VVVVVVVYU/VVVVVVVVhT9VVVVVVVWFP1VVVVVVVYU/VVVVVVVVhT9VVVVVVVWFP1VVVVVVVYU/VVVVVVVVhT9VVVVVVVWFP1VVVVVVVYU/VVVVVVVVhT9VVVVVVVWFP1VVVVVVVYU/VVVVVVVVhT9VVVVVVVWFP1VVVVVVVYU/VVVVVVVVhT9VVVVVVVWFP1VVVVVVVYU/VVVVVVVVhT9VVVVVVVWFP1VVVVVVVYU/VVVVVVVVhT9VVVVVVVWFP1VVVVVVVYU/VVVVVVVVhT9VVVVVVVWFP1VVVVVVVYU/VVVVVVVVhT9VVVVVVVWFP1VVVVVVVYU/VVVVVVVVhT9VVVVVVVWFP1VVVVVVVYU/VVVVVVVVhT8=",
                "bandwidth": 15.814412854248841
            },
            "theta_weights": "k05VTVBZAQB2AHsnZGVzY3InOiAnPGY4JywgJ2ZvcnRyYW5fb3JkZXInOiBGYWxzZSwgJ3NoYXBlJzogKDIwMCwpLCB9ICAgICAgICAgICAgICAgICAgICAgICAgICAgICAgICAgICAgICAgICAgICAgICAgICAgICAgICAgIAp7FK5H4Xp0P3sUrkfhenQ/exSuR+F6dD97FK5H4Xp0P3sUrkfhenQ/exSuR+F6dD97FK5H4Xp0P3sUrkfhenQ/exSuR+F6dD97FK5H4Xp0P3sUrkfhenQ/exSuR+F6dD97FK5H4Xp0P3sUrkfhenQ/exSuR+F6dD97FK5H4Xp0P3sUrkfhenQ/exSuR+F6dD97FK5H4Xp0P3sUrkfhenQ/exSuR+F6dD97FK5H4Xp0P3sUrkfhenQ/exSuR+F6dD97FK5H4Xp0P3sUrkfhenQ/exSuR+F6dD97FK5H4Xp0P3sUrkfhenQ/exSuR+F6dD97FK5H4Xp0P3sUrkfhenQ/exSuR+F6dD97FK5H4Xp0P3sUrkfhenQ/exSuR+F6dD97FK5H4Xp0P3sUrkfhenQ/exSuR+F6dD97FK5H4Xp0P3sUrkfhenQ/exSuR+F6dD97FK5H4Xp0P3sUrkfhenQ/exSuR+F6dD97FK5H4Xp0P3sUrkfhenQ/exSuR+F6dD97FK5H4Xp0P3sUrkfhenQ/exSuR+F6dD97FK5H4Xp0P3sUrkfhenQ/exSuR+F6dD97FK5H4Xp0P3sUrkfhenQ/exSuR+F6dD97FK5H4Xp0P3sUrkfhenQ/exSuR+F6dD97FK5H4Xp0P3sUrkfhenQ/exSuR+F6dD97FK5H4Xp0P3sUrkfhenQ/exSuR+F6dD97FK5H4Xp0P3sUrkfhenQ/exSuR+F6dD97FK5H4Xp0P3sUrkfhenQ/exSuR+F6dD97FK5H4Xp0P3sUrkfhenQ/exSuR+F6dD97FK5H4Xp0P3sUrkfhenQ/exSuR+F6dD97FK5H4Xp0P3sUrkfhenQ/exSuR+F6dD97FK5H4Xp0P3sUrkfhenQ/exSuR+F6dD97FK5H4Xp0P3sUrkfhenQ/exSuR+F6dD97FK5H4Xp0P3sUrkfhenQ/exSuR+F6dD97FK5H4Xp0P3sUrkfhenQ/exSuR+F6dD97FK5H4Xp0P3sUrkfhenQ/exSuR+F6dD97FK5H4Xp0P3sUrkfhenQ/exSuR+F6dD97FK5H4Xp0P3sUrkfhenQ/exSuR+F6dD97FK5H4Xp0P3sUrkfhenQ/exSuR+F6dD97FK5H4Xp0P3sUrkfhenQ/exSuR+F6dD97FK5H4Xp0P3sUrkfhenQ/exSuR+F6dD97FK5H4Xp0P3sUrkfhenQ/exSuR+F6dD97FK5H4Xp0P3sUrkfhenQ/exSuR+F6dD97FK5H4Xp0P3sUrkfhenQ/exSuR+F6dD97FK5H4Xp0P3sUrkfhenQ/exSuR+F6dD97FK5H4Xp0P3sUrkfhenQ/exSuR+F6dD97FK5H4Xp0P3sUrkfhenQ/exSuR+F6dD97FK5H4Xp0P3sUrkfhenQ/exSuR+F6dD97FK5H4Xp0P3sUrkfhenQ/exSuR+F6dD97FK5H4Xp0P3sUrkfhenQ/exSuR+F6dD97FK5H4Xp0P3sUrkfhenQ/exSuR+F6dD97FK5H4Xp0P3sUrkfhenQ/exSuR+F6dD97FK5H4Xp0P3sUrkfhenQ/exSuR+F6dD97FK5H4Xp0P3sUrkfhenQ/exSuR+F6dD97FK5H4Xp0P3sUrkfhenQ/exSuR+F6dD97FK5H4Xp0P3sUrkfhenQ/exSuR+F6dD97FK5H4Xp0P3sUrkfhenQ/exSuR+F6dD97FK5H4Xp0P3sUrkfhenQ/exSuR+F6dD97FK5H4Xp0P3sUrkfhenQ/exSuR+F6dD97FK5H4Xp0P3sUrkfhenQ/exSuR+F6dD97FK5H4Xp0P3sUrkfhenQ/exSuR+F6dD97FK5H4Xp0P3sUrkfhenQ/exSuR+F6dD97FK5H4Xp0P3sUrkfhenQ/exSuR+F6dD97FK5H4Xp0P3sUrkfhenQ/exSuR+F6dD97FK5H4Xp0P3sUrkfhenQ/exSuR+F6dD97FK5H4Xp0P3sUrkfhenQ/exSuR+F6dD97FK5H4Xp0P3sUrkfhenQ/exSuR+F6dD97FK5H4Xp0P3sUrkfhenQ/exSuR+F6dD97FK5H4Xp0P3sUrkfhenQ/exSuR+F6dD97FK5H4Xp0P3sUrkfhenQ/exSuR+F6dD97FK5H4Xp0P3sUrkfhenQ/",
            "phi_kde": {
                "data": "k05VTVBZAQB2AHsnZGVzY3InOiAnPGY4JywgJ2ZvcnRyYW5fb3JkZXInOiBGYWxzZSwgJ3NoYXBlJzogKDEwNCwpLCB9ICAgICAgICAgICAgICAgICAgICAgICAgICAgICAgICAgICAgICAgICAgICAgICAgICAgICAgICAgIAq7Gxd8hk9yQAyhU03uWnZA2rSoah9Hb0CYXzgfmmtqQNSZlJG0I2hA82z3plgnbUDvuRhMn0duQJnyrvy8yWlAeIotmkcKbUBOYkX5cKZzQGEPdmCTVm5ABYbGhOHocEAv632P7ANvQBA4qQ9FXG5A5zyN/6RCbUBzkHcQ8INzQBjEbxsiIHBA22GyCRzPc0DdQevbRhtwQA85/7XKt25AB1UQQRfqdEDEkE3jzEtsQCn/jjOk9G1AE+BRW24lbUBNs8R04xFsQOG2aeUHL2tAdnrB9WP3b0DBMCli4RxrQCI/sUo882tAISk4vsdwckBTsgGlOt5yQLU3zCK1lm1AZB7KCXGqbEBGdpNkwzxqQK7cFZCnDnBAGfH8rUp8aEBuMnXox+NoQDXTKOUE5WlArcQH+lELcUCBkE7wQa1oQBKfFGQwpmlAfh4AUmvxb0Ce7HH7gXdyQCn2Dh5o6WdA+mYHh5AuaEBOoK7I4IJwQBGayVlNBXNAaR7C+HtGakBmP/O4xwRwQEjGsALVL25ArqdM2wgSaUD+WLwDX3NoQCNqqys+2G9AN7yQP8lRaEBoTh0KI+FoQISZMwhVWXBAAnZEsnV8dUDcutkpQS5xQGTXi/ofHXJA2KFx81nycECGAyK3NE9sQLLZNZVA/WxAO9REDKweckANtypgBQxvQJVV0TpJgW1AuhJ4ReuHakDq4z1TyQ5rQDIPi0gKRm5A5qGFpiDhcUDPsYfhQzhvQCnng4uRCW5A6/13lsB2aEAfYVmAfO5qQHgxuplXz29A/UgXSZ5qakA8GbUW4bpwQElh5o8f93BAovOK6NhaaUBQ4TuKiY9uQEjgoK/T12dAdS/sDO04cECjc+/WZQJvQAzEONtfeHFA4kRr/Pm+b0D8Tq2OFgltQH5AkI6JMXBAXyieBv8Cb0DIr0s0ZgVwQLSAmAZdlmxA3X22G1CJcUCy7XO1IVVpQL2H5U6amW9AaA1wb8CdakBRZAsBJGpqQE2qwhuySG1ABlcmb1+9c0BQsil8oWZtQPV1eU8Ft2xALcaYk3QHb0DoN5dSOj1zQKbEEYo/tmtAcVFcWSknb0Dogoo6hDpyQGHtdpl9bGxA",
                "weights": "k05VTVBZAQB2AHsnZGVzY3InOiAnPGY4JywgJ2ZvcnRyYW5fb3JkZXInOiBGYWxzZSwgJ3NoYXBlJzogKDEwNCwpLCB9ICAgICAgICAgICAgICAgICAgICAgICAgICAgICAgICAgICAgICAgICAgICAgICAgICAgICAgICAgIAoUO7ETO7GDPxQ7sRM7sYM/FDuxEzuxgz8UO7ETO7GDPxQ7sRM7sYM/FDuxEzuxgz8UO7ETO7GDPxQ7sRM7sYM/FDuxEzuxgz8UO7ETO7GDPxQ7sRM7sYM/FDuxEzuxgz8UO7ETO7GDPxQ7sRM7sYM/FDuxEzuxgz8UO7ETO7GDPxQ7sRM7sYM/FDuxEzuxgz8UO7ETO7GDPxQ7sRM7sYM/FDuxEzuxgz8UO7ETO7GDPxQ7sRM7sYM/FDuxEzuxgz8UO7ETO7GDPxQ7sRM7sYM/FDuxEzuxgz8UO7ETO7GDPxQ7sRM7sYM/FDuxEzuxgz8UO7ETO7GDPxQ7sRM7sYM/FDuxEzuxgz8UO7ETO7GDPxQ7sRM7sYM/FDuxEzuxgz8UO7ETO7GDPxQ7sRM7sYM/FDuxEzuxgz8UO7ETO7GDPxQ7sRM7sYM/FDuxEzuxgz8UO7ETO7GDPxQ7sRM7sYM/FDuxEzuxgz8UO7ETO7GDPxQ7sRM7sYM/FDuxEzuxgz8UO7ETO7GDPxQ7sRM7sYM/FDuxEzuxgz8UO7ETO7GDPxQ7sRM7sYM/FDuxEzuxgz8UO7ETO7GDPxQ7sRM7sYM/FDuxEzuxgz8UO7ETO7GDPxQ7sRM7sYM/FDuxEzuxgz8UO7ETO7GDPxQ7sRM7sYM/FDuxEzuxgz8UO7ETO7GDPxQ7sRM7sYM/FDuxEzuxgz8UO7ETO7GDPxQ7sRM7sYM/FDuxEzuxgz8UO7ETO7GDPxQ7sRM7sYM/FDuxEzuxgz8UO7ETO7GDPxQ7sRM7sYM/FDuxEzuxgz8UO7ETO7GDPxQ7sRM7sYM/FDuxEzuxgz8UO7ETO7GDPxQ7sRM7sYM/FDuxEzuxgz8UO7ETO7GDPxQ7sRM7sYM/FDuxEzuxgz8UO7ETO7GDPxQ7sRM7sYM/FDuxEzuxgz8UO7ETO7GDPxQ7sRM7sYM/FDuxEzuxgz8UO7ETO7GDPxQ7sRM7sYM/FDuxEzuxgz8UO7ETO7GDPxQ7sRM7sYM/FDuxEzuxgz8UO7ETO7GDPxQ7sRM7sYM/FDuxEzuxgz8UO7ETO7GDPxQ7sRM7sYM/FDuxEzuxgz8UO7ETO7GDPxQ7sRM7sYM/",
                "bandwidth": 15.254742997327877
            },
            "phi_weights": "k05VTVBZAQB2AHsnZGVzY3InOiAnPGY4JywgJ2ZvcnRyYW5fb3JkZXInOiBGYWxzZSwgJ3NoYXBlJzogKDIwMCwpLCB9ICAgICAgICAgICAgICAgICAgICAgICAgICAgICAgICAgICAgICAgICAgICAgICAgICAgICAgICAgIAp7FK5H4Xp0P3sUrkfhenQ/exSuR+F6dD97FK5H4Xp0P3sUrkfhenQ/exSuR+F6dD97FK5H4Xp0P3sUrkfhenQ/exSuR+F6dD97FK5H4Xp0P3sUrkfhenQ/exSuR+F6dD97FK5H4Xp0P3sUrkfhenQ/exSuR+F6dD97FK5H4Xp0P3sUrkfhenQ/exSuR+F6dD97FK5H4Xp0P3sUrkfhenQ/exSuR+F6dD97FK5H4Xp0P3sUrkfhenQ/exSuR+F6dD97FK5H4Xp0P3sUrkfhenQ/exSuR+F6dD97FK5H4Xp0P3sUrkfhenQ/exSuR+F6dD97FK5H4Xp0P3sUrkfhenQ/exSuR+F6dD97FK5H4Xp0P3sUrkfhenQ/exSuR+F6dD97FK5H4Xp0P3sUrkfhenQ/exSuR+F6dD97FK5H4Xp0P3sUrkfhenQ/exSuR+F6dD97FK5H4Xp0P3sUrkfhenQ/exSuR+F6dD97FK5H4Xp0P3sUrkfhenQ/exSuR+F6dD97FK5H4Xp0P3sUrkfhenQ/exSuR+F6dD97FK5H4Xp0P3sUrkfhenQ/exSuR+F6dD97FK5H4Xp0P3sUrkfhenQ/exSuR+F6dD97FK5H4Xp0P3sUrkfhenQ/exSuR+F6dD97FK5H4Xp0P3sUrkfhenQ/exSuR+F6dD97FK5H4Xp0P3sUrkfhenQ/exSuR+F6dD97FK5H4Xp0P3sUrkfhenQ/exSuR+F6dD97FK5H4Xp0P3sUrkfhenQ/exSuR+F6dD97FK5H4Xp0P3sUrkfhenQ/exSuR+F6dD97FK5H4Xp0P3sUrkfhenQ/exSuR+F6dD97FK5H4Xp0P3sUrkfhenQ/exSuR+F6dD97FK5H4Xp0P3sUrkfhenQ/exSuR+F6dD97FK5H4Xp0P3sUrkfhenQ/exSuR+F6dD97FK5H4Xp0P3sUrkfhenQ/exSuR+F6dD97FK5H4Xp0P3sUrkfhenQ/exSuR+F6dD97FK5H4Xp0P3sUrkfhenQ/exSuR+F6dD97FK5H4Xp0P3sUrkfhenQ/exSuR+F6dD97FK5H4Xp0P3sUrkfhenQ/exSuR+F6dD97FK5H4Xp0P3sUrkfhenQ/exSuR+F6dD97FK5H4Xp0P3sUrkfhenQ/exSuR+F6dD97FK5H4Xp0P3sUrkfhenQ/exSuR+F6dD97FK5H4Xp0P3sUrkfhenQ/exSuR+F6dD97FK5H4Xp0P3sUrkfhenQ/exSuR+F6dD97FK5H4Xp0P3sUrkfhenQ/exSuR+F6dD97FK5H4Xp0P3sUrkfhenQ/exSuR+F6dD97FK5H4Xp0P3sUrkfhenQ/exSuR+F6dD97FK5H4Xp0P3sUrkfhenQ/exSuR+F6dD97FK5H4Xp0P3sUrkfhenQ/exSuR+F6dD97FK5H4Xp0P3sUrkfhenQ/exSuR+F6dD97FK5H4Xp0P3sUrkfhenQ/exSuR+F6dD97FK5H4Xp0P3sUrkfhenQ/exSuR+F6dD97FK5H4Xp0P3sUrkfhenQ/exSuR+F6dD97FK5H4Xp0P3sUrkfhenQ/exSuR+F6dD97FK5H4Xp0P3sUrkfhenQ/exSuR+F6dD97FK5H4Xp0P3sUrkfhenQ/exSuR+F6dD97FK5H4Xp0P3sUrkfhenQ/exSuR+F6dD97FK5H4Xp0P3sUrkfhenQ/exSuR+F6dD97FK5H4Xp0P3sUrkfhenQ/exSuR+F6dD97FK5H4Xp0P3sUrkfhenQ/exSuR+F6dD97FK5H4Xp0P3sUrkfhenQ/exSuR+F6dD97FK5H4Xp0P3sUrkfhenQ/exSuR+F6dD97FK5H4Xp0P3sUrkfhenQ/exSuR+F6dD97FK5H4Xp0P3sUrkfhenQ/exSuR+F6dD97FK5H4Xp0P3sUrkfhenQ/exSuR+F6dD97FK5H4Xp0P3sUrkfhenQ/exSuR+F6dD97FK5H4Xp0P3sUrkfhenQ/exSuR+F6dD97FK5H4Xp0P3sUrkfhenQ/exSuR+F6dD97FK5H4Xp0P3sUrkfhenQ/exSuR+F6dD97FK5H4Xp0P3sUrkfhenQ/exSuR+F6dD97FK5H4Xp0P3sUrkfhenQ/exSuR+F6dD97FK5H4Xp0P3sUrkfhenQ/"
        },
        "ADAS": {
            "theta_kde": {
                "data": "k05VTVBZAQB2AHsnZGVzY3InOiAnPGY4JywgJ2ZvcnRyYW5fb3JkZXInOiBGYWxzZSwgJ3NoYXBlJzogKDY0LCksIH0gICAgICAgICAgICAgICAgICAgICAgICAgICAgICAgICAgICAgICAgICAgICAgICAgICAgICAgICAgIAq4eIwSrKc1wKzWnPnpFzHAjKqhOeOEMMDQIO+mT9QywImGB25NzjHA3NXZczmQM8BOlkM9NLg1wP6T7Wh2HDPAVqlO2lm6M8AREkjCCaYzwANtZk9s/zLAgN+McoApMsBXUse/lDAvwJ/50eueKzLAzthNTxo+NMCUDpU5wcM1wHL/SzMpCizA0nN8x5YwLsDRP9rhTA4vwPA0g5xQbi7AG9FzXfZXM8D0ltvKnycwwLOHgibBiDDA+2QjA07DKsDQUomrBvwpwPWcwCejhTPA+juthhCsNMDMGSg+RoQywF1i1um4bTLA0hOZAOgfNsC9ALFdQyQswPKoGd+OOjPA9cH3Od7sM8Cwd3BAWwgzwHPzS2jYATTACdD4TpHEK8DyZfczI+UpwD40DA7j5zLAVoUQCUIxNsA/NQlIvlwqwEZVgHmzxDTAFY7WBBamNMDdgxdR8yEzwDK/kViNVzLAGSY3kuHpN8CnNwtC2bEwwArZqTOKQTPA3x2bzf7SNMAPgYoB51A0wBC0y1MhXzLABqPVbEHEMsAsIL6eIs8wwC2OwayH2DHAV24JK8N2MMB3N4kx9Zk0wH+rsMp5vjHA8sk/UTAaM8DKvhOR5HkzwBB4c/UuszLAhzClEK0TM8Aq/dtCOPopwLXa4ZAcSDbAap0QY9gfM8ChHVTUmuozwA==",
                "weights": "k05VTVBZAQB2AHsnZGVzY3InOiAnPGY4JywgJ2ZvcnRyYW5fb3JkZXInOiBGYWxzZSwgJ3NoYXBlJzogKDY0LCksIH0gICAgICAgICAgICAgICAgICAgICAgICAgICAgICAgICAgICAgICAgICAgICAgICAgICAgICAgICAgIAoAAAAAAACQPwAAAAAAAJA/AAAAAAAAkD8AAAAAAACQPwAAAAAAAJA/AAAAAAAAkD8AAAAAAACQPwAAAAAAAJA/AAAAAAAAkD8AAAAAAACQPwAAAAAAAJA/AAAAAAAAkD8AAAAAAACQPwAAAAAAAJA/AAAAAAAAkD8AAAAAAACQPwAAAAAAAJA/AAAAAAAAkD8AAAAAAACQPwAAAAAAAJA/AAAAAAAAkD8AAAAAAACQPwAAAAAAAJA/AAAAAAAAkD8AAAAAAACQPwAAAAAAAJA/AAAAAAAAkD8AAAAAAACQPwAAAAAAAJA/AAAAAAAAkD8AAAAAAACQPwAAAAAAAJA/AAAAAAAAkD8AAAAAAACQPwAAAAAAAJA/AAAAAAAAkD8AAAAAAACQPwAAAAAAAJA/AAAAAAAAkD8AAAAAAACQPwAAAAAAAJA/AAAAAAAAkD8AAAAAAACQPwAAAAAAAJA/AAAAAAAAkD8AAAAAAACQPwAAAAAAAJA/AAAAAAAAkD8AAAAAAACQPwAAAAAAAJA/AAAAAAAAkD8AAAAAAACQPwAAAAAAAJA/AAAAAAAAkD8AAAAAAACQPwAAAAAAAJA/AAAAAAAAkD8AAAAAAACQPwAAAAAAAJA/AAAAAAAAkD8AAAAAAACQPwAAAAAAAJA/AAAAAAAAkD8AAAAAAACQPw==",
                "bandwidth": 1.1822300399847843
            },
            "theta_weights": "k05VTVBZAQB2AHsnZGVzY3InOiAnPGY4JywgJ2ZvcnRyYW5fb3JkZXInOiBGYWxzZSwgJ3NoYXBlJzogKDIwMCwpLCB9ICAgICAgICAgICAgICAgICAgICAgICAgICAgICAgICAgICAgICAgICAgICAgICAgICAgICAgICAgIAp7FK5H4Xp0P3sUrkfhenQ/exSuR+F6dD97FK5H4Xp0P3sUrkfhenQ/exSuR+F6dD97FK5H4Xp0P3sUrkfhenQ/exSuR+F6dD97FK5H4Xp0P3sUrkfhenQ/exSuR+F6dD97FK5H4Xp0P3sUrkfhenQ/exSuR+F6dD97FK5H4Xp0P3sUrkfhenQ/exSuR+F6dD97FK5H4Xp0P3sUrkfhenQ/exSuR+F6dD97FK5H4Xp0P3sUrkfhenQ/exSuR+F6dD97FK5H4Xp0P3sUrkfhenQ/exSuR+F6dD97FK5H4Xp0P3sUrkfhenQ/exSuR+F6dD97FK5H4Xp0P3sUrkfhenQ/exSuR+F6dD97FK5H4Xp0P3sUrkfhenQ/exSuR+F6dD97FK5H4Xp0P3sUrkfhenQ/exSuR+F6dD97FK5H4Xp0P3sUrkfhenQ/exSuR+F6dD97FK5H4Xp0P3sUrkfhenQ/exSuR+F6dD97FK5H4Xp0P3sUrkfhenQ/exSuR+F6dD97FK5H4Xp0P3sUrkfhenQ/exSuR+F6dD97FK5H4Xp0P3sUrkfhenQ/exSuR+F6dD97FK5H4Xp0P3sUrkfhenQ/exSuR+F6dD97FK5H4Xp0P3sUrkfhenQ/exSuR+F6dD97FK5H4Xp0P3sUrkfhenQ/exSuR+F6dD97FK5H4Xp0P3sUrkfhenQ/exSuR+F6dD97FK5H4Xp0P3sUrkfhenQ/exSuR+F6dD97FK5H4Xp0P3sUrkfhenQ/exSuR+F6dD97FK5H4Xp0P3sUrkfhenQ/exSuR+F6dD97FK5H4Xp0P3sUrkfhenQ/exSuR+F6dD97FK5H4Xp0P3sUrkfhenQ/exSuR+F6dD97FK5H4Xp0P3sUrkfhenQ/exSuR+F6dD97FK5H4Xp0P3sUrkfhenQ/exSuR+F6dD97FK5H4Xp0P3sUrkfhenQ/exSuR+F6dD97FK5H4Xp0P3sUrkfhenQ/exSuR+F6dD97FK5H4Xp0P3sUrkfhenQ/exSuR+F6dD97FK5H4Xp0P3sUrkfhenQ/exSuR+F6dD97FK5H4Xp0P3sUrkfhenQ/exSuR+F6dD97FK5H4Xp0P3sUrkfhenQ/exSuR+F6dD97FK5H4Xp0P3sUrkfhenQ/exSuR+F6dD97FK5H4Xp0P3sUrkfhenQ/exSuR+F6dD97FK5H4Xp0P3sUrkfhenQ/exSuR+F6dD97FK5H4Xp0P3sUrkfhenQ/exSuR+F6dD97FK5H4Xp0P3sUrkfhenQ/exSuR+F6dD97FK5H4Xp0P3sUrkfhenQ/exSuR+F6dD97FK5H4Xp0P3sUrkfhenQ/exSuR+F6dD97FK5H4Xp0P3sUrkfhenQ/exSuR+F6dD97FK5H4Xp0P3sUrkfhenQ/exSuR+F6dD97FK5H4Xp0P3sUrkfhenQ/exSuR+F6dD97FK5H4Xp0P3sUrkfhenQ/exSuR+F6dD97FK5H4Xp0P3sUrkfhenQ/exSuR+F6dD97FK5H4Xp0P3sUrkfhenQ/exSuR+F6dD97FK5H4Xp0P3sUrkfhenQ/exSuR+F6dD97FK5H4Xp0P3sUrkfhenQ/exSuR+F6dD97FK5H4Xp0P3sUrkfhenQ/exSuR+F6dD97FK5H4Xp0P3sUrkfhenQ/exSuR+F6dD97FK5H4Xp0P3sUrkfhenQ/exSuR+F6dD97FK5H4Xp0P3sUrkfhenQ/exSuR+F6dD97FK5H4Xp0P3sUrkfhenQ/exSuR+F6dD97FK5H4Xp0P3sUrkfhenQ/exSuR+F6dD97FK5H4Xp0P3sUrkfhenQ/exSuR+F6dD97FK5H4Xp0P3sUrkfhenQ/exSuR+F6dD97FK5H4Xp0P3sUrkfhenQ/exSuR+F6dD97FK5H4Xp0P3sUrkfhenQ/exSuR+F6dD97FK5H4Xp0P3sUrkfhenQ/exSuR+F6dD97FK5H4Xp0P3sUrkfhenQ/exSuR+F6dD97FK5H4Xp0P3sUrkfhenQ/exSuR+F6dD97FK5H4Xp0P3sUrkfhenQ/exSuR+F6dD97FK5H4Xp0P3sUrkfhenQ/exSuR+F6dD97FK5H4Xp0P3sUrkfhenQ/exSuR+F6dD97FK5H4Xp0P3sUrkfhenQ/",
            "phi_kde": {
                "data": "k05VTVBZAQB2AHsnZGVzY3InOiAnPGY4JywgJ2ZvcnRyYW5fb3JkZXInOiBGYWxzZSwgJ3NoYXBlJzogKDEzNiwpLCB9ICAgICAgICAgICAgICAgICAgICAgICAgICAgICAgICAgICAgICAgICAgICAgICAgICAgICAgICAgIApYdFiirooPwOUwDxVYaxHA+ZRm5vWrG8COBsmDmxYcwDgLi9jegBzA5DfiZddyIMCZ318m/3ocwNjARs3dMBPAmEdV4r8UGMDk+XVPYygTwEDhn3uUfxbABIkYwuLmFsCuGzc65WgUwMATf4gcdRvAisu8zTKmHMDDYU7UmW8lwADNJGpg4RTAUynzS4HzF8Am/7A34fcWwK5LhTQLnh7ALNVgwh2OF8Af+kKMLSkZwDk5jW5KIhbAaj9ZzAYmF8CiCL40yFUTwKxxuOMRPxHAhxwZIB3AEcDCImRmNvQWwEsKTOx71w3AkC8ZIkEXHMCBTOv82J0gwJpBDR8sICfAfFzp7vhmGMA5Q1skM6UowKLN2nwY3xnAA4MYcI4mE8DauAH4f68cwJZP3EUcHh3AEX8e4Nw7FsBewBIM+k8TwJXdcZoasBnABJ8IiZhdFMCpvFs+20cfwKjDN1pVYx3ALYWjSQwvH8DGQsuq/yofwHEB03j92hjA1jKkWL32EcB1I05KHrMawFmqQ0MgViLAp0o+DHM5HsB5pcU0iIsjwHL8GUIbTRnA4rZtPDjJGsDcsCJNoWIcwNVLWACXaR3A0CJ3WAytHsDHXbhfQ5gnwEvF9J/tiyHA3I5cS1w2HMDDSTEHxR0VwFBq7l0R2BrAyNWkEvcIGsDmt0E0GF0YwDvLS2Wz7h/A4oTBVzkfHsDMpmmx5pYVwPI1ZzA5Ax/AsQgaTfbiGsDQ8ljdZHUowGqMG0mPghnAv4B9Lu1sEcBK8htxOIYZwJ7L+tuLMyDAYGmDMhtwGMA5RAUFFrYiwNpA2FlFRyLAMOwexd+7HMD6FeCUsjgUwHclZAVk+B7AAOa/bHGsGsCUT1FAzzwlwIPKa0HN7BnAHEqV9s5EEcBAux1G0VcgwMkdJc9jahbArDwMqHUXIcB+7538aJogwIjLvgMdyRnAAevPKsJrFMAO4LjgD9YhwLFRKAAQACDAl4HdEq86HcAmQzwiJ7kXwEEa3v3thR3AguyPqx2uGsBrl1UyAE8ZwMqM45YDDB3AJbZSDNwWI8AVsJ9B0/EVwKkG2dgANRzA91N40mMKF8Cq5qI5XdQWwLfN54V2ig/AnSJfi2KvF8Dh+Kd7SF8TwJwVrK3aeiPA/1FpyewtIsABVw5njY4SwN9PPGzaYhTAO3K0CxtKGMAxto1Vl/obwLNukn675hrAH8E7roBqFMAQs64+ccIUwOLkF+B6XBXA4zbAlvXPFcAwJnDR7jcmwE76iKVE8xLAWgasTjRZHsB2olzk/SkcwB0LTfokehrAie0ifaT0HMAcJD4oLFMVwGUji5gCHxnAgOMNSTA2GsA4JJ1SpOISwCJPY9M63BvAioDvBlQmIcCk+mxlCy4UwCgi2VGhVhnAeudTdqqKHsBJhql73wIgwIdVmnf+wRvA83fXIYAdGMCPcw4JlN8SwA==",
                "weights": "k05VTVBZAQB2AHsnZGVzY3InOiAnPGY4JywgJ2ZvcnRyYW5fb3JkZXInOiBGYWxzZSwgJ3NoYXBlJzogKDEzNiwpLCB9ICAgICAgICAgICAgICAgICAgICAgICAgICAgICAgICAgICAgICAgICAgICAgICAgICAgICAgICAgIAoeHh4eHh5+Px4eHh4eHn4/Hh4eHh4efj8eHh4eHh5+Px4eHh4eHn4/Hh4eHh4efj8eHh4eHh5+Px4eHh4eHn4/Hh4eHh4efj8eHh4eHh5+Px4eHh4eHn4/Hh4eHh4efj8eHh4eHh5+Px4eHh4eHn4/Hh4eHh4efj8eHh4eHh5+Px4eHh4eHn4/Hh4eHh4efj8eHh4eHh5+Px4eHh4eHn4/Hh4eHh4efj8eHh4eHh5+Px4eHh4eHn4/Hh4eHh4efj8eHh4eHh5+Px4eHh4eHn4/Hh4eHh4efj8eHh4eHh5+Px4eHh4eHn4/Hh4eHh4efj8eHh4eHh5+Px4eHh4eHn4/Hh4eHh4efj8eHh4eHh5+Px4eHh4eHn4/Hh4eHh4efj8eHh4eHh5+Px4eHh4eHn4/Hh4eHh4efj8eHh4eHh5+Px4eHh4eHn4/Hh4eHh4efj8eHh4eHh5+Px4eHh4eHn4/Hh4eHh4efj8eHh4eHh5+Px4eHh4eHn4/Hh4eHh4efj8eHh4eHh5+Px4eHh4eHn4/Hh4eHh4efj8eHh4eHh5+Px4eHh4eHn4/Hh4eHh4efj8eHh4eHh5+Px4eHh4eHn4/Hh4eHh4efj8eHh4eHh5+Px4eHh4eHn4/Hh4eHh4efj8eHh4eHh5+Px4eHh4eHn4/Hh4eHh4efj8eHh4eHh5+Px4eHh4eHn4/Hh4eHh4efj8eHh4eHh5+Px4eHh4eHn4/Hh4eHh4efj8eHh4eHh5+Px4eHh4eHn4/Hh4eHh4efj8eHh4eHh5+Px4eHh4eHn4/Hh4eHh4efj8eHh4eHh5+Px4eHh4eHn4/Hh4eHh4efj8eHh4eHh5+Px4eHh4eHn4/Hh4eHh4efj8eHh4eHh5+Px4eHh4eHn4/Hh4eHh4efj8eHh4eHh5+Px4eHh4eHn4/Hh4eHh4efj8eHh4eHh5+Px4eHh4eHn4/Hh4eHh4efj8eHh4eHh5+Px4eHh4eHn4/Hh4eHh4efj8eHh4eHh5+Px4eHh4eHn4/Hh4eHh4efj8eHh4eHh5+Px4eHh4eHn4/Hh4eHh4efj8eHh4eHh5+Px4eHh4eHn4/Hh4eHh4efj8eHh4eHh5+Px4eHh4eHn4/Hh4eHh4efj8eHh4eHh5+Px4eHh4eHn4/Hh4eHh4efj8eHh4eHh5+Px4eHh4eHn4/Hh4eHh4efj8eHh4eHh5+Px4eHh4eHn4/Hh4eHh4efj8eHh4eHh5+Px4eHh4eHn4/Hh4eHh4efj8eHh4eHh5+Px4eHh4eHn4/Hh4eHh4efj8eHh4eHh5+Px4eHh4eHn4/Hh4eHh4efj8eHh4eHh5+Px4eHh4eHn4/Hh4eHh4efj8eHh4eHh5+Px4eHh4eHn4/Hh4eHh4efj8eHh4eHh5+Px4eHh4eHn4/Hh4eHh4efj8eHh4eHh5+Px4eHh4eHn4/Hh4eHh4efj8eHh4eHh5+Pw==",
                "bandwidth": 0.685014471867442
            },
            "phi_weights": "k05VTVBZAQB2AHsnZGVzY3InOiAnPGY4JywgJ2ZvcnRyYW5fb3JkZXInOiBGYWxzZSwgJ3NoYXBlJzogKDIwMCwpLCB9ICAgICAgICAgICAgICAgICAgICAgICAgICAgICAgICAgICAgICAgICAgICAgICAgICAgICAgICAgIAp7FK5H4Xp0P3sUrkfhenQ/exSuR+F6dD97FK5H4Xp0P3sUrkfhenQ/exSuR+F6dD97FK5H4Xp0P3sUrkfhenQ/exSuR+F6dD97FK5H4Xp0P3sUrkfhenQ/exSuR+F6dD97FK5H4Xp0P3sUrkfhenQ/exSuR+F6dD97FK5H4Xp0P3sUrkfhenQ/exSuR+F6dD97FK5H4Xp0P3sUrkfhenQ/exSuR+F6dD97FK5H4Xp0P3sUrkfhenQ/exSuR+F6dD97FK5H4Xp0P3sUrkfhenQ/exSuR+F6dD97FK5H4Xp0P3sUrkfhenQ/exSuR+F6dD97FK5H4Xp0P3sUrkfhenQ/exSuR+F6dD97FK5H4Xp0P3sUrkfhenQ/exSuR+F6dD97FK5H4Xp0P3sUrkfhenQ/exSuR+F6dD97FK5H4Xp0P3sUrkfhenQ/exSuR+F6dD97FK5H4Xp0P3sUrkfhenQ/exSuR+F6dD97FK5H4Xp0P3sUrkfhenQ/exSuR+F6dD97FK5H4Xp0P3sUrkfhenQ/exSuR+F6dD97FK5H4Xp0P3sUrkfhenQ/exSuR+F6dD97FK5H4Xp0P3sUrkfhenQ/exSuR+F6dD97FK5H4Xp0P3sUrkfhenQ/exSuR+F6dD97FK5H4Xp0P3sUrkfhenQ/exSuR+F6dD97FK5H4Xp0P3sUrkfhenQ/exSuR+F6dD97FK5H4Xp0P3sUrkfhenQ/exSuR+F6dD97FK5H4Xp0P3sUrkfhenQ/exSuR+F6dD97FK5H4Xp0P3sUrkfhenQ/exSuR+F6dD97FK5H4Xp0P3sUrkfhenQ/exSuR+F6dD97FK5H4Xp0P3sUrkfhenQ/exSuR+F6dD97FK5H4Xp0P3sUrkfhenQ/exSuR+F6dD97FK5H4Xp0P3sUrkfhenQ/exSuR+F6dD97FK5H4Xp0P3sUrkfhenQ/exSuR+F6dD97FK5H4Xp0P3sUrkfhenQ/exSuR+F6dD97FK5H4Xp0P3sUrkfhenQ/exSuR+F6dD97FK5H4Xp0P3sUrkfhenQ/exSuR+F6dD97FK5H4Xp0P3sUrkfhenQ/exSuR+F6dD97FK5H4Xp0P3sUrkfhenQ/exSuR+F6dD97FK5H4Xp0P3sUrkfhenQ/exSuR+F6dD97FK5H4Xp0P3sUrkfhenQ/exSuR+F6dD97FK5H4Xp0P3sUrkfhenQ/exSuR+F6dD97FK5H4Xp0P3sUrkfhenQ/exSuR+F6dD97FK5H4Xp0P3sUrkfhenQ/exSuR+F6dD97FK5H4Xp0P3sUrkfhenQ/exSuR+F6dD97FK5H4Xp0P3sUrkfhenQ/exSuR+F6dD97FK5H4Xp0P3sUrkfhenQ/exSuR+F6dD97FK5H4Xp0P3sUrkfhenQ/exSuR+F6dD97FK5H4Xp0P3sUrkfhenQ/exSuR+F6dD97FK5H4Xp0P3sUrkfhenQ/exSuR+F6dD97FK5H4Xp0P3sUrkfhenQ/exSuR+F6dD97FK5H4Xp0P3sUrkfhenQ/exSuR+F6dD97FK5H4Xp0P3sUrkfhenQ/exSuR+F6dD97FK5H4Xp0P3sUrkfhenQ/exSuR+F6dD97FK5H4Xp0P3sUrkfhenQ/exSuR+F6dD97FK5H4Xp0P3sUrkfhenQ/exSuR+F6dD97FK5H4Xp0P3sUrkfhenQ/exSuR+F6dD97FK5H4Xp0P3sUrkfhenQ/exSuR+F6dD97FK5H4Xp0P3sUrkfhenQ/exSuR+F6dD97FK5H4Xp0P3sUrkfhenQ/exSuR+F6dD97FK5H4Xp0P3sUrkfhenQ/exSuR+F6dD97FK5H4Xp0P3sUrkfhenQ/exSuR+F6dD97FK5H4Xp0P3sUrkfhenQ/exSuR+F6dD97FK5H4Xp0P3sUrkfhenQ/exSuR+F6dD97FK5H4Xp0P3sUrkfhenQ/exSuR+F6dD97FK5H4Xp0P3sUrkfhenQ/exSuR+F6dD97FK5H4Xp0P3sUrkfhenQ/exSuR+F6dD97FK5H4Xp0P3sUrkfhenQ/exSuR+F6dD97FK5H4Xp0P3sUrkfhenQ/exSuR+F6dD97FK5H4Xp0P3sUrkfhenQ/exSuR+F6dD97FK5H4Xp0P3sUrkfhenQ/"
        },
        "AVLT-Sum": {
            "theta_kde": {
                "data": "k05VTVBZAQB2AHsnZGVzY3InOiAnPGY4JywgJ2ZvcnRyYW5fb3JkZXInOiBGYWxzZSwgJ3NoYXBlJzogKDEwMSwpLCB9ICAgICAgICAgICAgICAgICAgICAgICAgICAgICAgICAgICAgICAgICAgICAgICAgICAgICAgICAgIAq24oKwk5JBQPTxctX7/T5AETdF3yznN0BCUZIZ1/A8QLaH6uKIlDpAzpL9QSd8FkDO6R85MmI1QMYMKKXgukBA6NtG2Yd5PECWSbshStvzvyyo64xvcCtAEnAaWx9yP0BMEJOxh8g4QMggOR2t+RHA70HKJRi4D0Ar4wx+shQrQLs/su4SR0JAie+Bi+yVP0AmjWl4sboCQJ3Wx7i+KjZA0852MrptQEDKKw6mxDE7QMJ/XSD3nEBA2dWg1JjONEAVrj2BFj06QOEaCp9yZDJAB+SDo/InOkCaK1P4MjU5QLcXRSQ4ujNA9e0xQYU9OUAhegTYzlk/QEMmDV+z8z5A4cQ9Xl/mMUB4kFsoIYo+QL9WLFmufjZAxvQu/NR8JECvTbSrdr09QLJukBZaIUFASRsYFnmDNED+NUWlWVI6QGrZdTEKbTxA9Ie5wT0VOkApl2ipRadBQPZXbyJoLjdABVsELprNNUCmvJ9BPngzQK5xQx7uAz1AiyBkJCBpQkD8TQ7UB5M3QBfZXWRTg0JAZpFsfa/tOECQQQvwyFA3QGFAK9azSkJASNTsNdAELEBQfdPrc0U/QDF1mEqodzpAbYFpKeuuMUAKHJAmiKBAQD5BA0MrqTpAoUYD8UNgPUCu2BPBT9pAQLl5kDy/QUBA4NRH1bGnJEDoRsyx0pY+QJD/25WbyEFAqgCJQrNwOkAy+A97H0E8QAntM47HmR1AkMlykLX1EUAREzv5LLI6QDzAylOt0h1AEsjb/SFyO0CTpbhi++8jQC9Dfy54XkFA9wtAIZpaOkDEVZfGxVY9QIakWZ4PFTdANbVNTwaTOUBOkzY3aqgkQOZMAmRHOUJAfXjOZUemO0Di/gISrMU9QOY6RQZLPzxAfVatU6o0N0CZRBBAFY85QIHnZIWByztAjwtiBB/QQUDcm25+dPVAQDAHVs2i9T9A5UoHwlRAP0D+ZUyqFD89QEQcuWIEVTlAcMXkrpmZPECTpurssrc8QA/6Jdr5JEBAQQOfkD8pM0DnbDQY28Q5QEpoYtQT6zlAKjaciufdP0DglzO089AxQIiwCg/+oQtA",
                "weights": "k05VTVBZAQB2AHsnZGVzY3InOiAnPGY4JywgJ2ZvcnRyYW5fb3JkZXInOiBGYWxzZSwgJ3NoYXBlJzogKDEwMSwpLCB9ICAgICAgICAgICAgICAgICAgICAgICAgICAgICAgICAgICAgICAgICAgICAgICAgICAgICAgICAgIAr72WJl+EaEP/vZYmX4RoQ/+9liZfhGhD/72WJl+EaEP/vZYmX4RoQ/+9liZfhGhD/72WJl+EaEP/vZYmX4RoQ/+9liZfhGhD/72WJl+EaEP/vZYmX4RoQ/+9liZfhGhD/72WJl+EaEP/vZYmX4RoQ/+9liZfhGhD/72WJl+EaEP/vZYmX4RoQ/+9liZfhGhD/72WJl+EaEP/vZYmX4RoQ/+9liZfhGhD/72WJl+EaEP/vZYmX4RoQ/+9liZfhGhD/72WJl+EaEP/vZYmX4RoQ/+9liZfhGhD/72WJl+EaEP/vZYmX4RoQ/+9liZfhGhD/72WJl+EaEP/vZYmX4RoQ/+9liZfhGhD/72WJl+EaEP/vZYmX4RoQ/+9liZfhGhD/72WJl+EaEP/vZYmX4RoQ/+9liZfhGhD/72WJl+EaEP/vZYmX4RoQ/+9liZfhGhD/72WJl+EaEP/vZYmX4RoQ/+9liZfhGhD/72WJl+EaEP/vZYmX4RoQ/+9liZfhGhD/72WJl+EaEP/vZYmX4RoQ/+9liZfhGhD/72WJl+EaEP/vZYmX4RoQ/+9liZfhGhD/72WJl+EaEP/vZYmX4RoQ/+9liZfhGhD/72WJl+EaEP/vZYmX4RoQ/+9liZfhGhD/72WJl+EaEP/vZYmX4RoQ/+9liZfhGhD/72WJl+EaEP/vZYmX4RoQ/+9liZfhGhD/72WJl+EaEP/vZYmX4RoQ/+9liZfhGhD/72WJl+EaEP/vZYmX4RoQ/+9liZfhGhD/72WJl+EaEP/vZYmX4RoQ/+9liZfhGhD/72WJl+EaEP/vZYmX4RoQ/+9liZfhGhD/72WJl+EaEP/vZYmX4RoQ/+9liZfhGhD/72WJl+EaEP/vZYmX4RoQ/+9liZfhGhD/72WJl+EaEP/vZYmX4RoQ/+9liZfhGhD/72WJl+EaEP/vZYmX4RoQ/+9liZfhGhD/72WJl+EaEP/vZYmX4RoQ/+9liZfhGhD/72WJl+EaEP/vZYmX4RoQ/+9liZfhGhD/72WJl+EaEP/vZYmX4RoQ/+9liZfhGhD/72WJl+EaEP/vZYmX4RoQ/",
                "bandwidth": 3.868736417783573
            },
            "theta_weights": "k05VTVBZAQB2AHsnZGVzY3InOiAnPGY4JywgJ2ZvcnRyYW5fb3JkZXInOiBGYWxzZSwgJ3NoYXBlJzogKDIwMCwpLCB9ICAgICAgICAgICAgICAgICAgICAgICAgICAgICAgICAgICAgICAgICAgICAgICAgICAgICAgICAgIAp7FK5H4Xp0P3sUrkfhenQ/exSuR+F6dD97FK5H4Xp0P3sUrkfhenQ/exSuR+F6dD97FK5H4Xp0P3sUrkfhenQ/exSuR+F6dD97FK5H4Xp0P3sUrkfhenQ/exSuR+F6dD97FK5H4Xp0P3sUrkfhenQ/exSuR+F6dD97FK5H4Xp0P3sUrkfhenQ/exSuR+F6dD97FK5H4Xp0P3sUrkfhenQ/exSuR+F6dD97FK5H4Xp0P3sUrkfhenQ/exSuR+F6dD97FK5H4Xp0P3sUrkfhenQ/exSuR+F6dD97FK5H4Xp0P3sUrkfhenQ/exSuR+F6dD97FK5H4Xp0P3sUrkfhenQ/exSuR+F6dD97FK5H4Xp0P3sUrkfhenQ/exSuR+F6dD97FK5H4Xp0P3sUrkfhenQ/exSuR+F6dD97FK5H4Xp0P3sUrkfhenQ/exSuR+F6dD97FK5H4Xp0P3sUrkfhenQ/exSuR+F6dD97FK5H4Xp0P3sUrkfhenQ/exSuR+F6dD97FK5H4Xp0P3sUrkfhenQ/exSuR+F6dD97FK5H4Xp0P3sUrkfhenQ/exSuR+F6dD97FK5H4Xp0P3sUrkfhenQ/exSuR+F6dD97FK5H4Xp0P3sUrkfhenQ/exSuR+F6dD97FK5H4Xp0P3sUrkfhenQ/exSuR+F6dD97FK5H4Xp0P3sUrkfhenQ/exSuR+F6dD97FK5H4Xp0P3sUrkfhenQ/exSuR+F6dD97FK5H4Xp0P3sUrkfhenQ/exSuR+F6dD97FK5H4Xp0P3sUrkfhenQ/exSuR+F6dD97FK5H4Xp0P3sUrkfhenQ/exSuR+F6dD97FK5H4Xp0P3sUrkfhenQ/exSuR+F6dD97FK5H4Xp0P3sUrkfhenQ/exSuR+F6dD97FK5H4Xp0P3sUrkfhenQ/exSuR+F6dD97FK5H4Xp0P3sUrkfhenQ/exSuR+F6dD97FK5H4Xp0P3sUrkfhenQ/exSuR+F6dD97FK5H4Xp0P3sUrkfhenQ/exSuR+F6dD97FK5H4Xp0P3sUrkfhenQ/exSuR+F6dD97FK5H4Xp0P3sUrkfhenQ/exSuR+F6dD97FK5H4Xp0P3sUrkfhenQ/exSuR+F6dD97FK5H4Xp0P3sUrkfhenQ/exSuR+F6dD97FK5H4Xp0P3sUrkfhenQ/exSuR+F6dD97FK5H4Xp0P3sUrkfhenQ/exSuR+F6dD97FK5H4Xp0P3sUrkfhenQ/exSuR+F6dD97FK5H4Xp0P3sUrkfhenQ/exSuR+F6dD97FK5H4Xp0P3sUrkfhenQ/exSuR+F6dD97FK5H4Xp0P3sUrkfhenQ/exSuR+F6dD97FK5H4Xp0P3sUrkfhenQ/exSuR+F6dD97FK5H4Xp0P3sUrkfhenQ/exSuR+F6dD97FK5H4Xp0P3sUrkfhenQ/exSuR+F6dD97FK5H4Xp0P3sUrkfhenQ/exSuR+F6dD97FK5H4Xp0P3sUrkfhenQ/exSuR+F6dD97FK5H4Xp0P3sUrkfhenQ/exSuR+F6dD97FK5H4Xp0P3sUrkfhenQ/exSuR+F6dD97FK5H4Xp0P3sUrkfhenQ/exSuR+F6dD97FK5H4Xp0P3sUrkfhenQ/exSuR+F6dD97FK5H4Xp0P3sUrkfhenQ/exSuR+F6dD97FK5H4Xp0P3sUrkfhenQ/exSuR+F6dD97FK5H4Xp0P3sUrkfhenQ/exSuR+F6dD97FK5H4Xp0P3sUrkfhenQ/exSuR+F6dD97FK5H4Xp0P3sUrkfhenQ/exSuR+F6dD97FK5H4Xp0P3sUrkfhenQ/exSuR+F6dD97FK5H4Xp0P3sUrkfhenQ/exSuR+F6dD97FK5H4Xp0P3sUrkfhenQ/exSuR+F6dD97FK5H4Xp0P3sUrkfhenQ/exSuR+F6dD97FK5H4Xp0P3sUrkfhenQ/exSuR+F6dD97FK5H4Xp0P3sUrkfhenQ/exSuR+F6dD97FK5H4Xp0P3sUrkfhenQ/exSuR+F6dD97FK5H4Xp0P3sUrkfhenQ/exSuR+F6dD97FK5H4Xp0P3sUrkfhenQ/exSuR+F6dD97FK5H4Xp0P3sUrkfhenQ/exSuR+F6dD97FK5H4Xp0P3sUrkfhenQ/",
            "phi_kde": {
                "data": "k05VTVBZAQB2AHsnZGVzY3InOiAnPGY4JywgJ2ZvcnRyYW5fb3JkZXInOiBGYWxzZSwgJ3NoYXBlJzogKDk5LCksIH0gICAgICAgICAgICAgICAgICAgICAgICAgICAgICAgICAgICAgICAgICAgICAgICAgICAgICAgICAgIAq+3F5vCDBDQGogmeF78kdAfuBpkS5AR0C90aGxNm1FQEkzCeh32UZAKbM0W8smSUAiXm1LN0JQQHcEdnrSmE1Aibhaxs9jQ0ClSnUM39VPQAPOT+uqUUdAo4AWQlR9Q0DIcfUBs5dFQMox83bWtE5AMkqhp0HDUEAkUweE9ttDQCNruZGNNklAbqUA7KTqQkBgcZ2oixhPQFE/+RYXs1BAqXw9z18SVEAvqdRr10tHQK2XkLqMyEhASFez8YpOR0CGsQeOxnBGQCPrRe8luEhAMGTBRJkSSEC/E9GHpi9GQH/5GKu2WkNApdyKOZ3tRkAMlLBKeGJMQD6OQBQWMkdAuVD6tMedRUAtyZeyVg9NQL7ZKmEP0EVA4eKjPtAmUEAiyaanNP9JQPQ+MaCfYklArmuR5NbCSkCJfR0BS6lGQNBNm7kuHENAInb6yg59RUDvFg9YVbxIQISZds5aAEpAn7klKRPMR0C7qP2D9p1HQApo74JKX01AUZZGOxlQRkC0xLNm2VVQQAlHUNGDJUNAHSUeRYOJSUD+480v7k5PQPRmWOsyXUNAxxHQrhxaSUANhtMQHIpDQGKfDZmh9FdAd5lFxB38R0A0+uJHlc1CQOHXFe806k9AgomT1AN4SUAcLFqX7HtEQPnxIwrrFURA+rrIyJ6eSUAvd46pMM5QQE5FU0U9DUdA0xzj1mftRkCUMyY2B89HQIEIf6X+q0NAKUDdKzA4S0DpkLFcISlEQEuwVF1ALEhAIk13F9TZS0A5BC2iebhDQMgDmw/IrUJAqIrOHGpcR0D2BD5htUdMQPJCFSO+20JAD1uFNpMgRECzSNMT7hZQQLt7rOFTyUpAiwJSUjbBUEAwhZGbh2NLQIPZX4fbEkpARWLhcpkZT0BrNh4BJCFDQKJMmybj10VA2asLhqPyQ0BUsdbT+q1IQCdXv29pN0dAfdxkyNKsTECD8nqQYrZJQAtYSPiKLE1AsKs/smKyQkBP2jRKahtDQAcQkrYqMkZAnOC8Ka/3RUCNfcnJaWhEQEh2UZHIJEhA1WVCcY2WTUA=",
                "weights": "k05VTVBZAQB2AHsnZGVzY3InOiAnPGY4JywgJ2ZvcnRyYW5fb3JkZXInOiBGYWxzZSwgJ3NoYXBlJzogKDk5LCksIH0gICAgICAgICAgICAgICAgICAgICAgICAgICAgICAgICAgICAgICAgICAgICAgICAgICAgICAgICAgIApbv1Kg1q+EP1u/UqDWr4Q/W79SoNavhD9bv1Kg1q+EP1u/UqDWr4Q/W79SoNavhD9bv1Kg1q+EP1u/UqDWr4Q/W79SoNavhD9bv1Kg1q+EP1u/UqDWr4Q/W79SoNavhD9bv1Kg1q+EP1u/UqDWr4Q/W79SoNavhD9bv1Kg1q+EP1u/UqDWr4Q/W79SoNavhD9bv1Kg1q+EP1u/UqDWr4Q/W79SoNavhD9bv1Kg1q+EP1u/UqDWr4Q/W79SoNavhD9bv1Kg1q+EP1u/UqDWr4Q/W79SoNavhD9bv1Kg1q+EP1u/UqDWr4Q/W79SoNavhD9bv1Kg1q+EP1u/UqDWr4Q/W79SoNavhD9bv1Kg1q+EP1u/UqDWr4Q/W79SoNavhD9bv1Kg1q+EP1u/UqDWr4Q/W79SoNavhD9bv1Kg1q+EP1u/UqDWr4Q/W79SoNavhD9bv1Kg1q+EP1u/UqDWr4Q/W79SoNavhD9bv1Kg1q+EP1u/UqDWr4Q/W79SoNavhD9bv1Kg1q+EP1u/UqDWr4Q/W79SoNavhD9bv1Kg1q+EP1u/UqDWr4Q/W79SoNavhD9bv1Kg1q+EP1u/UqDWr4Q/W79SoNavhD9bv1Kg1q+EP1u/UqDWr4Q/W79SoNavhD9bv1Kg1q+EP1u/UqDWr4Q/W79SoNavhD9bv1Kg1q+EP1u/UqDWr4Q/W79SoNavhD9bv1Kg1q+EP1u/UqDWr4Q/W79SoNavhD9bv1Kg1q+EP1u/UqDWr4Q/W79SoNavhD9bv1Kg1q+EP1u/UqDWr4Q/W79SoNavhD9bv1Kg1q+EP1u/UqDWr4Q/W79SoNavhD9bv1Kg1q+EP1u/UqDWr4Q/W79SoNavhD9bv1Kg1q+EP1u/UqDWr4Q/W79SoNavhD9bv1Kg1q+EP1u/UqDWr4Q/W79SoNavhD9bv1Kg1q+EP1u/UqDWr4Q/W79SoNavhD9bv1Kg1q+EP1u/UqDWr4Q/W79SoNavhD9bv1Kg1q+EP1u/UqDWr4Q/W79SoNavhD9bv1Kg1q+EP1u/UqDWr4Q/W79SoNavhD8=",
                "bandwidth": 4.302540434018489
            },
            "phi_weights": "k05VTVBZAQB2AHsnZGVzY3InOiAnPGY4JywgJ2ZvcnRyYW5fb3JkZXInOiBGYWxzZSwgJ3NoYXBlJzogKDIwMCwpLCB9ICAgICAgICAgICAgICAgICAgICAgICAgICAgICAgICAgICAgICAgICAgICAgICAgICAgICAgICAgIAp7FK5H4Xp0P3sUrkfhenQ/exSuR+F6dD97FK5H4Xp0P3sUrkfhenQ/exSuR+F6dD97FK5H4Xp0P3sUrkfhenQ/exSuR+F6dD97FK5H4Xp0P3sUrkfhenQ/exSuR+F6dD97FK5H4Xp0P3sUrkfhenQ/exSuR+F6dD97FK5H4Xp0P3sUrkfhenQ/exSuR+F6dD97FK5H4Xp0P3sUrkfhenQ/exSuR+F6dD97FK5H4Xp0P3sUrkfhenQ/exSuR+F6dD97FK5H4Xp0P3sUrkfhenQ/exSuR+F6dD97FK5H4Xp0P3sUrkfhenQ/exSuR+F6dD97FK5H4Xp0P3sUrkfhenQ/exSuR+F6dD97FK5H4Xp0P3sUrkfhenQ/exSuR+F6dD97FK5H4Xp0P3sUrkfhenQ/exSuR+F6dD97FK5H4Xp0P3sUrkfhenQ/exSuR+F6dD97FK5H4Xp0P3sUrkfhenQ/exSuR+F6dD97FK5H4Xp0P3sUrkfhenQ/exSuR+F6dD97FK5H4Xp0P3sUrkfhenQ/exSuR+F6dD97FK5H4Xp0P3sUrkfhenQ/exSuR+F6dD97FK5H4Xp0P3sUrkfhenQ/exSuR+F6dD97FK5H4Xp0P3sUrkfhenQ/exSuR+F6dD97FK5H4Xp0P3sUrkfhenQ/exSuR+F6dD97FK5H4Xp0P3sUrkfhenQ/exSuR+F6dD97FK5H4Xp0P3sUrkfhenQ/exSuR+F6dD97FK5H4Xp0P3sUrkfhenQ/exSuR+F6dD97FK5H4Xp0P3sUrkfhenQ/exSuR+F6dD97FK5H4Xp0P3sUrkfhenQ/exSuR+F6dD97FK5H4Xp0P3sUrkfhenQ/exSuR+F6dD97FK5H4Xp0P3sUrkfhenQ/exSuR+F6dD97FK5H4Xp0P3sUrkfhenQ/exSuR+F6dD97FK5H4Xp0P3sUrkfhenQ/exSuR+F6dD97FK5H4Xp0P3sUrkfhenQ/exSuR+F6dD97FK5H4Xp0P3sUrkfhenQ/exSuR+F6dD97FK5H4Xp0P3sUrkfhenQ/exSuR+F6dD97FK5H4Xp0P3sUrkfhenQ/exSuR+F6dD97FK5H4Xp0P3sUrkfhenQ/exSuR+F6dD97FK5H4Xp0P3sUrkfhenQ/exSuR+F6dD97FK5H4Xp0P3sUrkfhenQ/exSuR+F6dD97FK5H4Xp0P3sUrkfhenQ/exSuR+F6dD97FK5H4Xp0P3sUrkfhenQ/exSuR+F6dD97FK5H4Xp0P3sUrkfhenQ/exSuR+F6dD97FK5H4Xp0P3sUrkfhenQ/exSuR+F6dD97FK5H4Xp0P3sUrkfhenQ/exSuR+F6dD97FK5H4Xp0P3sUrkfhenQ/exSuR+F6dD97FK5H4Xp0P3sUrkfhenQ/exSuR+F6dD97FK5H4Xp0P3sUrkfhenQ/exSuR+F6dD97FK5H4Xp0P3sUrkfhenQ/exSuR+F6dD97FK5H4Xp0P3sUrkfhenQ/exSuR+F6dD97FK5H4Xp0P3sUrkfhenQ/exSuR+F6dD97FK5H4Xp0P3sUrkfhenQ/exSuR+F6dD97FK5H4Xp0P3sUrkfhenQ/exSuR+F6dD97FK5H4Xp0P3sUrkfhenQ/exSuR+F6dD97FK5H4Xp0P3sUrkfhenQ/exSuR+F6dD97FK5H4Xp0P3sUrkfhenQ/exSuR+F6dD97FK5H4Xp0P3sUrkfhenQ/exSuR+F6dD97FK5H4Xp0P3sUrkfhenQ/exSuR+F6dD97FK5H4Xp0P3sUrkfhenQ/exSuR+F6dD97FK5H4Xp0P3sUrkfhenQ/exSuR+F6dD97FK5H4Xp0P3sUrkfhenQ/exSuR+F6dD97FK5H4Xp0P3sUrkfhenQ/exSuR+F6dD97FK5H4Xp0P3sUrkfhenQ/exSuR+F6dD97FK5H4Xp0P3sUrkfhenQ/exSuR+F6dD97FK5H4Xp0P3sUrkfhenQ/exSuR+F6dD97FK5H4Xp0P3sUrkfhenQ/exSuR+F6dD97FK5H4Xp0P3sUrkfhenQ/exSuR+F6dD97FK5H4Xp0P3sUrkfhenQ/exSuR+F6dD97FK5H4Xp0P3sUrkfhenQ/exSuR+F6dD97FK5H4Xp0P3sUrkfhenQ/"
        },
        "FUS-FCI": {
            "theta_kde": {
                "data": "k05VTVBZAQB2AHsnZGVzY3InOiAnPGY4JywgJ2ZvcnRyYW5fb3JkZXInOiBGYWxzZSwgJ3NoYXBlJzogKDk5LCksIH0gICAgICAgICAgICAgICAgICAgICAgICAgICAgICAgICAgICAgICAgICAgICAgICAgICAgICAgICAgIAo16dEaSSIowGpVRuJX0SXACJZEDagGLsDyU6YTSNMrwMWJrvJsOibAQ6i8YkRYKsAuyl5JMJgmwINBgdKsuDDAe3+lp96tLMALNFbXjc4mwLD6H1QTSCbAeAj2pY0tKcCAeCcgWhgqwFaDHBGJzinA70t+sOyPMMAXVMvPW1QpwI2keJYl0SjACnb9hdqmKcAiNQRrSLcnwJ6RpwdTjy7Aja+DG6m/JsBxTZAIWG0rwDWQX4KmsyfAC6AdrY7JJsBO6sGdCCwlwF+cl7QhDyzAmBDDsK7HJ8BbTgECkVUqwCJKEE7+2CjA3Xtv3JxyLMBJwJRWedMnwILRQ2lUDijAUsuBMbYhJsDo9tv/EbstwJ8XXzW7cS7Ak0BAgBMVMMDvRwl5SCIwwEU2Kkg+7CfAemPpiZzvJ8C25OqRuCAtwG24Y4zTZCfAslYoXdKjJ8BjpF0cLTYpwNJqrxuZhCbAmMpp6/ohLcD3UIuuKzEowCC7xH3j5CrA+mG+ItZVJ8C/dNhmlSQrwJJFtAosYSrAxoxNJ2loK8BSl4WDk8QtwAoEg84KKCfAHAbiajhwKMDkgTsDe4YmwOdXUJi+jSzAnjyx2pjKJcDz6ughyv0pwOSx3LGh/SXAHAOjW0a5KsBdsaZURJopwCSBTmqWUi3AkRPeEvDHKsCK/UbIgbslwB9TPZO6zjHAqB6haV7uKMCwGNFC4DIowCb7eGpxGTLA96TeGuKOL8CNx8rsRssmwGqa2B+doCzAeW3ltg0YJsB1/CoS8WwvwDYn/QGcXCbA0G1s/BJWJ8DSutMo6wgqwAeiYQioCSfAeLvsZrk7JsDC/9g7BYctwAgt+8WwVSrAVGZokZhdKsAKpnQmpewlwPuXJkMvryvAKph6UldzJsBvIAVCfnsqwE1M4fTvFy/AQ68VX6c1KsDAasuI0tsqwOxxDVI2MzTAGD5DC7A9JcBPR8RRBX0qwLKs6cBCHyvAkhuwcSENKcAmbVIsfMAuwJjVJwEAvyXA5QC6+Pl9KsChL6iofHIlwFZqnU2pGTDA4PveRwT+JcA=",
                "weights": "k05VTVBZAQB2AHsnZGVzY3InOiAnPGY4JywgJ2ZvcnRyYW5fb3JkZXInOiBGYWxzZSwgJ3NoYXBlJzogKDk5LCksIH0gICAgICAgICAgICAgICAgICAgICAgICAgICAgICAgICAgICAgICAgICAgICAgICAgICAgICAgICAgIApbv1Kg1q+EP1u/UqDWr4Q/W79SoNavhD9bv1Kg1q+EP1u/UqDWr4Q/W79SoNavhD9bv1Kg1q+EP1u/UqDWr4Q/W79SoNavhD9bv1Kg1q+EP1u/UqDWr4Q/W79SoNavhD9bv1Kg1q+EP1u/UqDWr4Q/W79SoNavhD9bv1Kg1q+EP1u/UqDWr4Q/W79SoNavhD9bv1Kg1q+EP1u/UqDWr4Q/W79SoNavhD9bv1Kg1q+EP1u/UqDWr4Q/W79SoNavhD9bv1Kg1q+EP1u/UqDWr4Q/W79SoNavhD9bv1Kg1q+EP1u/UqDWr4Q/W79SoNavhD9bv1Kg1q+EP1u/UqDWr4Q/W79SoNavhD9bv1Kg1q+EP1u/UqDWr4Q/W79SoNavhD9bv1Kg1q+EP1u/UqDWr4Q/W79SoNavhD9bv1Kg1q+EP1u/UqDWr4Q/W79SoNavhD9bv1Kg1q+EP1u/UqDWr4Q/W79SoNavhD9bv1Kg1q+EP1u/UqDWr4Q/W79SoNavhD9bv1Kg1q+EP1u/UqDWr4Q/W79SoNavhD9bv1Kg1q+EP1u/UqDWr4Q/W79SoNavhD9bv1Kg1q+EP1u/UqDWr4Q/W79SoNavhD9bv1Kg1q+EP1u/UqDWr4Q/W79SoNavhD9bv1Kg1q+EP1u/UqDWr4Q/W79SoNavhD9bv1Kg1q+EP1u/UqDWr4Q/W79SoNavhD9bv1Kg1q+EP1u/UqDWr4Q/W79SoNavhD9bv1Kg1q+EP1u/UqDWr4Q/W79SoNavhD9bv1Kg1q+EP1u/UqDWr4Q/W79SoNavhD9bv1Kg1q+EP1u/UqDWr4Q/W79SoNavhD9bv1Kg1q+EP1u/UqDWr4Q/W79SoNavhD9bv1Kg1q+EP1u/UqDWr4Q/W79SoNavhD9bv1Kg1q+EP1u/UqDWr4Q/W79SoNavhD9bv1Kg1q+EP1u/UqDWr4Q/W79SoNavhD9bv1Kg1q+EP1u/UqDWr4Q/W79SoNavhD9bv1Kg1q+EP1u/UqDWr4Q/W79SoNavhD9bv1Kg1q+EP1u/UqDWr4Q/W79SoNavhD8=",
                "bandwidth": 0.7848968514137752
            },
            "theta_weights": "k05VTVBZAQB2AHsnZGVzY3InOiAnPGY4JywgJ2ZvcnRyYW5fb3JkZXInOiBGYWxzZSwgJ3NoYXBlJzogKDIwMCwpLCB9ICAgICAgICAgICAgICAgICAgICAgICAgICAgICAgICAgICAgICAgICAgICAgICAgICAgICAgICAgIAp7FK5H4Xp0P3sUrkfhenQ/exSuR+F6dD97FK5H4Xp0P3sUrkfhenQ/exSuR+F6dD97FK5H4Xp0P3sUrkfhenQ/exSuR+F6dD97FK5H4Xp0P3sUrkfhenQ/exSuR+F6dD97FK5H4Xp0P3sUrkfhenQ/exSuR+F6dD97FK5H4Xp0P3sUrkfhenQ/exSuR+F6dD97FK5H4Xp0P3sUrkfhenQ/exSuR+F6dD97FK5H4Xp0P3sUrkfhenQ/exSuR+F6dD97FK5H4Xp0P3sUrkfhenQ/exSuR+F6dD97FK5H4Xp0P3sUrkfhenQ/exSuR+F6dD97FK5H4Xp0P3sUrkfhenQ/exSuR+F6dD97FK5H4Xp0P3sUrkfhenQ/exSuR+F6dD97FK5H4Xp0P3sUrkfhenQ/exSuR+F6dD97FK5H4Xp0P3sUrkfhenQ/exSuR+F6dD97FK5H4Xp0P3sUrkfhenQ/exSuR+F6dD97FK5H4Xp0P3sUrkfhenQ/exSuR+F6dD97FK5H4Xp0P3sUrkfhenQ/exSuR+F6dD97FK5H4Xp0P3sUrkfhenQ/exSuR+F6dD97FK5H4Xp0P3sUrkfhenQ/exSuR+F6dD97FK5H4Xp0P3sUrkfhenQ/exSuR+F6dD97FK5H4Xp0P3sUrkfhenQ/exSuR+F6dD97FK5H4Xp0P3sUrkfhenQ/exSuR+F6dD97FK5H4Xp0P3sUrkfhenQ/exSuR+F6dD97FK5H4Xp0P3sUrkfhenQ/exSuR+F6dD97FK5H4Xp0P3sUrkfhenQ/exSuR+F6dD97FK5H4Xp0P3sUrkfhenQ/exSuR+F6dD97FK5H4Xp0P3sUrkfhenQ/exSuR+F6dD97FK5H4Xp0P3sUrkfhenQ/exSuR+F6dD97FK5H4Xp0P3sUrkfhenQ/exSuR+F6dD97FK5H4Xp0P3sUrkfhenQ/exSuR+F6dD97FK5H4Xp0P3sUrkfhenQ/exSuR+F6dD97FK5H4Xp0P3sUrkfhenQ/exSuR+F6dD97FK5H4Xp0P3sUrkfhenQ/exSuR+F6dD97FK5H4Xp0P3sUrkfhenQ/exSuR+F6dD97FK5H4Xp0P3sUrkfhenQ/exSuR+F6dD97FK5H4Xp0P3sUrkfhenQ/exSuR+F6dD97FK5H4Xp0P3sUrkfhenQ/exSuR+F6dD97FK5H4Xp0P3sUrkfhenQ/exSuR+F6dD97FK5H4Xp0P3sUrkfhenQ/exSuR+F6dD97FK5H4Xp0P3sUrkfhenQ/exSuR+F6dD97FK5H4Xp0P3sUrkfhenQ/exSuR+F6dD97FK5H4Xp0P3sUrkfhenQ/exSuR+F6dD97FK5H4Xp0P3sUrkfhenQ/exSuR+F6dD97FK5H4Xp0P3sUrkfhenQ/exSuR+F6dD97FK5H4Xp0P3sUrkfhenQ/exSuR+F6dD97FK5H4Xp0P3sUrkfhenQ/exSuR+F6dD97FK5H4Xp0P3sUrkfhenQ/exSuR+F6dD97FK5H4Xp0P3sUrkfhenQ/exSuR+F6dD97FK5H4Xp0P3sUrkfhenQ/exSuR+F6dD97FK5H4Xp0P3sUrkfhenQ/exSuR+F6dD97FK5H4Xp0P3sUrkfhenQ/exSuR+F6dD97FK5H4Xp0P3sUrkfhenQ/exSuR+F6dD97FK5H4Xp0P3sUrkfhenQ/exSuR+F6dD97FK5H4Xp0P3sUrkfhenQ/exSuR+F6dD97FK5H4Xp0P3sUrkfhenQ/exSuR+F6dD97FK5H4Xp0P3sUrkfhenQ/exSuR+F6dD97FK5H4Xp0P3sUrkfhenQ/exSuR+F6dD97FK5H4Xp0P3sUrkfhenQ/exSuR+F6dD97FK5H4Xp0P3sUrkfhenQ/exSuR+F6dD97FK5H4Xp0P3sUrkfhenQ/exSuR+F6dD97FK5H4Xp0P3sUrkfhenQ/exSuR+F6dD97FK5H4Xp0P3sUrkfhenQ/exSuR+F6dD97FK5H4Xp0P3sUrkfhenQ/exSuR+F6dD97FK5H4Xp0P3sUrkfhenQ/exSuR+F6dD97FK5H4Xp0P3sUrkfhenQ/exSuR+F6dD97FK5H4Xp0P3sUrkfhenQ/exSuR+F6dD97FK5H4Xp0P3sUrkfhenQ/",
            "phi_kde": {
                "data": "k05VTVBZAQB2AHsnZGVzY3InOiAnPGY4JywgJ2ZvcnRyYW5fb3JkZXInOiBGYWxzZSwgJ3NoYXBlJzogKDEwMSwpLCB9ICAgICAgICAgICAgICAgICAgICAgICAgICAgICAgICAgICAgICAgICAgICAgICAgICAgICAgICAgIAqUMDCeeZkdwNrrVLojXiPAZkmU5YUJGcBzYBM00gYfwPDVmhEYmBrAa28ff10tIsA88f1v0WMfwIczUWrpACPACH8To1tHJMD2L14L404WwGp72MgN6SPAoHa+fuB2HsAoZmMcWpwkwM0k6fiLcCHABnh1HP/HG8D98m+RzFMjwO8C4vgBXSTA1BQr6u2uI8DhIoMXOnAcwA+guUUdlCTA5a8u/cUDHMClZdWmypIcwD2KG9CsVyTAK/f3A8h9HsB80BTqSQUhwECFmeByRQzAigjk2NFNFsDEX5x0QhISwDtaWDSl5iDA/921hf5RJMAQVaqEYEYgwPi5HAo6TiPAf8jjQaAtJMBX+LhpsBkbwJLeNYEjlxnAPo2HI7v6G8AmqaMu0bUZwGyKgI5RvSTAqzCz+rGHI8CVc4ewzAQjwCcNZckFnSPA7cjilc1uH8Bpxh72zAUjwKmqDU7/SBDAnEYOJ3NxGMClcSWIYKkUwFXpp/LHGSTAE/SjasVxGMCtsG3mc3okwPm7RzlTpiPArEC19lnyIsD4yCK7nYYkwJkjikprtSDAsLOFi7AJIsCZyKL4+VEjwCMbEVbF0CDAjD30aEu8AsBp3QMCV78kwI9ZbTSWNwPAJIurBloaIcBiK4XcZNojwGXDiL2z7RvAbPOMbBO7IMA0JMYsaxogwD0DACnvnBzAm9Z3u9KJIsAyru0Xkg0jwGwMxEuTYxfAFtmiiTf0GsDwG04GXmIiwA56OB3zrSHAYPqooAoEIMCjzchOASofwEI24rszex7A3Gk5f/rgJMASK3S1KcAiwMrg2zaqziLAYJ3PRSTSEMDZ/WIFY5wkwMU7YSp+cRbArtQcR9vlFcBz0g/stWUiwIuKSTTy/SPAVBKfZskOI8AbQfm0nJYjwOxMzmMXNx/AkVKTKxsvHcAs0d3znHYjwJJUKHlkmCHAv/GsPzxNIcDIdKmsZ5kEwOcjH0+9oxzA53gV1TmGIsDsklETYzwhwFlyPJF84CLAoSQzNqqPIMCtKZR7r1AFwI5oHfAPGiDAl9RHlU1RI8Coq7pZoeokwFXq/JwL7R7A",
                "weights": "k05VTVBZAQB2AHsnZGVzY3InOiAnPGY4JywgJ2ZvcnRyYW5fb3JkZXInOiBGYWxzZSwgJ3NoYXBlJzogKDEwMSwpLCB9ICAgICAgICAgICAgICAgICAgICAgICAgICAgICAgICAgICAgICAgICAgICAgICAgICAgICAgICAgIAr72WJl+EaEP/vZYmX4RoQ/+9liZfhGhD/72WJl+EaEP/vZYmX4RoQ/+9liZfhGhD/72WJl+EaEP/vZYmX4RoQ/+9liZfhGhD/72WJl+EaEP/vZYmX4RoQ/+9liZfhGhD/72WJl+EaEP/vZYmX4RoQ/+9liZfhGhD/72WJl+EaEP/vZYmX4RoQ/+9liZfhGhD/72WJl+EaEP/vZYmX4RoQ/+9liZfhGhD/72WJl+EaEP/vZYmX4RoQ/+9liZfhGhD/72WJl+EaEP/vZYmX4RoQ/+9liZfhGhD/72WJl+EaEP/vZYmX4RoQ/+9liZfhGhD/72WJl+EaEP/vZYmX4RoQ/+9liZfhGhD/72WJl+EaEP/vZYmX4RoQ/+9liZfhGhD/72WJl+EaEP/vZYmX4RoQ/+9liZfhGhD/72WJl+EaEP/vZYmX4RoQ/+9liZfhGhD/72WJl+EaEP/vZYmX4RoQ/+9liZfhGhD/72WJl+EaEP/vZYmX4RoQ/+9liZfhGhD/72WJl+EaEP/vZYmX4RoQ/+9liZfhGhD/72WJl+EaEP/vZYmX4RoQ/+9liZfhGhD/72WJl+EaEP/vZYmX4RoQ/+9liZfhGhD/72WJl+EaEP/vZYmX4RoQ/+9liZfhGhD/72WJl+EaEP/vZYmX4RoQ/+9liZfhGhD/72WJl+EaEP/vZYmX4RoQ/+9liZfhGhD/72WJl+EaEP/vZYmX4RoQ/+9liZfhGhD/72WJl+EaEP/vZYmX4RoQ/+9liZfhGhD/72WJl+EaEP/vZYmX4RoQ/+9liZfhGhD/72WJl+EaEP/vZYmX4RoQ/+9liZfhGhD/72WJl+EaEP/vZYmX4RoQ/+9liZfhGhD/72WJl+EaEP/vZYmX4RoQ/+9liZfhGhD/72WJl+EaEP/vZYmX4RoQ/+9liZfhGhD/72WJl+EaEP/vZYmX4RoQ/+9liZfhGhD/72WJl+EaEP/vZYmX4RoQ/+9liZfhGhD/72WJl+EaEP/vZYmX4RoQ/+9liZfhGhD/72WJl+EaEP/vZYmX4RoQ/+9liZfhGhD/72WJl+EaEP/vZYmX4RoQ/",
                "bandwidth": 0.8380769947030795
            },
            "phi_weights": "k05VTVBZAQB2AHsnZGVzY3InOiAnPGY4JywgJ2ZvcnRyYW5fb3JkZXInOiBGYWxzZSwgJ3NoYXBlJzogKDIwMCwpLCB9ICAgICAgICAgICAgICAgICAgICAgICAgICAgICAgICAgICAgICAgICAgICAgICAgICAgICAgICAgIAp7FK5H4Xp0P3sUrkfhenQ/exSuR+F6dD97FK5H4Xp0P3sUrkfhenQ/exSuR+F6dD97FK5H4Xp0P3sUrkfhenQ/exSuR+F6dD97FK5H4Xp0P3sUrkfhenQ/exSuR+F6dD97FK5H4Xp0P3sUrkfhenQ/exSuR+F6dD97FK5H4Xp0P3sUrkfhenQ/exSuR+F6dD97FK5H4Xp0P3sUrkfhenQ/exSuR+F6dD97FK5H4Xp0P3sUrkfhenQ/exSuR+F6dD97FK5H4Xp0P3sUrkfhenQ/exSuR+F6dD97FK5H4Xp0P3sUrkfhenQ/exSuR+F6dD97FK5H4Xp0P3sUrkfhenQ/exSuR+F6dD97FK5H4Xp0P3sUrkfhenQ/exSuR+F6dD97FK5H4Xp0P3sUrkfhenQ/exSuR+F6dD97FK5H4Xp0P3sUrkfhenQ/exSuR+F6dD97FK5H4Xp0P3sUrkfhenQ/exSuR+F6dD97FK5H4Xp0P3sUrkfhenQ/exSuR+F6dD97FK5H4Xp0P3sUrkfhenQ/exSuR+F6dD97FK5H4Xp0P3sUrkfhenQ/exSuR+F6dD97FK5H4Xp0P3sUrkfhenQ/exSuR+F6dD97FK5H4Xp0P3sUrkfhenQ/exSuR+F6dD97FK5H4Xp0P3sUrkfhenQ/exSuR+F6dD97FK5H4Xp0P3sUrkfhenQ/exSuR+F6dD97FK5H4Xp0P3sUrkfhenQ/exSuR+F6dD97FK5H4Xp0P3sUrkfhenQ/exSuR+F6dD97FK5H4Xp0P3sUrkfhenQ/exSuR+F6dD97FK5H4Xp0P3sUrkfhenQ/exSuR+F6dD97FK5H4Xp0P3sUrkfhenQ/exSuR+F6dD97FK5H4Xp0P3sUrkfhenQ/exSuR+F6dD97FK5H4Xp0P3sUrkfhenQ/exSuR+F6dD97FK5H4Xp0P3sUrkfhenQ/exSuR+F6dD97FK5H4Xp0P3sUrkfhenQ/exSuR+F6dD97FK5H4Xp0P3sUrkfhenQ/exSuR+F6dD97FK5H4Xp0P3sUrkfhenQ/exSuR+F6dD97FK5H4Xp0P3sUrkfhenQ/exSuR+F6dD97FK5H4Xp0P3sUrkfhenQ/exSuR+F6dD97FK5H4Xp0P3sUrkfhenQ/exSuR+F6dD97FK5H4Xp0P3sUrkfhenQ/exSuR+F6dD97FK5H4Xp0P3sUrkfhenQ/exSuR+F6dD97FK5H4Xp0P3sUrkfhenQ/exSuR+F6dD97FK5H4Xp0P3sUrkfhenQ/exSuR+F6dD97FK5H4Xp0P3sUrkfhenQ/exSuR+F6dD97FK5H4Xp0P3sUrkfhenQ/exSuR+F6dD97FK5H4Xp0P3sUrkfhenQ/exSuR+F6dD97FK5H4Xp0P3sUrkfhenQ/exSuR+F6dD97FK5H4Xp0P3sUrkfhenQ/exSuR+F6dD97FK5H4Xp0P3sUrkfhenQ/exSuR+F6dD97FK5H4Xp0P3sUrkfhenQ/exSuR+F6dD97FK5H4Xp0P3sUrkfhenQ/exSuR+F6dD97FK5H4Xp0P3sUrkfhenQ/exSuR+F6dD97FK5H4Xp0P3sUrkfhenQ/exSuR+F6dD97FK5H4Xp0P3sUrkfhenQ/exSuR+F6dD97FK5H4Xp0P3sUrkfhenQ/exSuR+F6dD97FK5H4Xp0P3sUrkfhenQ/exSuR+F6dD97FK5H4Xp0P3sUrkfhenQ/exSuR+F6dD97FK5H4Xp0P3sUrkfhenQ/exSuR+F6dD97FK5H4Xp0P3sUrkfhenQ/exSuR+F6dD97FK5H4Xp0P3sUrkfhenQ/exSuR+F6dD97FK5H4Xp0P3sUrkfhenQ/exSuR+F6dD97FK5H4Xp0P3sUrkfhenQ/exSuR+F6dD97FK5H4Xp0P3sUrkfhenQ/exSuR+F6dD97FK5H4Xp0P3sUrkfhenQ/exSuR+F6dD97FK5H4Xp0P3sUrkfhenQ/exSuR+F6dD97FK5H4Xp0P3sUrkfhenQ/exSuR+F6dD97FK5H4Xp0P3sUrkfhenQ/exSuR+F6dD97FK5H4Xp0P3sUrkfhenQ/exSuR+F6dD97FK5H4Xp0P3sUrkfhenQ/exSuR+F6dD97FK5H4Xp0P3sUrkfhenQ/"
        },
        "FUS-GMI": {
            "theta_kde": {
                "data": "k05VTVBZAQB2AHsnZGVzY3InOiAnPGY4JywgJ2ZvcnRyYW5fb3JkZXInOiBGYWxzZSwgJ3NoYXBlJzogKDc2LCksIH0gICAgICAgICAgICAgICAgICAgICAgICAgICAgICAgICAgICAgICAgICAgICAgICAgICAgICAgICAgIArvyf5osn/gPxRSSp0lbt8/pDRp7vaZ2z8r+9QgQRfdP08Xmdfi1N8/FoJvZGCZ4T/lhFX3E7HhP2+Xf4pJoOA/0k4VolO14T8wQRZc9grhPyTQpTEx8OE/wMwDidY34T9I3DkJ6ADgP6sSqPg0HeI/6WXtds994T+KK/sKHdXgP8ETsp/QTuE/lGRnIm6p3j9IRyUH963gP86Eu2mzPuA/VEe7mki/4T9hvyS1hP/gP18I9NvW2eE/2kDSTCh72z+2SSsPrFXhP9ywaeH7Tt4/t9/GaxU43z+wnklC3DngP+dVXlDOZOA/MPjdgfDG4D/4AIVWidjcP9lEcGh4M+E/HlP5Y4Hn4T8xe1YUrn/hP1DEB6EuU90/rG37iH614T82bBt8LmPhP7texZc4F9w/Poa7aRBM3T9K4FpdINTgPzlScus4wuE/F5Vrm4Hs4T+R8MvV5GjhP3k4pUpq0Ns/Kjbye84u3T8bqoN5NKLbP7rL4Ams/9k/sTYj0PWG3D/iGI7aYcbVP+3P7dy+mNs/W/mT81Kr4D/QO9WEEa3gPy2bCXZy49s/FyG+5lbR4T+8CsL4VSDiP0g2oq8//Nw//FBQX9If4T9VVbDiwpHfP1df18fTb+E/uR95UCwB3j8XRqGMx4bhP7BYe+oPJto/vMYrdumk4D9QAUoRmcTfP4y0aX6wiOE/MWn1wVMJ3j/fpXK2BmPgP7VBvjf5hN8/6+66o0/63z/ERRWME5bhPxAQK/p1f+A/BTy3jE/24D+gOFxqmTXhPx/mhk/o6uE/xIboHyBi3z8w0W/rnNDhPw==",
                "weights": "k05VTVBZAQB2AHsnZGVzY3InOiAnPGY4JywgJ2ZvcnRyYW5fb3JkZXInOiBGYWxzZSwgJ3NoYXBlJzogKDc2LCksIH0gICAgICAgICAgICAgICAgICAgICAgICAgICAgICAgICAgICAgICAgICAgICAgICAgICAgICAgICAgIAoor6G8hvKKPyivobyG8oo/KK+hvIbyij8or6G8hvKKPyivobyG8oo/KK+hvIbyij8or6G8hvKKPyivobyG8oo/KK+hvIbyij8or6G8hvKKPyivobyG8oo/KK+hvIbyij8or6G8hvKKPyivobyG8oo/KK+hvIbyij8or6G8hvKKPyivobyG8oo/KK+hvIbyij8or6G8hvKKPyivobyG8oo/KK+hvIbyij8or6G8hvKKPyivobyG8oo/KK+hvIbyij8or6G8hvKKPyivobyG8oo/KK+hvIbyij8or6G8hvKKPyivobyG8oo/KK+hvIbyij8or6G8hvKKPyivobyG8oo/KK+hvIbyij8or6G8hvKKPyivobyG8oo/KK+hvIbyij8or6G8hvKKPyivobyG8oo/KK+hvIbyij8or6G8hvKKPyivobyG8oo/KK+hvIbyij8or6G8hvKKPyivobyG8oo/KK+hvIbyij8or6G8hvKKPyivobyG8oo/KK+hvIbyij8or6G8hvKKPyivobyG8oo/KK+hvIbyij8or6G8hvKKPyivobyG8oo/KK+hvIbyij8or6G8hvKKPyivobyG8oo/KK+hvIbyij8or6G8hvKKPyivobyG8oo/KK+hvIbyij8or6G8hvKKPyivobyG8oo/KK+hvIbyij8or6G8hvKKPyivobyG8oo/KK+hvIbyij8or6G8hvKKPyivobyG8oo/KK+hvIbyij8or6G8hvKKPyivobyG8oo/KK+hvIbyij8or6G8hvKKPyivobyG8oo/KK+hvIbyij8or6G8hvKKPw==",
                "bandwidth": 0.021261282293627046
            },
            "theta_weights": "k05VTVBZAQB2AHsnZGVzY3InOiAnPGY4JywgJ2ZvcnRyYW5fb3JkZXInOiBGYWxzZSwgJ3NoYXBlJzogKDIwMCwpLCB9ICAgICAgICAgICAgICAgICAgICAgICAgICAgICAgICAgICAgICAgICAgICAgICAgICAgICAgICAgIAp7FK5H4Xp0P3sUrkfhenQ/exSuR+F6dD97FK5H4Xp0P3sUrkfhenQ/exSuR+F6dD97FK5H4Xp0P3sUrkfhenQ/exSuR+F6dD97FK5H4Xp0P3sUrkfhenQ/exSuR+F6dD97FK5H4Xp0P3sUrkfhenQ/exSuR+F6dD97FK5H4Xp0P3sUrkfhenQ/exSuR+F6dD97FK5H4Xp0P3sUrkfhenQ/exSuR+F6dD97FK5H4Xp0P3sUrkfhenQ/exSuR+F6dD97FK5H4Xp0P3sUrkfhenQ/exSuR+F6dD97FK5H4Xp0P3sUrkfhenQ/exSuR+F6dD97FK5H4Xp0P3sUrkfhenQ/exSuR+F6dD97FK5H4Xp0P3sUrkfhenQ/exSuR+F6dD97FK5H4Xp0P3sUrkfhenQ/exSuR+F6dD97FK5H4Xp0P3sUrkfhenQ/exSuR+F6dD97FK5H4Xp0P3sUrkfhenQ/exSuR+F6dD97FK5H4Xp0P3sUrkfhenQ/exSuR+F6dD97FK5H4Xp0P3sUrkfhenQ/exSuR+F6dD97FK5H4Xp0P3sUrkfhenQ/exSuR+F6dD97FK5H4Xp0P3sUrkfhenQ/exSuR+F6dD97FK5H4Xp0P3sUrkfhenQ/exSuR+F6dD97FK5H4Xp0P3sUrkfhenQ/exSuR+F6dD97FK5H4Xp0P3sUrkfhenQ/exSuR+F6dD97FK5H4Xp0P3sUrkfhenQ/exSuR+F6dD97FK5H4Xp0P3sUrkfhenQ/exSuR+F6dD97FK5H4Xp0P3sUrkfhenQ/exSuR+F6dD97FK5H4Xp0P3sUrkfhenQ/exSuR+F6dD97FK5H4Xp0P3sUrkfhenQ/exSuR+F6dD97FK5H4Xp0P3sUrkfhenQ/exSuR+F6dD97FK5H4Xp0P3sUrkfhenQ/exSuR+F6dD97FK5H4Xp0P3sUrkfhenQ/exSuR+F6dD97FK5H4Xp0P3sUrkfhenQ/exSuR+F6dD97FK5H4Xp0P3sUrkfhenQ/exSuR+F6dD97FK5H4Xp0P3sUrkfhenQ/exSuR+F6dD97FK5H4Xp0P3sUrkfhenQ/exSuR+F6dD97FK5H4Xp0P3sUrkfhenQ/exSuR+F6dD97FK5H4Xp0P3sUrkfhenQ/exSuR+F6dD97FK5H4Xp0P3sUrkfhenQ/exSuR+F6dD97FK5H4Xp0P3sUrkfhenQ/exSuR+F6dD97FK5H4Xp0P3sUrkfhenQ/exSuR+F6dD97FK5H4Xp0P3sUrkfhenQ/exSuR+F6dD97FK5H4Xp0P3sUrkfhenQ/exSuR+F6dD97FK5H4Xp0P3sUrkfhenQ/exSuR+F6dD97FK5H4Xp0P3sUrkfhenQ/exSuR+F6dD97FK5H4Xp0P3sUrkfhenQ/exSuR+F6dD97FK5H4Xp0P3sUrkfhenQ/exSuR+F6dD97FK5H4Xp0P3sUrkfhenQ/exSuR+F6dD97FK5H4Xp0P3sUrkfhenQ/exSuR+F6dD97FK5H4Xp0P3sUrkfhenQ/exSuR+F6dD97FK5H4Xp0P3sUrkfhenQ/exSuR+F6dD97FK5H4Xp0P3sUrkfhenQ/exSuR+F6dD97FK5H4Xp0P3sUrkfhenQ/exSuR+F6dD97FK5H4Xp0P3sUrkfhenQ/exSuR+F6dD97FK5H4Xp0P3sUrkfhenQ/exSuR+F6dD97FK5H4Xp0P3sUrkfhenQ/exSuR+F6dD97FK5H4Xp0P3sUrkfhenQ/exSuR+F6dD97FK5H4Xp0P3sUrkfhenQ/exSuR+F6dD97FK5H4Xp0P3sUrkfhenQ/exSuR+F6dD97FK5H4Xp0P3sUrkfhenQ/exSuR+F6dD97FK5H4Xp0P3sUrkfhenQ/exSuR+F6dD97FK5H4Xp0P3sUrkfhenQ/exSuR+F6dD97FK5H4Xp0P3sUrkfhenQ/exSuR+F6dD97FK5H4Xp0P3sUrkfhenQ/exSuR+F6dD97FK5H4Xp0P3sUrkfhenQ/exSuR+F6dD97FK5H4Xp0P3sUrkfhenQ/exSuR+F6dD97FK5H4Xp0P3sUrkfhenQ/exSuR+F6dD97FK5H4Xp0P3sUrkfhenQ/exSuR+F6dD97FK5H4Xp0P3sUrkfhenQ/",
            "phi_kde": {
                "data": "k05VTVBZAQB2AHsnZGVzY3InOiAnPGY4JywgJ2ZvcnRyYW5fb3JkZXInOiBGYWxzZSwgJ3NoYXBlJzogKDEyNCwpLCB9ICAgICAgICAgICAgICAgICAgICAgICAgICAgICAgICAgICAgICAgICAgICAgICAgICAgICAgICAgIAqf1nBBXxbmPwqcd6/UYuM/sEFrNFHa4j8TzSgpztTjP+FakxmKYOI/+E+deTuj5j8durrHrWvmPxE8iR9DweM/ccPagXO05D+xoiP6Ya7kP1ZCZaibLuM/mkvOTe/M5T9pfJ249X7kP1blbF0Pd+I/SLmlxxpj4j/FC6qZRWbkP0EspSjNDeQ/cJnuozA35T/a5NSQo+vkP2uQW290HOM/exBY6oAa5T/n09rOdj7jPwP/ZH0OlOY/iLrjhp1w5D9jYPOBsPPjPxhGKeaQWuM//JkDuzru4z/iiFwxp7XmP0/f1VMPDuU/wl51BVtB5D/mvKurgi/nPz32YDDY5OQ/3SrgZnon4z9oyf6S5GniP/1QDtfleuM/ahfJvg+V4j+0/JXUgoLiP1NZFN82KeU/6lntnrud4z8v9pApoe7nPzATMhe10+I/inqHHH/w4z8cYEPrL1DiP/jPTMRD2OU/TvRFlrNY4z/Eg4oRai/lPyfE5TF4meU/iI3F2xoq5T9iz0LtjCnkP5koSm7O3+Q/+0UYh/ZZ5T/eCxFB+Q7kP4L4+H7qBuQ/kUr19mdL5D+SZlN/TkTjPyXiZzADXOM/dpPJcXnk5T+WA8wi48zjPwqp69P3nuQ/fZzzx5n54j9SL8XDF1bjP6DFIcSNjuQ/rDFG3A+b4z9Q+cUOcqLiP6t9c05kM+Q/GXaBJkg34z+oxtOp0MziP/s1t/GI/eU/ssfiygqr5z/aQF1MXO7iPwskK5Hwb+Q/6C2tRGBi5D/z9JoPPEbjP4X5MOt4ouQ/LVoJRp624j9oWK+7TuLlPwoEjAdqHuc/6+/+Kj+z5D8bonD7ytLkPzcxBco2x+I/AynWxSll4j+tgZiqSO3iP/zO5MPyQ+I/jhc/Q5iJ5D9OZO8aBVjlP20SC7V6WuQ/EfIIWMHQ4z9gR/0YV8TiP0o0wMrAseI/SeRH6KYP6T8WmjBHPJLkP8/sQE5pWuI/zx/k0/e14z+nFCmjp0HjPzl8C0qGPuI/oD6b+aBs4j9CD6B0TITiP54zzg+d1eM/TE+uXnr85D8aQ/RduczkP9wFSKc9tOM/6Ex4sTEC5T/ucSkb2ezkP8DCjigKi+M//SOLpJoX5T/DUT+RIaPlP4u/lhVXz+I/abFK8zkH4z+f8gLIMyTlP+Ib6LMBFeY/kh/KFSYv4z8mgzLt6TDjP0vT/6K+L+M/LZ3qsmX94j+pGIQk1gnjP2TYjyRs/+Y/gp5xqlKC4z8rL7krq/jiP7KR1r+pCOQ/xLccSJ5A5j/HV3ZAlJ7iP0N+0RduXOY/Y8LZl2Lc4j9SFvLngsTlPw==",
                "weights": "k05VTVBZAQB2AHsnZGVzY3InOiAnPGY4JywgJ2ZvcnRyYW5fb3JkZXInOiBGYWxzZSwgJ3NoYXBlJzogKDEyNCwpLCB9ICAgICAgICAgICAgICAgICAgICAgICAgICAgICAgICAgICAgICAgICAgICAgICAgICAgICAgICAgIAqEEEIIIYSAP4QQQgghhIA/hBBCCCGEgD+EEEIIIYSAP4QQQgghhIA/hBBCCCGEgD+EEEIIIYSAP4QQQgghhIA/hBBCCCGEgD+EEEIIIYSAP4QQQgghhIA/hBBCCCGEgD+EEEIIIYSAP4QQQgghhIA/hBBCCCGEgD+EEEIIIYSAP4QQQgghhIA/hBBCCCGEgD+EEEIIIYSAP4QQQgghhIA/hBBCCCGEgD+EEEIIIYSAP4QQQgghhIA/hBBCCCGEgD+EEEIIIYSAP4QQQgghhIA/hBBCCCGEgD+EEEIIIYSAP4QQQgghhIA/hBBCCCGEgD+EEEIIIYSAP4QQQgghhIA/hBBCCCGEgD+EEEIIIYSAP4QQQgghhIA/hBBCCCGEgD+EEEIIIYSAP4QQQgghhIA/hBBCCCGEgD+EEEIIIYSAP4QQQgghhIA/hBBCCCGEgD+EEEIIIYSAP4QQQgghhIA/hBBCCCGEgD+EEEIIIYSAP4QQQgghhIA/hBBCCCGEgD+EEEIIIYSAP4QQQgghhIA/hBBCCCGEgD+EEEIIIYSAP4QQQgghhIA/hBBCCCGEgD+EEEIIIYSAP4QQQgghhIA/hBBCCCGEgD+EEEIIIYSAP4QQQgghhIA/hBBCCCGEgD+EEEIIIYSAP4QQQgghhIA/hBBCCCGEgD+EEEIIIYSAP4QQQgghhIA/hBBCCCGEgD+EEEIIIYSAP4QQQgghhIA/hBBCCCGEgD+EEEIIIYSAP4QQQgghhIA/hBBCCCGEgD+EEEIIIYSAP4QQQgghhIA/hBBCCCGEgD+EEEIIIYSAP4QQQgghhIA/hBBCCCGEgD+EEEIIIYSAP4QQQgghhIA/hBBCCCGEgD+EEEIIIYSAP4QQQgghhIA/hBBCCCGEgD+EEEIIIYSAP4QQQgghhIA/hBBCCCGEgD+EEEIIIYSAP4QQQgghhIA/hBBCCCGEgD+EEEIIIYSAP4QQQgghhIA/hBBCCCGEgD+EEEIIIYSAP4QQQgghhIA/hBBCCCGEgD+EEEIIIYSAP4QQQgghhIA/hBBCCCGEgD+EEEIIIYSAP4QQQgghhIA/hBBCCCGEgD+EEEIIIYSAP4QQQgghhIA/hBBCCCGEgD+EEEIIIYSAP4QQQgghhIA/hBBCCCGEgD+EEEIIIYSAP4QQQgghhIA/hBBCCCGEgD+EEEIIIYSAP4QQQgghhIA/hBBCCCGEgD+EEEIIIYSAP4QQQgghhIA/hBBCCCGEgD+EEEIIIYSAP4QQQgghhIA/hBBCCCGEgD+EEEIIIYSAP4QQQgghhIA/hBBCCCGEgD+EEEIIIYSAPw==",
                "bandwidth": 0.01768276953819401
            },
            "phi_weights": "k05VTVBZAQB2AHsnZGVzY3InOiAnPGY4JywgJ2ZvcnRyYW5fb3JkZXInOiBGYWxzZSwgJ3NoYXBlJzogKDIwMCwpLCB9ICAgICAgICAgICAgICAgICAgICAgICAgICAgICAgICAgICAgICAgICAgICAgICAgICAgICAgICAgIAp7FK5H4Xp0P3sUrkfhenQ/exSuR+F6dD97FK5H4Xp0P3sUrkfhenQ/exSuR+F6dD97FK5H4Xp0P3sUrkfhenQ/exSuR+F6dD97FK5H4Xp0P3sUrkfhenQ/exSuR+F6dD97FK5H4Xp0P3sUrkfhenQ/exSuR+F6dD97FK5H4Xp0P3sUrkfhenQ/exSuR+F6dD97FK5H4Xp0P3sUrkfhenQ/exSuR+F6dD97FK5H4Xp0P3sUrkfhenQ/exSuR+F6dD97FK5H4Xp0P3sUrkfhenQ/exSuR+F6dD97FK5H4Xp0P3sUrkfhenQ/exSuR+F6dD97FK5H4Xp0P3sUrkfhenQ/exSuR+F6dD97FK5H4Xp0P3sUrkfhenQ/exSuR+F6dD97FK5H4Xp0P3sUrkfhenQ/exSuR+F6dD97FK5H4Xp0P3sUrkfhenQ/exSuR+F6dD97FK5H4Xp0P3sUrkfhenQ/exSuR+F6dD97FK5H4Xp0P3sUrkfhenQ/exSuR+F6dD97FK5H4Xp0P3sUrkfhenQ/exSuR+F6dD97FK5H4Xp0P3sUrkfhenQ/exSuR+F6dD97FK5H4Xp0P3sUrkfhenQ/exSuR+F6dD97FK5H4Xp0P3sUrkfhenQ/exSuR+F6dD97FK5H4Xp0P3sUrkfhenQ/exSuR+F6dD97FK5H4Xp0P3sUrkfhenQ/exSuR+F6dD97FK5H4Xp0P3sUrkfhenQ/exSuR+F6dD97FK5H4Xp0P3sUrkfhenQ/exSuR+F6dD97FK5H4Xp0P3sUrkfhenQ/exSuR+F6dD97FK5H4Xp0P3sUrkfhenQ/exSuR+F6dD97FK5H4Xp0P3sUrkfhenQ/exSuR+F6dD97FK5H4Xp0P3sUrkfhenQ/exSuR+F6dD97FK5H4Xp0P3sUrkfhenQ/exSuR+F6dD97FK5H4Xp0P3sUrkfhenQ/exSuR+F6dD97FK5H4Xp0P3sUrkfhenQ/exSuR+F6dD97FK5H4Xp0P3sUrkfhenQ/exSuR+F6dD97FK5H4Xp0P3sUrkfhenQ/exSuR+F6dD97FK5H4Xp0P3sUrkfhenQ/exSuR+F6dD97FK5H4Xp0P3sUrkfhenQ/exSuR+F6dD97FK5H4Xp0P3sUrkfhenQ/exSuR+F6dD97FK5H4Xp0P3sUrkfhenQ/exSuR+F6dD97FK5H4Xp0P3sUrkfhenQ/exSuR+F6dD97FK5H4Xp0P3sUrkfhenQ/exSuR+F6dD97FK5H4Xp0P3sUrkfhenQ/exSuR+F6dD97FK5H4Xp0P3sUrkfhenQ/exSuR+F6dD97FK5H4Xp0P3sUrkfhenQ/exSuR+F6dD97FK5H4Xp0P3sUrkfhenQ/exSuR+F6dD97FK5H4Xp0P3sUrkfhenQ/exSuR+F6dD97FK5H4Xp0P3sUrkfhenQ/exSuR+F6dD97FK5H4Xp0P3sUrkfhenQ/exSuR+F6dD97FK5H4Xp0P3sUrkfhenQ/exSuR+F6dD97FK5H4Xp0P3sUrkfhenQ/exSuR+F6dD97FK5H4Xp0P3sUrkfhenQ/exSuR+F6dD97FK5H4Xp0P3sUrkfhenQ/exSuR+F6dD97FK5H4Xp0P3sUrkfhenQ/exSuR+F6dD97FK5H4Xp0P3sUrkfhenQ/exSuR+F6dD97FK5H4Xp0P3sUrkfhenQ/exSuR+F6dD97FK5H4Xp0P3sUrkfhenQ/exSuR+F6dD97FK5H4Xp0P3sUrkfhenQ/exSuR+F6dD97FK5H4Xp0P3sUrkfhenQ/exSuR+F6dD97FK5H4Xp0P3sUrkfhenQ/exSuR+F6dD97FK5H4Xp0P3sUrkfhenQ/exSuR+F6dD97FK5H4Xp0P3sUrkfhenQ/exSuR+F6dD97FK5H4Xp0P3sUrkfhenQ/exSuR+F6dD97FK5H4Xp0P3sUrkfhenQ/exSuR+F6dD97FK5H4Xp0P3sUrkfhenQ/exSuR+F6dD97FK5H4Xp0P3sUrkfhenQ/exSuR+F6dD97FK5H4Xp0P3sUrkfhenQ/exSuR+F6dD97FK5H4Xp0P3sUrkfhenQ/exSuR+F6dD97FK5H4Xp0P3sUrkfhenQ/exSuR+F6dD97FK5H4Xp0P3sUrkfhenQ/"
        },
        "HIP-FCI": {
            "theta_kde": {
                "data": "k05VTVBZAQB2AHsnZGVzY3InOiAnPGY4JywgJ2ZvcnRyYW5fb3JkZXInOiBGYWxzZSwgJ3NoYXBlJzogKDE0NCwpLCB9ICAgICAgICAgICAgICAgICAgICAgICAgICAgICAgICAgICAgICAgICAgICAgICAgICAgICAgICAgIAot6YhFGSkWwJCE0a1sGhTAXH3d4pc1DMBy09aZdzkQwBZWWAH/OwzAra2R4laIE8DZ8cehDTURwILMzb0R5RjAMS5SiRFGIMAJond3Tf8RwBmw8WozghHAYFbdeN/NGcD1e6XDVh0SwHLijveF1AXArnKQQXxVE8CeXrTKgBkRwPA2NE/R1A7AtGrL/QbPCsDwBHfX52UBwDhzmoLcjRjADtffGbjDE8A95okM4fcDwF2Ujjiw4xTA4UAICU84EcA4W9B3hlkcwBtVqmoWQBbAXD+rPykvAMCwKfrFn6Dpv6aiYt3LphfA783jQkxnFsDHSnQHvtUawA2RLvmqUBTAGQVY0d/uEsA8omqcX94UwIjLqVRqqyDAtt+F353WFMAmxFi26WYCwHZXm85LJgDA0kF1XUPlFcCwV2rLBdsTwMMdf4NhjAHAdtEp1WMoDMCwoRWgPEgJwGiQTACoYxnAAENRjxkxG8BtXdZn/ZsNwAiT1DujKh3ARj4bNiu1AcD/mstAb9fDv4ImrFA6sxvAu/cxuLEXEcCe8wUH3m4TwKAsKLaLOAvA3IMR/VDQEsBTgQKJJcYTwHlTBpcD5BPAEXrbjGNRGcDyP3cpUVUTwMIpPjgv4iHAGDTDJGB99b8A7+KNpEnav4Y+6NXLRBHA0v9FLpeWGsA1ckpyz3kbwHS0yuFtHRPA3tVNhY4sFsCQ68U+y18awLVpASG8QBLAM5tN4g2DEsC0rqubWsQGwAbwLJ3IVRPASjfxes56EcA5l97bUEAUwMlrskEcVhfAhLOR1kEKIcB/wsn0PV4TwBMsEFEFHhDAhZkOZorKDsCAB5BYe8cIwBKOT7LQHRvAfInkkcQaFMBtUd9DQg8PwMsc7x97KxbAub8zoLkfHcCK3PuATfIDwAaYpaA2QRPACidhnQwgFMBUc8uJypwQwEj62KNb1BjA2p4Ts8uWGsDK8R7Q6BcgwHE9vBbtbBnAasXyueMEGMASsuJB+sISwFyNvctyaBnA+1sCbvJKHMCJJQhaEksNwFhM0qg+lwvA/DL+nOkNCMCi91OvLhAUwMIA8tEMoBHAn67cc9UhEsBkN0JAbQ75vzKnm52JUR7AAqAUqyGEGsAiXQ1e9xYIwJhjRpioBR7AgqO2JjZqFMCahZvpun4FwFIimumhtvm/w9M6oppwGcAcj+X2tdwCwJT42hkJtQvAbQnJIA2gF8DFGJcxgbkSwEmQ0CUJ0BjACePP6wVP/b9EJMLbFBAKwBtb0L3k6BbA/QuP94cxtr/MAKAHGv8OwDaprsNhWAvApFdF1D15HcDK3iXr1RUZwHp1U0KM+xTAFo0SpCqfE8CIQ+aSUU0hwMG+mhXX/xLAcmdVUwKtDcBldifrDnYNwMAsp2VOtAfAGnmQjKEQD8BVVSNmIV8iwFm2fXiJUBXASPYFPONsCsB9J9tNPfIQwOAZYUqs8iDAOL+bosXfE8C12ArOcBYCwOCZdBnj+BbAhrWbJWUMDMBiv4x2YDgYwELb5lRL8BrAGK8LPn12IsA=",
                "weights": "k05VTVBZAQB2AHsnZGVzY3InOiAnPGY4JywgJ2ZvcnRyYW5fb3JkZXInOiBGYWxzZSwgJ3NoYXBlJzogKDE0NCwpLCB9ICAgICAgICAgICAgICAgICAgICAgICAgICAgICAgICAgICAgICAgICAgICAgICAgICAgICAgICAgIAocx3Ecx3F8PxzHcRzHcXw/HMdxHMdxfD8cx3Ecx3F8PxzHcRzHcXw/HMdxHMdxfD8cx3Ecx3F8PxzHcRzHcXw/HMdxHMdxfD8cx3Ecx3F8PxzHcRzHcXw/HMdxHMdxfD8cx3Ecx3F8PxzHcRzHcXw/HMdxHMdxfD8cx3Ecx3F8PxzHcRzHcXw/HMdxHMdxfD8cx3Ecx3F8PxzHcRzHcXw/HMdxHMdxfD8cx3Ecx3F8PxzHcRzHcXw/HMdxHMdxfD8cx3Ecx3F8PxzHcRzHcXw/HMdxHMdxfD8cx3Ecx3F8PxzHcRzHcXw/HMdxHMdxfD8cx3Ecx3F8PxzHcRzHcXw/HMdxHMdxfD8cx3Ecx3F8PxzHcRzHcXw/HMdxHMdxfD8cx3Ecx3F8PxzHcRzHcXw/HMdxHMdxfD8cx3Ecx3F8PxzHcRzHcXw/HMdxHMdxfD8cx3Ecx3F8PxzHcRzHcXw/HMdxHMdxfD8cx3Ecx3F8PxzHcRzHcXw/HMdxHMdxfD8cx3Ecx3F8PxzHcRzHcXw/HMdxHMdxfD8cx3Ecx3F8PxzHcRzHcXw/HMdxHMdxfD8cx3Ecx3F8PxzHcRzHcXw/HMdxHMdxfD8cx3Ecx3F8PxzHcRzHcXw/HMdxHMdxfD8cx3Ecx3F8PxzHcRzHcXw/HMdxHMdxfD8cx3Ecx3F8PxzHcRzHcXw/HMdxHMdxfD8cx3Ecx3F8PxzHcRzHcXw/HMdxHMdxfD8cx3Ecx3F8PxzHcRzHcXw/HMdxHMdxfD8cx3Ecx3F8PxzHcRzHcXw/HMdxHMdxfD8cx3Ecx3F8PxzHcRzHcXw/HMdxHMdxfD8cx3Ecx3F8PxzHcRzHcXw/HMdxHMdxfD8cx3Ecx3F8PxzHcRzHcXw/HMdxHMdxfD8cx3Ecx3F8PxzHcRzHcXw/HMdxHMdxfD8cx3Ecx3F8PxzHcRzHcXw/HMdxHMdxfD8cx3Ecx3F8PxzHcRzHcXw/HMdxHMdxfD8cx3Ecx3F8PxzHcRzHcXw/HMdxHMdxfD8cx3Ecx3F8PxzHcRzHcXw/HMdxHMdxfD8cx3Ecx3F8PxzHcRzHcXw/HMdxHMdxfD8cx3Ecx3F8PxzHcRzHcXw/HMdxHMdxfD8cx3Ecx3F8PxzHcRzHcXw/HMdxHMdxfD8cx3Ecx3F8PxzHcRzHcXw/HMdxHMdxfD8cx3Ecx3F8PxzHcRzHcXw/HMdxHMdxfD8cx3Ecx3F8PxzHcRzHcXw/HMdxHMdxfD8cx3Ecx3F8PxzHcRzHcXw/HMdxHMdxfD8cx3Ecx3F8PxzHcRzHcXw/HMdxHMdxfD8cx3Ecx3F8PxzHcRzHcXw/HMdxHMdxfD8cx3Ecx3F8PxzHcRzHcXw/HMdxHMdxfD8cx3Ecx3F8PxzHcRzHcXw/HMdxHMdxfD8cx3Ecx3F8PxzHcRzHcXw/HMdxHMdxfD8cx3Ecx3F8PxzHcRzHcXw/HMdxHMdxfD8cx3Ecx3F8PxzHcRzHcXw/HMdxHMdxfD8cx3Ecx3F8PxzHcRzHcXw/HMdxHMdxfD8=",
                "bandwidth": 0.7302875811719685
            },
            "theta_weights": "k05VTVBZAQB2AHsnZGVzY3InOiAnPGY4JywgJ2ZvcnRyYW5fb3JkZXInOiBGYWxzZSwgJ3NoYXBlJzogKDIwMCwpLCB9ICAgICAgICAgICAgICAgICAgICAgICAgICAgICAgICAgICAgICAgICAgICAgICAgICAgICAgICAgIAp7FK5H4Xp0P3sUrkfhenQ/exSuR+F6dD97FK5H4Xp0P3sUrkfhenQ/exSuR+F6dD97FK5H4Xp0P3sUrkfhenQ/exSuR+F6dD97FK5H4Xp0P3sUrkfhenQ/exSuR+F6dD97FK5H4Xp0P3sUrkfhenQ/exSuR+F6dD97FK5H4Xp0P3sUrkfhenQ/exSuR+F6dD97FK5H4Xp0P3sUrkfhenQ/exSuR+F6dD97FK5H4Xp0P3sUrkfhenQ/exSuR+F6dD97FK5H4Xp0P3sUrkfhenQ/exSuR+F6dD97FK5H4Xp0P3sUrkfhenQ/exSuR+F6dD97FK5H4Xp0P3sUrkfhenQ/exSuR+F6dD97FK5H4Xp0P3sUrkfhenQ/exSuR+F6dD97FK5H4Xp0P3sUrkfhenQ/exSuR+F6dD97FK5H4Xp0P3sUrkfhenQ/exSuR+F6dD97FK5H4Xp0P3sUrkfhenQ/exSuR+F6dD97FK5H4Xp0P3sUrkfhenQ/exSuR+F6dD97FK5H4Xp0P3sUrkfhenQ/exSuR+F6dD97FK5H4Xp0P3sUrkfhenQ/exSuR+F6dD97FK5H4Xp0P3sUrkfhenQ/exSuR+F6dD97FK5H4Xp0P3sUrkfhenQ/exSuR+F6dD97FK5H4Xp0P3sUrkfhenQ/exSuR+F6dD97FK5H4Xp0P3sUrkfhenQ/exSuR+F6dD97FK5H4Xp0P3sUrkfhenQ/exSuR+F6dD97FK5H4Xp0P3sUrkfhenQ/exSuR+F6dD97FK5H4Xp0P3sUrkfhenQ/exSuR+F6dD97FK5H4Xp0P3sUrkfhenQ/exSuR+F6dD97FK5H4Xp0P3sUrkfhenQ/exSuR+F6dD97FK5H4Xp0P3sUrkfhenQ/exSuR+F6dD97FK5H4Xp0P3sUrkfhenQ/exSuR+F6dD97FK5H4Xp0P3sUrkfhenQ/exSuR+F6dD97FK5H4Xp0P3sUrkfhenQ/exSuR+F6dD97FK5H4Xp0P3sUrkfhenQ/exSuR+F6dD97FK5H4Xp0P3sUrkfhenQ/exSuR+F6dD97FK5H4Xp0P3sUrkfhenQ/exSuR+F6dD97FK5H4Xp0P3sUrkfhenQ/exSuR+F6dD97FK5H4Xp0P3sUrkfhenQ/exSuR+F6dD97FK5H4Xp0P3sUrkfhenQ/exSuR+F6dD97FK5H4Xp0P3sUrkfhenQ/exSuR+F6dD97FK5H4Xp0P3sUrkfhenQ/exSuR+F6dD97FK5H4Xp0P3sUrkfhenQ/exSuR+F6dD97FK5H4Xp0P3sUrkfhenQ/exSuR+F6dD97FK5H4Xp0P3sUrkfhenQ/exSuR+F6dD97FK5H4Xp0P3sUrkfhenQ/exSuR+F6dD97FK5H4Xp0P3sUrkfhenQ/exSuR+F6dD97FK5H4Xp0P3sUrkfhenQ/exSuR+F6dD97FK5H4Xp0P3sUrkfhenQ/exSuR+F6dD97FK5H4Xp0P3sUrkfhenQ/exSuR+F6dD97FK5H4Xp0P3sUrkfhenQ/exSuR+F6dD97FK5H4Xp0P3sUrkfhenQ/exSuR+F6dD97FK5H4Xp0P3sUrkfhenQ/exSuR+F6dD97FK5H4Xp0P3sUrkfhenQ/exSuR+F6dD97FK5H4Xp0P3sUrkfhenQ/exSuR+F6dD97FK5H4Xp0P3sUrkfhenQ/exSuR+F6dD97FK5H4Xp0P3sUrkfhenQ/exSuR+F6dD97FK5H4Xp0P3sUrkfhenQ/exSuR+F6dD97FK5H4Xp0P3sUrkfhenQ/exSuR+F6dD97FK5H4Xp0P3sUrkfhenQ/exSuR+F6dD97FK5H4Xp0P3sUrkfhenQ/exSuR+F6dD97FK5H4Xp0P3sUrkfhenQ/exSuR+F6dD97FK5H4Xp0P3sUrkfhenQ/exSuR+F6dD97FK5H4Xp0P3sUrkfhenQ/exSuR+F6dD97FK5H4Xp0P3sUrkfhenQ/exSuR+F6dD97FK5H4Xp0P3sUrkfhenQ/exSuR+F6dD97FK5H4Xp0P3sUrkfhenQ/exSuR+F6dD97FK5H4Xp0P3sUrkfhenQ/exSuR+F6dD97FK5H4Xp0P3sUrkfhenQ/exSuR+F6dD97FK5H4Xp0P3sUrkfhenQ/",
            "phi_kde": {
                "data": "k05VTVBZAQB2AHsnZGVzY3InOiAnPGY4JywgJ2ZvcnRyYW5fb3JkZXInOiBGYWxzZSwgJ3NoYXBlJzogKDU2LCksIH0gICAgICAgICAgICAgICAgICAgICAgICAgICAgICAgICAgICAgICAgICAgICAgICAgICAgICAgICAgIAozURTIylMWQLqxURdLtBhA2oUf6Vv6EUC4DWnJqMXpP1g3N6zd4hJAUxPuJq1iGkCMxBW1IW8cQD6u1/14iB9AVY3igJ9rBkA/+fA9JfsPQAZ2uDXFqxZAf9cc8EiTD0BxDmYU1FYMQMnOUf4xSh1AqhHeVhs4AUCDRvz/wmMXQGHwrxALFw5AUTQtTQCZFUBunbVQRNUSQCCMR4nbWBdASxzl6iv8CUCqqIPb4bMHQHxktoV3zvs/zj15uXRfFUDmKVSSqKseQGYzlE5gZRJAOALfIVwTEEAdlwjwtDQRQOPG6HE07xFAgK3cTVpG+D/rlDo5CSoTQPy7XXfqkxFAv7x196E5E0BgQ9W/czftP9aP8Xu9JyFASImGJXUrGECH44cGLZUWQKBOeadZvxZA/OTACOvI9D8kl1D4eOsTQJa1Ba6mSRZAd6SD4GylFkBUhI8tZAQGQK0S868KzxtAMClBpG7pCkD79Xfv5ncdQHSfKYLQfghAckcL+2syGUBJRsgBdJMbQHMd8wPkMiBAxZBKgp5lAkAy6yoU2/ATQN+Rqe6qzwRAo6vL6tJaIECqyQ13EkUDQDbtjaVu1hlA",
                "weights": "k05VTVBZAQB2AHsnZGVzY3InOiAnPGY4JywgJ2ZvcnRyYW5fb3JkZXInOiBGYWxzZSwgJ3NoYXBlJzogKDU2LCksIH0gICAgICAgICAgICAgICAgICAgICAgICAgICAgICAgICAgICAgICAgICAgICAgICAgICAgICAgICAgIAqSJEmSJEmSP5IkSZIkSZI/kiRJkiRJkj+SJEmSJEmSP5IkSZIkSZI/kiRJkiRJkj+SJEmSJEmSP5IkSZIkSZI/kiRJkiRJkj+SJEmSJEmSP5IkSZIkSZI/kiRJkiRJkj+SJEmSJEmSP5IkSZIkSZI/kiRJkiRJkj+SJEmSJEmSP5IkSZIkSZI/kiRJkiRJkj+SJEmSJEmSP5IkSZIkSZI/kiRJkiRJkj+SJEmSJEmSP5IkSZIkSZI/kiRJkiRJkj+SJEmSJEmSP5IkSZIkSZI/kiRJkiRJkj+SJEmSJEmSP5IkSZIkSZI/kiRJkiRJkj+SJEmSJEmSP5IkSZIkSZI/kiRJkiRJkj+SJEmSJEmSP5IkSZIkSZI/kiRJkiRJkj+SJEmSJEmSP5IkSZIkSZI/kiRJkiRJkj+SJEmSJEmSP5IkSZIkSZI/kiRJkiRJkj+SJEmSJEmSP5IkSZIkSZI/kiRJkiRJkj+SJEmSJEmSP5IkSZIkSZI/kiRJkiRJkj+SJEmSJEmSP5IkSZIkSZI/kiRJkiRJkj+SJEmSJEmSP5IkSZIkSZI/kiRJkiRJkj+SJEmSJEmSP5IkSZIkSZI/",
                "bandwidth": 0.921334941640827
            },
            "phi_weights": "k05VTVBZAQB2AHsnZGVzY3InOiAnPGY4JywgJ2ZvcnRyYW5fb3JkZXInOiBGYWxzZSwgJ3NoYXBlJzogKDIwMCwpLCB9ICAgICAgICAgICAgICAgICAgICAgICAgICAgICAgICAgICAgICAgICAgICAgICAgICAgICAgICAgIAp7FK5H4Xp0P3sUrkfhenQ/exSuR+F6dD97FK5H4Xp0P3sUrkfhenQ/exSuR+F6dD97FK5H4Xp0P3sUrkfhenQ/exSuR+F6dD97FK5H4Xp0P3sUrkfhenQ/exSuR+F6dD97FK5H4Xp0P3sUrkfhenQ/exSuR+F6dD97FK5H4Xp0P3sUrkfhenQ/exSuR+F6dD97FK5H4Xp0P3sUrkfhenQ/exSuR+F6dD97FK5H4Xp0P3sUrkfhenQ/exSuR+F6dD97FK5H4Xp0P3sUrkfhenQ/exSuR+F6dD97FK5H4Xp0P3sUrkfhenQ/exSuR+F6dD97FK5H4Xp0P3sUrkfhenQ/exSuR+F6dD97FK5H4Xp0P3sUrkfhenQ/exSuR+F6dD97FK5H4Xp0P3sUrkfhenQ/exSuR+F6dD97FK5H4Xp0P3sUrkfhenQ/exSuR+F6dD97FK5H4Xp0P3sUrkfhenQ/exSuR+F6dD97FK5H4Xp0P3sUrkfhenQ/exSuR+F6dD97FK5H4Xp0P3sUrkfhenQ/exSuR+F6dD97FK5H4Xp0P3sUrkfhenQ/exSuR+F6dD97FK5H4Xp0P3sUrkfhenQ/exSuR+F6dD97FK5H4Xp0P3sUrkfhenQ/exSuR+F6dD97FK5H4Xp0P3sUrkfhenQ/exSuR+F6dD97FK5H4Xp0P3sUrkfhenQ/exSuR+F6dD97FK5H4Xp0P3sUrkfhenQ/exSuR+F6dD97FK5H4Xp0P3sUrkfhenQ/exSuR+F6dD97FK5H4Xp0P3sUrkfhenQ/exSuR+F6dD97FK5H4Xp0P3sUrkfhenQ/exSuR+F6dD97FK5H4Xp0P3sUrkfhenQ/exSuR+F6dD97FK5H4Xp0P3sUrkfhenQ/exSuR+F6dD97FK5H4Xp0P3sUrkfhenQ/exSuR+F6dD97FK5H4Xp0P3sUrkfhenQ/exSuR+F6dD97FK5H4Xp0P3sUrkfhenQ/exSuR+F6dD97FK5H4Xp0P3sUrkfhenQ/exSuR+F6dD97FK5H4Xp0P3sUrkfhenQ/exSuR+F6dD97FK5H4Xp0P3sUrkfhenQ/exSuR+F6dD97FK5H4Xp0P3sUrkfhenQ/exSuR+F6dD97FK5H4Xp0P3sUrkfhenQ/exSuR+F6dD97FK5H4Xp0P3sUrkfhenQ/exSuR+F6dD97FK5H4Xp0P3sUrkfhenQ/exSuR+F6dD97FK5H4Xp0P3sUrkfhenQ/exSuR+F6dD97FK5H4Xp0P3sUrkfhenQ/exSuR+F6dD97FK5H4Xp0P3sUrkfhenQ/exSuR+F6dD97FK5H4Xp0P3sUrkfhenQ/exSuR+F6dD97FK5H4Xp0P3sUrkfhenQ/exSuR+F6dD97FK5H4Xp0P3sUrkfhenQ/exSuR+F6dD97FK5H4Xp0P3sUrkfhenQ/exSuR+F6dD97FK5H4Xp0P3sUrkfhenQ/exSuR+F6dD97FK5H4Xp0P3sUrkfhenQ/exSuR+F6dD97FK5H4Xp0P3sUrkfhenQ/exSuR+F6dD97FK5H4Xp0P3sUrkfhenQ/exSuR+F6dD97FK5H4Xp0P3sUrkfhenQ/exSuR+F6dD97FK5H4Xp0P3sUrkfhenQ/exSuR+F6dD97FK5H4Xp0P3sUrkfhenQ/exSuR+F6dD97FK5H4Xp0P3sUrkfhenQ/exSuR+F6dD97FK5H4Xp0P3sUrkfhenQ/exSuR+F6dD97FK5H4Xp0P3sUrkfhenQ/exSuR+F6dD97FK5H4Xp0P3sUrkfhenQ/exSuR+F6dD97FK5H4Xp0P3sUrkfhenQ/exSuR+F6dD97FK5H4Xp0P3sUrkfhenQ/exSuR+F6dD97FK5H4Xp0P3sUrkfhenQ/exSuR+F6dD97FK5H4Xp0P3sUrkfhenQ/exSuR+F6dD97FK5H4Xp0P3sUrkfhenQ/exSuR+F6dD97FK5H4Xp0P3sUrkfhenQ/exSuR+F6dD97FK5H4Xp0P3sUrkfhenQ/exSuR+F6dD97FK5H4Xp0P3sUrkfhenQ/exSuR+F6dD97FK5H4Xp0P3sUrkfhenQ/exSuR+F6dD97FK5H4Xp0P3sUrkfhenQ/exSuR+F6dD97FK5H4Xp0P3sUrkfhenQ/"
        },
        "HIP-GMI": {
            "theta_kde": {
                "data": "k05VTVBZAQB2AHsnZGVzY3InOiAnPGY4JywgJ2ZvcnRyYW5fb3JkZXInOiBGYWxzZSwgJ3NoYXBlJzogKDk3LCksIH0gICAgICAgICAgICAgICAgICAgICAgICAgICAgICAgICAgICAgICAgICAgICAgICAgICAgICAgICAgIApwPWRuIZvVPwC6g0Q81Lk/MMffha+E0T+O0xRfJHbVP7eY65ZonMA/YJeXSDFC0z9a8IL2/CfUP5aEkt7mhMo/lrgYa0hbwj+sFa71VkrNP7DX3ZuQLNU/1N76niWGzj/1t53l7M27P14KgEbxVNQ/GpD6SPsaoz+FfLCI3ZrNP50XkX71qL6/rdsErUC/sz9O/cRiHVvNP6l11zv+S7W/+8imUm+P0T+emxcsa8rTP47kvZ/9YnY/gwSkGOho0j8DCm81CDazP66w8xUV/6Y/Z+2PIg4YtL+P0liia3nWP41wnz7JOdQ/t6IXZQom0z+1iNXqVLPRP5lKotrzqtA/VSLdcqrezT8vEto+gNaoPyyxada4Cso/FSj+VI/X1T8uoNjdgrLRP/79miq22Zw/3fQBaFDjuT8VaGnICBvGv55k6NIK3M0/R/aXEALlqD8c4GGk2cqOP3xgHbdJCdU/mMjAQtzu0D++E+pA3VvEv2tgTzMzldM/JEXEEYyWzz+sY3Mc4GK8P2xfyfAPBMa/Snx26F6rxD+UY51E8GrRPyamYsI2/8G/JhJWwlQ+1D83dr4tlK6+P9wBFzSzvcQ/2jIAuRR3wr+NRQdctqWnv0ZJQsguktY/3iGrmHrBwD9PCWJ73Fq6P1r7G3mDnKI/qN0dHE9GuT+7yF1rnJzRPyw9Ewi9LdQ/2+NYxc2CuD/2UkMZugjEv2wonQTR1rk/hqAn1dWEzj9Mc+a4LhnDPwK8Wxjm0so/JILskwfV0j/+lUqVy0TPv96kvqHDMMU/uQz+osiZsD+ePmqv0VHPP+3fb4xhsdU/6LWa2Mjgwz+Uljo38D7CP9/sqZu3g70/9t+7e5IB1T/+SssU+1DMP+lGEqchq7w/Eu0RSaHv0z95yue75ly3P6u0zDfjN84/3eFhOfaGzz8G2sZ/FzW5v7R2zwTPOpw/ScLmqEEswD+efkpZb2e2P+uuuEH8v5Y/fOx+Ev+k0D+sXE3XoY7SP6tSNxsr3dE/0Zd/uJdysz9Nsw6HeFnSPw==",
                "weights": "k05VTVBZAQB2AHsnZGVzY3InOiAnPGY4JywgJ2ZvcnRyYW5fb3JkZXInOiBGYWxzZSwgJ3NoYXBlJzogKDk3LCksIH0gICAgICAgICAgICAgICAgICAgICAgICAgICAgICAgICAgICAgICAgICAgICAgICAgICAgICAgICAgIAoV+OLqBx2FPxX44uoHHYU/Ffji6gcdhT8V+OLqBx2FPxX44uoHHYU/Ffji6gcdhT8V+OLqBx2FPxX44uoHHYU/Ffji6gcdhT8V+OLqBx2FPxX44uoHHYU/Ffji6gcdhT8V+OLqBx2FPxX44uoHHYU/Ffji6gcdhT8V+OLqBx2FPxX44uoHHYU/Ffji6gcdhT8V+OLqBx2FPxX44uoHHYU/Ffji6gcdhT8V+OLqBx2FPxX44uoHHYU/Ffji6gcdhT8V+OLqBx2FPxX44uoHHYU/Ffji6gcdhT8V+OLqBx2FPxX44uoHHYU/Ffji6gcdhT8V+OLqBx2FPxX44uoHHYU/Ffji6gcdhT8V+OLqBx2FPxX44uoHHYU/Ffji6gcdhT8V+OLqBx2FPxX44uoHHYU/Ffji6gcdhT8V+OLqBx2FPxX44uoHHYU/Ffji6gcdhT8V+OLqBx2FPxX44uoHHYU/Ffji6gcdhT8V+OLqBx2FPxX44uoHHYU/Ffji6gcdhT8V+OLqBx2FPxX44uoHHYU/Ffji6gcdhT8V+OLqBx2FPxX44uoHHYU/Ffji6gcdhT8V+OLqBx2FPxX44uoHHYU/Ffji6gcdhT8V+OLqBx2FPxX44uoHHYU/Ffji6gcdhT8V+OLqBx2FPxX44uoHHYU/Ffji6gcdhT8V+OLqBx2FPxX44uoHHYU/Ffji6gcdhT8V+OLqBx2FPxX44uoHHYU/Ffji6gcdhT8V+OLqBx2FPxX44uoHHYU/Ffji6gcdhT8V+OLqBx2FPxX44uoHHYU/Ffji6gcdhT8V+OLqBx2FPxX44uoHHYU/Ffji6gcdhT8V+OLqBx2FPxX44uoHHYU/Ffji6gcdhT8V+OLqBx2FPxX44uoHHYU/Ffji6gcdhT8V+OLqBx2FPxX44uoHHYU/Ffji6gcdhT8V+OLqBx2FPxX44uoHHYU/Ffji6gcdhT8V+OLqBx2FPxX44uoHHYU/Ffji6gcdhT8V+OLqBx2FPxX44uoHHYU/Ffji6gcdhT8V+OLqBx2FPw==",
                "bandwidth": 0.062389558565444946
            },
            "theta_weights": "k05VTVBZAQB2AHsnZGVzY3InOiAnPGY4JywgJ2ZvcnRyYW5fb3JkZXInOiBGYWxzZSwgJ3NoYXBlJzogKDIwMCwpLCB9ICAgICAgICAgICAgICAgICAgICAgICAgICAgICAgICAgICAgICAgICAgICAgICAgICAgICAgICAgIAp7FK5H4Xp0P3sUrkfhenQ/exSuR+F6dD97FK5H4Xp0P3sUrkfhenQ/exSuR+F6dD97FK5H4Xp0P3sUrkfhenQ/exSuR+F6dD97FK5H4Xp0P3sUrkfhenQ/exSuR+F6dD97FK5H4Xp0P3sUrkfhenQ/exSuR+F6dD97FK5H4Xp0P3sUrkfhenQ/exSuR+F6dD97FK5H4Xp0P3sUrkfhenQ/exSuR+F6dD97FK5H4Xp0P3sUrkfhenQ/exSuR+F6dD97FK5H4Xp0P3sUrkfhenQ/exSuR+F6dD97FK5H4Xp0P3sUrkfhenQ/exSuR+F6dD97FK5H4Xp0P3sUrkfhenQ/exSuR+F6dD97FK5H4Xp0P3sUrkfhenQ/exSuR+F6dD97FK5H4Xp0P3sUrkfhenQ/exSuR+F6dD97FK5H4Xp0P3sUrkfhenQ/exSuR+F6dD97FK5H4Xp0P3sUrkfhenQ/exSuR+F6dD97FK5H4Xp0P3sUrkfhenQ/exSuR+F6dD97FK5H4Xp0P3sUrkfhenQ/exSuR+F6dD97FK5H4Xp0P3sUrkfhenQ/exSuR+F6dD97FK5H4Xp0P3sUrkfhenQ/exSuR+F6dD97FK5H4Xp0P3sUrkfhenQ/exSuR+F6dD97FK5H4Xp0P3sUrkfhenQ/exSuR+F6dD97FK5H4Xp0P3sUrkfhenQ/exSuR+F6dD97FK5H4Xp0P3sUrkfhenQ/exSuR+F6dD97FK5H4Xp0P3sUrkfhenQ/exSuR+F6dD97FK5H4Xp0P3sUrkfhenQ/exSuR+F6dD97FK5H4Xp0P3sUrkfhenQ/exSuR+F6dD97FK5H4Xp0P3sUrkfhenQ/exSuR+F6dD97FK5H4Xp0P3sUrkfhenQ/exSuR+F6dD97FK5H4Xp0P3sUrkfhenQ/exSuR+F6dD97FK5H4Xp0P3sUrkfhenQ/exSuR+F6dD97FK5H4Xp0P3sUrkfhenQ/exSuR+F6dD97FK5H4Xp0P3sUrkfhenQ/exSuR+F6dD97FK5H4Xp0P3sUrkfhenQ/exSuR+F6dD97FK5H4Xp0P3sUrkfhenQ/exSuR+F6dD97FK5H4Xp0P3sUrkfhenQ/exSuR+F6dD97FK5H4Xp0P3sUrkfhenQ/exSuR+F6dD97FK5H4Xp0P3sUrkfhenQ/exSuR+F6dD97FK5H4Xp0P3sUrkfhenQ/exSuR+F6dD97FK5H4Xp0P3sUrkfhenQ/exSuR+F6dD97FK5H4Xp0P3sUrkfhenQ/exSuR+F6dD97FK5H4Xp0P3sUrkfhenQ/exSuR+F6dD97FK5H4Xp0P3sUrkfhenQ/exSuR+F6dD97FK5H4Xp0P3sUrkfhenQ/exSuR+F6dD97FK5H4Xp0P3sUrkfhenQ/exSuR+F6dD97FK5H4Xp0P3sUrkfhenQ/exSuR+F6dD97FK5H4Xp0P3sUrkfhenQ/exSuR+F6dD97FK5H4Xp0P3sUrkfhenQ/exSuR+F6dD97FK5H4Xp0P3sUrkfhenQ/exSuR+F6dD97FK5H4Xp0P3sUrkfhenQ/exSuR+F6dD97FK5H4Xp0P3sUrkfhenQ/exSuR+F6dD97FK5H4Xp0P3sUrkfhenQ/exSuR+F6dD97FK5H4Xp0P3sUrkfhenQ/exSuR+F6dD97FK5H4Xp0P3sUrkfhenQ/exSuR+F6dD97FK5H4Xp0P3sUrkfhenQ/exSuR+F6dD97FK5H4Xp0P3sUrkfhenQ/exSuR+F6dD97FK5H4Xp0P3sUrkfhenQ/exSuR+F6dD97FK5H4Xp0P3sUrkfhenQ/exSuR+F6dD97FK5H4Xp0P3sUrkfhenQ/exSuR+F6dD97FK5H4Xp0P3sUrkfhenQ/exSuR+F6dD97FK5H4Xp0P3sUrkfhenQ/exSuR+F6dD97FK5H4Xp0P3sUrkfhenQ/exSuR+F6dD97FK5H4Xp0P3sUrkfhenQ/exSuR+F6dD97FK5H4Xp0P3sUrkfhenQ/exSuR+F6dD97FK5H4Xp0P3sUrkfhenQ/exSuR+F6dD97FK5H4Xp0P3sUrkfhenQ/exSuR+F6dD97FK5H4Xp0P3sUrkfhenQ/exSuR+F6dD97FK5H4Xp0P3sUrkfhenQ/",
            "phi_kde": {
                "data": "k05VTVBZAQB2AHsnZGVzY3InOiAnPGY4JywgJ2ZvcnRyYW5fb3JkZXInOiBGYWxzZSwgJ3NoYXBlJzogKDEwMywpLCB9ICAgICAgICAgICAgICAgICAgICAgICAgICAgICAgICAgICAgICAgICAgICAgICAgICAgICAgICAgIAq+rsyHS6XXP1FuTeXq69g/Pc7UI+jj5T+xTcGz++HfP6SJ1b/yauM/5Q5xs/yD6T/iCa8waX7cP6TCb2gDpt8/qlO5upF84z/DQ8TA9J/mP2VGe09dku0/zHOWoWUP4T/vubrico7hP6R1Cw12g9c/ImxWIGxO5T9ujWUvgoXgPzf5o+vsSN4/WvGlVZAR2T9IaZjT6gvgPwl4BWCQJOA/xWNZfBjM3T/z421A/iDZPzp1AvlssuA/d+JGSal72D/n4+MpKWfZP9FL1rac8d0/HLoiHPTm2T+fTE6/+kDkPzUVBkdXGN8/vN6BUW6I2z9DC0zb51zoPw8uGiTS8Oc/M59dsDXD4D/YdCP6/lPoP93xxy58sdc/mo0lmhIw3D+Dpiehlc7jP7VH79d5Q9w/d0g+tY0G5D8l5xKYZPHhP+d9Ijhkl9g/V0ctaY5Y5j/bCbx7q9bcP+vQ4ikVv+E/DwD/eNtF4z8mfIeomOnjP6Z8nOnk3Nc/tcMn/OrD3z+NeFWMUArnPz92YQIC9ug/O26BjiTQ4T9W5TuU6DHcP74yegqdyNk/gmbkVqfa4j9bzAYGilDhP58QRk6gBOM/mhoX/k9I5D84kxQaKtDWP5C+5p1vCOY/DE0/YW6T5D/qm9L8K4TiP0q1xGIypN4/D/JK1QvJ2T/Fe+nSYvviPwVCax884OY/sDFuIula4z+yOWogPdToP1dSDAzSqOA/bFwswPlk3D8VYsuM3a7ZP2aRiCwmC9c/T3V2G9nZ3j9Vx1hpNiTlPy2AVt9wZtg/lh0mgu3b2j9uSJjHU47kP6D/qZkppuQ/yr2CA/bV5T/EUAjEQgbqP8yChFxg4OM/kLE/zm068j9YTaDBwzriP1ajpOCQiNo/t1rGMUBx2z8xstGKcyHiP6xiAn1NAeg/wXFPhBZt4T9cgKJNvCbgP7Qfk4DPuOA/H889LSgY4T9+7MbbQNndP3AUuwr1GNk/nCip7LRM5D9MMsmnHGndPxALDyl7UeQ/5g1dii441z9XlIbsfYfZPz3EsPjWed0/9XjJwqg13z/epXDuPe7nPyJXy3Gf9dw/P7egoeND6D9oSJ/jaEXlPw==",
                "weights": "k05VTVBZAQB2AHsnZGVzY3InOiAnPGY4JywgJ2ZvcnRyYW5fb3JkZXInOiBGYWxzZSwgJ3NoYXBlJzogKDEwMywpLCB9ICAgICAgICAgICAgICAgICAgICAgICAgICAgICAgICAgICAgICAgICAgICAgICAgICAgICAgICAgIAoCqeS8LOKDPwKp5Lws4oM/AqnkvCzigz8CqeS8LOKDPwKp5Lws4oM/AqnkvCzigz8CqeS8LOKDPwKp5Lws4oM/AqnkvCzigz8CqeS8LOKDPwKp5Lws4oM/AqnkvCzigz8CqeS8LOKDPwKp5Lws4oM/AqnkvCzigz8CqeS8LOKDPwKp5Lws4oM/AqnkvCzigz8CqeS8LOKDPwKp5Lws4oM/AqnkvCzigz8CqeS8LOKDPwKp5Lws4oM/AqnkvCzigz8CqeS8LOKDPwKp5Lws4oM/AqnkvCzigz8CqeS8LOKDPwKp5Lws4oM/AqnkvCzigz8CqeS8LOKDPwKp5Lws4oM/AqnkvCzigz8CqeS8LOKDPwKp5Lws4oM/AqnkvCzigz8CqeS8LOKDPwKp5Lws4oM/AqnkvCzigz8CqeS8LOKDPwKp5Lws4oM/AqnkvCzigz8CqeS8LOKDPwKp5Lws4oM/AqnkvCzigz8CqeS8LOKDPwKp5Lws4oM/AqnkvCzigz8CqeS8LOKDPwKp5Lws4oM/AqnkvCzigz8CqeS8LOKDPwKp5Lws4oM/AqnkvCzigz8CqeS8LOKDPwKp5Lws4oM/AqnkvCzigz8CqeS8LOKDPwKp5Lws4oM/AqnkvCzigz8CqeS8LOKDPwKp5Lws4oM/AqnkvCzigz8CqeS8LOKDPwKp5Lws4oM/AqnkvCzigz8CqeS8LOKDPwKp5Lws4oM/AqnkvCzigz8CqeS8LOKDPwKp5Lws4oM/AqnkvCzigz8CqeS8LOKDPwKp5Lws4oM/AqnkvCzigz8CqeS8LOKDPwKp5Lws4oM/AqnkvCzigz8CqeS8LOKDPwKp5Lws4oM/AqnkvCzigz8CqeS8LOKDPwKp5Lws4oM/AqnkvCzigz8CqeS8LOKDPwKp5Lws4oM/AqnkvCzigz8CqeS8LOKDPwKp5Lws4oM/AqnkvCzigz8CqeS8LOKDPwKp5Lws4oM/AqnkvCzigz8CqeS8LOKDPwKp5Lws4oM/AqnkvCzigz8CqeS8LOKDPwKp5Lws4oM/AqnkvCzigz8CqeS8LOKDPwKp5Lws4oM/AqnkvCzigz8CqeS8LOKDPw==",
                "bandwidth": 0.05901348894312536
            },
            "phi_weights": "k05VTVBZAQB2AHsnZGVzY3InOiAnPGY4JywgJ2ZvcnRyYW5fb3JkZXInOiBGYWxzZSwgJ3NoYXBlJzogKDIwMCwpLCB9ICAgICAgICAgICAgICAgICAgICAgICAgICAgICAgICAgICAgICAgICAgICAgICAgICAgICAgICAgIAp7FK5H4Xp0P3sUrkfhenQ/exSuR+F6dD97FK5H4Xp0P3sUrkfhenQ/exSuR+F6dD97FK5H4Xp0P3sUrkfhenQ/exSuR+F6dD97FK5H4Xp0P3sUrkfhenQ/exSuR+F6dD97FK5H4Xp0P3sUrkfhenQ/exSuR+F6dD97FK5H4Xp0P3sUrkfhenQ/exSuR+F6dD97FK5H4Xp0P3sUrkfhenQ/exSuR+F6dD97FK5H4Xp0P3sUrkfhenQ/exSuR+F6dD97FK5H4Xp0P3sUrkfhenQ/exSuR+F6dD97FK5H4Xp0P3sUrkfhenQ/exSuR+F6dD97FK5H4Xp0P3sUrkfhenQ/exSuR+F6dD97FK5H4Xp0P3sUrkfhenQ/exSuR+F6dD97FK5H4Xp0P3sUrkfhenQ/exSuR+F6dD97FK5H4Xp0P3sUrkfhenQ/exSuR+F6dD97FK5H4Xp0P3sUrkfhenQ/exSuR+F6dD97FK5H4Xp0P3sUrkfhenQ/exSuR+F6dD97FK5H4Xp0P3sUrkfhenQ/exSuR+F6dD97FK5H4Xp0P3sUrkfhenQ/exSuR+F6dD97FK5H4Xp0P3sUrkfhenQ/exSuR+F6dD97FK5H4Xp0P3sUrkfhenQ/exSuR+F6dD97FK5H4Xp0P3sUrkfhenQ/exSuR+F6dD97FK5H4Xp0P3sUrkfhenQ/exSuR+F6dD97FK5H4Xp0P3sUrkfhenQ/exSuR+F6dD97FK5H4Xp0P3sUrkfhenQ/exSuR+F6dD97FK5H4Xp0P3sUrkfhenQ/exSuR+F6dD97FK5H4Xp0P3sUrkfhenQ/exSuR+F6dD97FK5H4Xp0P3sUrkfhenQ/exSuR+F6dD97FK5H4Xp0P3sUrkfhenQ/exSuR+F6dD97FK5H4Xp0P3sUrkfhenQ/exSuR+F6dD97FK5H4Xp0P3sUrkfhenQ/exSuR+F6dD97FK5H4Xp0P3sUrkfhenQ/exSuR+F6dD97FK5H4Xp0P3sUrkfhenQ/exSuR+F6dD97FK5H4Xp0P3sUrkfhenQ/exSuR+F6dD97FK5H4Xp0P3sUrkfhenQ/exSuR+F6dD97FK5H4Xp0P3sUrkfhenQ/exSuR+F6dD97FK5H4Xp0P3sUrkfhenQ/exSuR+F6dD97FK5H4Xp0P3sUrkfhenQ/exSuR+F6dD97FK5H4Xp0P3sUrkfhenQ/exSuR+F6dD97FK5H4Xp0P3sUrkfhenQ/exSuR+F6dD97FK5H4Xp0P3sUrkfhenQ/exSuR+F6dD97FK5H4Xp0P3sUrkfhenQ/exSuR+F6dD97FK5H4Xp0P3sUrkfhenQ/exSuR+F6dD97FK5H4Xp0P3sUrkfhenQ/exSuR+F6dD97FK5H4Xp0P3sUrkfhenQ/exSuR+F6dD97FK5H4Xp0P3sUrkfhenQ/exSuR+F6dD97FK5H4Xp0P3sUrkfhenQ/exSuR+F6dD97FK5H4Xp0P3sUrkfhenQ/exSuR+F6dD97FK5H4Xp0P3sUrkfhenQ/exSuR+F6dD97FK5H4Xp0P3sUrkfhenQ/exSuR+F6dD97FK5H4Xp0P3sUrkfhenQ/exSuR+F6dD97FK5H4Xp0P3sUrkfhenQ/exSuR+F6dD97FK5H4Xp0P3sUrkfhenQ/exSuR+F6dD97FK5H4Xp0P3sUrkfhenQ/exSuR+F6dD97FK5H4Xp0P3sUrkfhenQ/exSuR+F6dD97FK5H4Xp0P3sUrkfhenQ/exSuR+F6dD97FK5H4Xp0P3sUrkfhenQ/exSuR+F6dD97FK5H4Xp0P3sUrkfhenQ/exSuR+F6dD97FK5H4Xp0P3sUrkfhenQ/exSuR+F6dD97FK5H4Xp0P3sUrkfhenQ/exSuR+F6dD97FK5H4Xp0P3sUrkfhenQ/exSuR+F6dD97FK5H4Xp0P3sUrkfhenQ/exSuR+F6dD97FK5H4Xp0P3sUrkfhenQ/exSuR+F6dD97FK5H4Xp0P3sUrkfhenQ/exSuR+F6dD97FK5H4Xp0P3sUrkfhenQ/exSuR+F6dD97FK5H4Xp0P3sUrkfhenQ/exSuR+F6dD97FK5H4Xp0P3sUrkfhenQ/exSuR+F6dD97FK5H4Xp0P3sUrkfhenQ/"
        },
        "MMSE": {
            "theta_kde": {
                "data": "k05VTVBZAQB2AHsnZGVzY3InOiAnPGY4JywgJ2ZvcnRyYW5fb3JkZXInOiBGYWxzZSwgJ3NoYXBlJzogKDgzLCksIH0gICAgICAgICAgICAgICAgICAgICAgICAgICAgICAgICAgICAgICAgICAgICAgICAgICAgICAgICAgIAq6fpYK2302QH9udmGbRTVAMGE4YiQLNkDPT9U8ZBQ1QFxVrnhRqjZAJqSaWH+rNUAzNa0tVPo4QEefkWm+JzdAGfgytFClNUB8NIhlGnk2QEDZ9WXftzVAtE/TCu01NUDtQ/0TEyw2QAx2zcPxDDdA5rQ6YjxhN0CW7iHRVj83QLBoGJrCvzVAb1GzqQLoNUBA18ZtY6I1QJ2rSBnrGzhAJA+CK184N0Cqwgej7YM1QHckoXcGbzhALg6aSUvbN0DPX4vJbq01QF6JHzfzxDVAwLKLbNLJOEBmewEEOO44QApTCGFVDDVAwtthxqSfNUBDOw4MOjs2QC3qQs6ScjZA6YtOleoKNkD5pGnuW6E1QGLYNAviHDdAijQwr+3KNUC+gQnKwvg1QPTXUHFATjdAYd0jsh8VN0C2slDKiVQ1QKQxFvjw8jZAPOJrJN65NECl67ysPiU2QFOcIpbMizhAMnRJBg6wOECJbEHbYZw1QLpnaq1JwzZAoGTz79MZN0BqvQ7xoBg2QGqYo96GODVAI1IycpetNkB0E8WVPZo2QMyC8zJhCTlAmuEiSEO3NkBPpZu3SGA1QE3kVusPrDVAbrhFWvLbNUDLh1iBZoc1QCqMTGCtyTVAS9CRtJ9kOEAyma/Lwfw4QCAHqA9P+TZAerFmhGZJNUDz2BP+J3g2QHgp5ScFEDZA3/33Su6BNkBoulNRdW82QL9bp2SXxjVAbscdF2JIOEA9k0KkJGc4QNghtt4BhjZA6/2ZH0GYNkBEKEdBbN83QJIagCmDNDVAjsBLVRgvN0A6xU0xG6M1QEjX03n1rTVAFSXWHJilNkC4aCR1KNY1QLaGrvPejjVAWBX9UfpMOEBw/k4t7hA2QAwg7NqzNTlA",
                "weights": "k05VTVBZAQB2AHsnZGVzY3InOiAnPGY4JywgJ2ZvcnRyYW5fb3JkZXInOiBGYWxzZSwgJ3NoYXBlJzogKDgzLCksIH0gICAgICAgICAgICAgICAgICAgICAgICAgICAgICAgICAgICAgICAgICAgICAgICAgICAgICAgICAgIAqq82sPuayIP6rzaw+5rIg/qvNrD7msiD+q82sPuayIP6rzaw+5rIg/qvNrD7msiD+q82sPuayIP6rzaw+5rIg/qvNrD7msiD+q82sPuayIP6rzaw+5rIg/qvNrD7msiD+q82sPuayIP6rzaw+5rIg/qvNrD7msiD+q82sPuayIP6rzaw+5rIg/qvNrD7msiD+q82sPuayIP6rzaw+5rIg/qvNrD7msiD+q82sPuayIP6rzaw+5rIg/qvNrD7msiD+q82sPuayIP6rzaw+5rIg/qvNrD7msiD+q82sPuayIP6rzaw+5rIg/qvNrD7msiD+q82sPuayIP6rzaw+5rIg/qvNrD7msiD+q82sPuayIP6rzaw+5rIg/qvNrD7msiD+q82sPuayIP6rzaw+5rIg/qvNrD7msiD+q82sPuayIP6rzaw+5rIg/qvNrD7msiD+q82sPuayIP6rzaw+5rIg/qvNrD7msiD+q82sPuayIP6rzaw+5rIg/qvNrD7msiD+q82sPuayIP6rzaw+5rIg/qvNrD7msiD+q82sPuayIP6rzaw+5rIg/qvNrD7msiD+q82sPuayIP6rzaw+5rIg/qvNrD7msiD+q82sPuayIP6rzaw+5rIg/qvNrD7msiD+q82sPuayIP6rzaw+5rIg/qvNrD7msiD+q82sPuayIP6rzaw+5rIg/qvNrD7msiD+q82sPuayIP6rzaw+5rIg/qvNrD7msiD+q82sPuayIP6rzaw+5rIg/qvNrD7msiD+q82sPuayIP6rzaw+5rIg/qvNrD7msiD+q82sPuayIP6rzaw+5rIg/qvNrD7msiD+q82sPuayIP6rzaw+5rIg/qvNrD7msiD+q82sPuayIP6rzaw+5rIg/",
                "bandwidth": 0.5007917689180342
            },
            "theta_weights": "k05VTVBZAQB2AHsnZGVzY3InOiAnPGY4JywgJ2ZvcnRyYW5fb3JkZXInOiBGYWxzZSwgJ3NoYXBlJzogKDIwMCwpLCB9ICAgICAgICAgICAgICAgICAgICAgICAgICAgICAgICAgICAgICAgICAgICAgICAgICAgICAgICAgIAp7FK5H4Xp0P3sUrkfhenQ/exSuR+F6dD97FK5H4Xp0P3sUrkfhenQ/exSuR+F6dD97FK5H4Xp0P3sUrkfhenQ/exSuR+F6dD97FK5H4Xp0P3sUrkfhenQ/exSuR+F6dD97FK5H4Xp0P3sUrkfhenQ/exSuR+F6dD97FK5H4Xp0P3sUrkfhenQ/exSuR+F6dD97FK5H4Xp0P3sUrkfhenQ/exSuR+F6dD97FK5H4Xp0P3sUrkfhenQ/exSuR+F6dD97FK5H4Xp0P3sUrkfhenQ/exSuR+F6dD97FK5H4Xp0P3sUrkfhenQ/exSuR+F6dD97FK5H4Xp0P3sUrkfhenQ/exSuR+F6dD97FK5H4Xp0P3sUrkfhenQ/exSuR+F6dD97FK5H4Xp0P3sUrkfhenQ/exSuR+F6dD97FK5H4Xp0P3sUrkfhenQ/exSuR+F6dD97FK5H4Xp0P3sUrkfhenQ/exSuR+F6dD97FK5H4Xp0P3sUrkfhenQ/exSuR+F6dD97FK5H4Xp0P3sUrkfhenQ/exSuR+F6dD97FK5H4Xp0P3sUrkfhenQ/exSuR+F6dD97FK5H4Xp0P3sUrkfhenQ/exSuR+F6dD97FK5H4Xp0P3sUrkfhenQ/exSuR+F6dD97FK5H4Xp0P3sUrkfhenQ/exSuR+F6dD97FK5H4Xp0P3sUrkfhenQ/exSuR+F6dD97FK5H4Xp0P3sUrkfhenQ/exSuR+F6dD97FK5H4Xp0P3sUrkfhenQ/exSuR+F6dD97FK5H4Xp0P3sUrkfhenQ/exSuR+F6dD97FK5H4Xp0P3sUrkfhenQ/exSuR+F6dD97FK5H4Xp0P3sUrkfhenQ/exSuR+F6dD97FK5H4Xp0P3sUrkfhenQ/exSuR+F6dD97FK5H4Xp0P3sUrkfhenQ/exSuR+F6dD97FK5H4Xp0P3sUrkfhenQ/exSuR+F6dD97FK5H4Xp0P3sUrkfhenQ/exSuR+F6dD97FK5H4Xp0P3sUrkfhenQ/exSuR+F6dD97FK5H4Xp0P3sUrkfhenQ/exSuR+F6dD97FK5H4Xp0P3sUrkfhenQ/exSuR+F6dD97FK5H4Xp0P3sUrkfhenQ/exSuR+F6dD97FK5H4Xp0P3sUrkfhenQ/exSuR+F6dD97FK5H4Xp0P3sUrkfhenQ/exSuR+F6dD97FK5H4Xp0P3sUrkfhenQ/exSuR+F6dD97FK5H4Xp0P3sUrkfhenQ/exSuR+F6dD97FK5H4Xp0P3sUrkfhenQ/exSuR+F6dD97FK5H4Xp0P3sUrkfhenQ/exSuR+F6dD97FK5H4Xp0P3sUrkfhenQ/exSuR+F6dD97FK5H4Xp0P3sUrkfhenQ/exSuR+F6dD97FK5H4Xp0P3sUrkfhenQ/exSuR+F6dD97FK5H4Xp0P3sUrkfhenQ/exSuR+F6dD97FK5H4Xp0P3sUrkfhenQ/exSuR+F6dD97FK5H4Xp0P3sUrkfhenQ/exSuR+F6dD97FK5H4Xp0P3sUrkfhenQ/exSuR+F6dD97FK5H4Xp0P3sUrkfhenQ/exSuR+F6dD97FK5H4Xp0P3sUrkfhenQ/exSuR+F6dD97FK5H4Xp0P3sUrkfhenQ/exSuR+F6dD97FK5H4Xp0P3sUrkfhenQ/exSuR+F6dD97FK5H4Xp0P3sUrkfhenQ/exSuR+F6dD97FK5H4Xp0P3sUrkfhenQ/exSuR+F6dD97FK5H4Xp0P3sUrkfhenQ/exSuR+F6dD97FK5H4Xp0P3sUrkfhenQ/exSuR+F6dD97FK5H4Xp0P3sUrkfhenQ/exSuR+F6dD97FK5H4Xp0P3sUrkfhenQ/exSuR+F6dD97FK5H4Xp0P3sUrkfhenQ/exSuR+F6dD97FK5H4Xp0P3sUrkfhenQ/exSuR+F6dD97FK5H4Xp0P3sUrkfhenQ/exSuR+F6dD97FK5H4Xp0P3sUrkfhenQ/exSuR+F6dD97FK5H4Xp0P3sUrkfhenQ/exSuR+F6dD97FK5H4Xp0P3sUrkfhenQ/exSuR+F6dD97FK5H4Xp0P3sUrkfhenQ/exSuR+F6dD97FK5H4Xp0P3sUrkfhenQ/exSuR+F6dD97FK5H4Xp0P3sUrkfhenQ/",
            "phi_kde": {
                "data": "k05VTVBZAQB2AHsnZGVzY3InOiAnPGY4JywgJ2ZvcnRyYW5fb3JkZXInOiBGYWxzZSwgJ3NoYXBlJzogKDExNywpLCB9ICAgICAgICAgICAgICAgICAgICAgICAgICAgICAgICAgICAgICAgICAgICAgICAgICAgICAgICAgIApUXDzQP107QNg3A3e6ojtA7XmjzWYPPEDUvkZzDJ07QNxlA/aONzxASQ7TiIrwOkA8mDmpWWY7QKZWwJs09DtAqzSqEFSWPEDIej/GWHU6QJR3YDZnVzxAdM0MlE1KPEAkzmK2LhM8QCjFM8/y2zpAurIZztNzPEDUfDIe3Vg8QJyUdKC0VTxA5GKFq6obPEBzp6miB+A8QNU6pxxPuDtAhpIuuUO1PEBjUcZFvRE8QL9QfGmYNzxAv4M7hiAVO0CLTcqAbbk7QIXgxqm65jpATb41d/djO0CSzry8ZPE8QDGvPZqbDjxAFFAkpnXNOkAdw/Y5x4I7QHG46ihslDtAmfhofHBpOUBNxT0LO8o6QG8jniLNmjpA+N/QeV9gPEAiUd0zB4Q7QCNLI2nyTTtA4fbIFj55PED6dP+oreI7QP+aQjDp4DtAcfiw9cL/O0CwNVkLwDE7QBrTjHHkPjxAfOPLErqYOUAHHulTuso8QHtf9euUxzxAYaDGOUYIO0DIxo2oR4w7QK2rv1pwoDxAaoVVM1snPEAG4HQ6hjU7QE2OB4JleztAt4CqkwffO0DtQ6m1BC48QMokGIXdIDxAF7wjnRWGPEB3gkAqmLk8QGQGn8ZRPTpAdlTDHO3EO0CUg0laFpI8QKo/FZZurDpAikGuyglHPEBK4au5bhs7QAul9dT3BT1AMxermbJlO0A/ckCDfhI9QCWpe01zEDtAGIUk/R+IO0DIPCPsQWQ7QNvE12EheT1ArhbEeHViPED7BSJU1Cg8QEjondh0NTtA7IM9gIDuOUDc8rncOSo8QOKcBZ7tAzxA6EBDUShoPEC4H9sHcgw8QO/BgLoASD1Aj1mrJCmyO0D3TlzCbqE7QIviXbtxbjtAbL8reEMrPEAEfyD4ngo9QCWYZmcRLjxA+r4T8PpQPEDjGpXkuMU7QMvWrp4vmTtAmgTOiGweO0C7OIMwBpc7QM73HnSx7TtA6BbiSDBIPUD1AsZoaks8QK49dIwevzxA/ILreLbQO0B5GHmynn88QCGPkYNX6TtA7R/BwyOpOUAP36Bqa/s7QOjzKUuRqjxAOAP1UwROPUAQ9MARgOI7QPYbV3m5vzxA9keyrrP2PEADZ4RFCFQ5QE+GH6FmvTpAQiQr+KNRPEBEAbCM7Uc9QD4LVrPuJjxA/TMw1FxtO0ANagvYz5U8QOHLESzz0ztAgAl77UulOkBFhS6vDJ07QAU3DICsqDxAklkK9KP6O0A=",
                "weights": "k05VTVBZAQB2AHsnZGVzY3InOiAnPGY4JywgJ2ZvcnRyYW5fb3JkZXInOiBGYWxzZSwgJ3NoYXBlJzogKDExNywpLCB9ICAgICAgICAgICAgICAgICAgICAgICAgICAgICAgICAgICAgICAgICAgICAgICAgICAgICAgICAgIAoSGIERGIGBPxIYgREYgYE/EhiBERiBgT8SGIERGIGBPxIYgREYgYE/EhiBERiBgT8SGIERGIGBPxIYgREYgYE/EhiBERiBgT8SGIERGIGBPxIYgREYgYE/EhiBERiBgT8SGIERGIGBPxIYgREYgYE/EhiBERiBgT8SGIERGIGBPxIYgREYgYE/EhiBERiBgT8SGIERGIGBPxIYgREYgYE/EhiBERiBgT8SGIERGIGBPxIYgREYgYE/EhiBERiBgT8SGIERGIGBPxIYgREYgYE/EhiBERiBgT8SGIERGIGBPxIYgREYgYE/EhiBERiBgT8SGIERGIGBPxIYgREYgYE/EhiBERiBgT8SGIERGIGBPxIYgREYgYE/EhiBERiBgT8SGIERGIGBPxIYgREYgYE/EhiBERiBgT8SGIERGIGBPxIYgREYgYE/EhiBERiBgT8SGIERGIGBPxIYgREYgYE/EhiBERiBgT8SGIERGIGBPxIYgREYgYE/EhiBERiBgT8SGIERGIGBPxIYgREYgYE/EhiBERiBgT8SGIERGIGBPxIYgREYgYE/EhiBERiBgT8SGIERGIGBPxIYgREYgYE/EhiBERiBgT8SGIERGIGBPxIYgREYgYE/EhiBERiBgT8SGIERGIGBPxIYgREYgYE/EhiBERiBgT8SGIERGIGBPxIYgREYgYE/EhiBERiBgT8SGIERGIGBPxIYgREYgYE/EhiBERiBgT8SGIERGIGBPxIYgREYgYE/EhiBERiBgT8SGIERGIGBPxIYgREYgYE/EhiBERiBgT8SGIERGIGBPxIYgREYgYE/EhiBERiBgT8SGIERGIGBPxIYgREYgYE/EhiBERiBgT8SGIERGIGBPxIYgREYgYE/EhiBERiBgT8SGIERGIGBPxIYgREYgYE/EhiBERiBgT8SGIERGIGBPxIYgREYgYE/EhiBERiBgT8SGIERGIGBPxIYgREYgYE/EhiBERiBgT8SGIERGIGBPxIYgREYgYE/EhiBERiBgT8SGIERGIGBPxIYgREYgYE/EhiBERiBgT8SGIERGIGBPxIYgREYgYE/EhiBERiBgT8SGIERGIGBPxIYgREYgYE/EhiBERiBgT8SGIERGIGBPxIYgREYgYE/EhiBERiBgT8SGIERGIGBPxIYgREYgYE/EhiBERiBgT8SGIERGIGBPxIYgREYgYE/EhiBERiBgT8SGIERGIGBPxIYgREYgYE/EhiBERiBgT8=",
                "bandwidth": 0.33959383662918363
            },
            "phi_weights": "k05VTVBZAQB2AHsnZGVzY3InOiAnPGY4JywgJ2ZvcnRyYW5fb3JkZXInOiBGYWxzZSwgJ3NoYXBlJzogKDIwMCwpLCB9ICAgICAgICAgICAgICAgICAgICAgICAgICAgICAgICAgICAgICAgICAgICAgICAgICAgICAgICAgIAp7FK5H4Xp0P3sUrkfhenQ/exSuR+F6dD97FK5H4Xp0P3sUrkfhenQ/exSuR+F6dD97FK5H4Xp0P3sUrkfhenQ/exSuR+F6dD97FK5H4Xp0P3sUrkfhenQ/exSuR+F6dD97FK5H4Xp0P3sUrkfhenQ/exSuR+F6dD97FK5H4Xp0P3sUrkfhenQ/exSuR+F6dD97FK5H4Xp0P3sUrkfhenQ/exSuR+F6dD97FK5H4Xp0P3sUrkfhenQ/exSuR+F6dD97FK5H4Xp0P3sUrkfhenQ/exSuR+F6dD97FK5H4Xp0P3sUrkfhenQ/exSuR+F6dD97FK5H4Xp0P3sUrkfhenQ/exSuR+F6dD97FK5H4Xp0P3sUrkfhenQ/exSuR+F6dD97FK5H4Xp0P3sUrkfhenQ/exSuR+F6dD97FK5H4Xp0P3sUrkfhenQ/exSuR+F6dD97FK5H4Xp0P3sUrkfhenQ/exSuR+F6dD97FK5H4Xp0P3sUrkfhenQ/exSuR+F6dD97FK5H4Xp0P3sUrkfhenQ/exSuR+F6dD97FK5H4Xp0P3sUrkfhenQ/exSuR+F6dD97FK5H4Xp0P3sUrkfhenQ/exSuR+F6dD97FK5H4Xp0P3sUrkfhenQ/exSuR+F6dD97FK5H4Xp0P3sUrkfhenQ/exSuR+F6dD97FK5H4Xp0P3sUrkfhenQ/exSuR+F6dD97FK5H4Xp0P3sUrkfhenQ/exSuR+F6dD97FK5H4Xp0P3sUrkfhenQ/exSuR+F6dD97FK5H4Xp0P3sUrkfhenQ/exSuR+F6dD97FK5H4Xp0P3sUrkfhenQ/exSuR+F6dD97FK5H4Xp0P3sUrkfhenQ/exSuR+F6dD97FK5H4Xp0P3sUrkfhenQ/exSuR+F6dD97FK5H4Xp0P3sUrkfhenQ/exSuR+F6dD97FK5H4Xp0P3sUrkfhenQ/exSuR+F6dD97FK5H4Xp0P3sUrkfhenQ/exSuR+F6dD97FK5H4Xp0P3sUrkfhenQ/exSuR+F6dD97FK5H4Xp0P3sUrkfhenQ/exSuR+F6dD97FK5H4Xp0P3sUrkfhenQ/exSuR+F6dD97FK5H4Xp0P3sUrkfhenQ/exSuR+F6dD97FK5H4Xp0P3sUrkfhenQ/exSuR+F6dD97FK5H4Xp0P3sUrkfhenQ/exSuR+F6dD97FK5H4Xp0P3sUrkfhenQ/exSuR+F6dD97FK5H4Xp0P3sUrkfhenQ/exSuR+F6dD97FK5H4Xp0P3sUrkfhenQ/exSuR+F6dD97FK5H4Xp0P3sUrkfhenQ/exSuR+F6dD97FK5H4Xp0P3sUrkfhenQ/exSuR+F6dD97FK5H4Xp0P3sUrkfhenQ/exSuR+F6dD97FK5H4Xp0P3sUrkfhenQ/exSuR+F6dD97FK5H4Xp0P3sUrkfhenQ/exSuR+F6dD97FK5H4Xp0P3sUrkfhenQ/exSuR+F6dD97FK5H4Xp0P3sUrkfhenQ/exSuR+F6dD97FK5H4Xp0P3sUrkfhenQ/exSuR+F6dD97FK5H4Xp0P3sUrkfhenQ/exSuR+F6dD97FK5H4Xp0P3sUrkfhenQ/exSuR+F6dD97FK5H4Xp0P3sUrkfhenQ/exSuR+F6dD97FK5H4Xp0P3sUrkfhenQ/exSuR+F6dD97FK5H4Xp0P3sUrkfhenQ/exSuR+F6dD97FK5H4Xp0P3sUrkfhenQ/exSuR+F6dD97FK5H4Xp0P3sUrkfhenQ/exSuR+F6dD97FK5H4Xp0P3sUrkfhenQ/exSuR+F6dD97FK5H4Xp0P3sUrkfhenQ/exSuR+F6dD97FK5H4Xp0P3sUrkfhenQ/exSuR+F6dD97FK5H4Xp0P3sUrkfhenQ/exSuR+F6dD97FK5H4Xp0P3sUrkfhenQ/exSuR+F6dD97FK5H4Xp0P3sUrkfhenQ/exSuR+F6dD97FK5H4Xp0P3sUrkfhenQ/exSuR+F6dD97FK5H4Xp0P3sUrkfhenQ/exSuR+F6dD97FK5H4Xp0P3sUrkfhenQ/exSuR+F6dD97FK5H4Xp0P3sUrkfhenQ/exSuR+F6dD97FK5H4Xp0P3sUrkfhenQ/exSuR+F6dD97FK5H4Xp0P3sUrkfhenQ/"
        },
        "P-Tau": {
            "theta_kde": {
                "data": "k05VTVBZAQB2AHsnZGVzY3InOiAnPGY4JywgJ2ZvcnRyYW5fb3JkZXInOiBGYWxzZSwgJ3NoYXBlJzogKDEwMSwpLCB9ICAgICAgICAgICAgICAgICAgICAgICAgICAgICAgICAgICAgICAgICAgICAgICAgICAgICAgICAgIAqJmldrlaxbwC6PFa3pUEzArM8VJjKqUMDSLZM7k6dPwK5SJZpfVETA3IbdhBYlVcB4JOoMrQxJwBzrItxtP0XAC0XbYB4hQ8CMTyqb0i5HwB4kyOQ6LEzAG52kDp3ARsCJqCQC/sVLwNq6TYtM6kbANZOT6n+QTsAzIaaJ31tEwKlgf0tgpVDAkopXJDuKS8BKVAmuZVlPwJeLfGlFHEzADEdBHMJ7UcDWbrcXjrRFwCoqiv5iA0fA0QLFKM4kScBVHK33qvhKwBG5LZKIdE3AVD6QAL+vSMAoq+0IHftEwCpP6DWG6knA/p0maujSUcC+rUBlekxEwMhPVbgRyUPAom8LA138SsB12IcJzuJQwKKzzvgrTEbAy6kSbePSR8AK+FH/QSBNwOLISH2JR07APNrPMUSJS8ANuDrpAWxGwEjZLUiA6lTAskpyiA9USsBV3XPjsyNLwCtmLHFr0lDAv8TTr/v9TMAexoDOdjtDwKi1GhiXNEjAoO7kUyZBSMDP0iGbKkdGwGyZDj88X0XA2UWHvvOzVcCc1CBePE1TwJvP9lQfCUTAmtly1Y9VTsAITzr0IE1PwHDM0IQKJkbAAOQOb9NuUMCq5LNst5xQwOQmNi7Iu1HASNcVrhfXRMDbJntZSNFGwDJZD/O1ClDALPAHvMnNQ8BOn7EaJglQwCYOT9kxP07AxZLcdRqnRMAZT2LktEhJwA7Ov7KtJU/AWKWObzJiR8A80u3xzF5QwNDr4AJ35UnAm6aHEaj9WcCSOPZiHg5EwGqeoQNtqUjA6w3Lb7rjUMBoMR7wuMdGwGN7dXilpkvAZBAVjiPIR8B9+fjgRJlIwLaoIAiByUfAx4uaw102RsA9kEWgxXhHwIMYvEn9+ErAUCmfNJonSsDLnduFKIdTwA1bpV+K6ljAa1t5WRQgTMDz6rm/xF9JwKDxOvzj/knAMttax+e/SsB+lhaPqBJQwIUXBlYwnUbA53O8IYP4TsDaGKL9HTNHwGp5lXwVrEXASVamjRFmU8CERBacOgxFwMYDYmXBFkPAXCA5o8wYSsBEc0CSRbBRwOaor5eHJUTA",
                "weights": "k05VTVBZAQB2AHsnZGVzY3InOiAnPGY4JywgJ2ZvcnRyYW5fb3JkZXInOiBGYWxzZSwgJ3NoYXBlJzogKDEwMSwpLCB9ICAgICAgICAgICAgICAgICAgICAgICAgICAgICAgICAgICAgICAgICAgICAgICAgICAgICAgICAgIAr72WJl+EaEP/vZYmX4RoQ/+9liZfhGhD/72WJl+EaEP/vZYmX4RoQ/+9liZfhGhD/72WJl+EaEP/vZYmX4RoQ/+9liZfhGhD/72WJl+EaEP/vZYmX4RoQ/+9liZfhGhD/72WJl+EaEP/vZYmX4RoQ/+9liZfhGhD/72WJl+EaEP/vZYmX4RoQ/+9liZfhGhD/72WJl+EaEP/vZYmX4RoQ/+9liZfhGhD/72WJl+EaEP/vZYmX4RoQ/+9liZfhGhD/72WJl+EaEP/vZYmX4RoQ/+9liZfhGhD/72WJl+EaEP/vZYmX4RoQ/+9liZfhGhD/72WJl+EaEP/vZYmX4RoQ/+9liZfhGhD/72WJl+EaEP/vZYmX4RoQ/+9liZfhGhD/72WJl+EaEP/vZYmX4RoQ/+9liZfhGhD/72WJl+EaEP/vZYmX4RoQ/+9liZfhGhD/72WJl+EaEP/vZYmX4RoQ/+9liZfhGhD/72WJl+EaEP/vZYmX4RoQ/+9liZfhGhD/72WJl+EaEP/vZYmX4RoQ/+9liZfhGhD/72WJl+EaEP/vZYmX4RoQ/+9liZfhGhD/72WJl+EaEP/vZYmX4RoQ/+9liZfhGhD/72WJl+EaEP/vZYmX4RoQ/+9liZfhGhD/72WJl+EaEP/vZYmX4RoQ/+9liZfhGhD/72WJl+EaEP/vZYmX4RoQ/+9liZfhGhD/72WJl+EaEP/vZYmX4RoQ/+9liZfhGhD/72WJl+EaEP/vZYmX4RoQ/+9liZfhGhD/72WJl+EaEP/vZYmX4RoQ/+9liZfhGhD/72WJl+EaEP/vZYmX4RoQ/+9liZfhGhD/72WJl+EaEP/vZYmX4RoQ/+9liZfhGhD/72WJl+EaEP/vZYmX4RoQ/+9liZfhGhD/72WJl+EaEP/vZYmX4RoQ/+9liZfhGhD/72WJl+EaEP/vZYmX4RoQ/+9liZfhGhD/72WJl+EaEP/vZYmX4RoQ/+9liZfhGhD/72WJl+EaEP/vZYmX4RoQ/+9liZfhGhD/72WJl+EaEP/vZYmX4RoQ/+9liZfhGhD/72WJl+EaEP/vZYmX4RoQ/",
                "bandwidth": 5.95301002927487
            },
            "theta_weights": "k05VTVBZAQB2AHsnZGVzY3InOiAnPGY4JywgJ2ZvcnRyYW5fb3JkZXInOiBGYWxzZSwgJ3NoYXBlJzogKDIwMCwpLCB9ICAgICAgICAgICAgICAgICAgICAgICAgICAgICAgICAgICAgICAgICAgICAgICAgICAgICAgICAgIAp7FK5H4Xp0P3sUrkfhenQ/exSuR+F6dD97FK5H4Xp0P3sUrkfhenQ/exSuR+F6dD97FK5H4Xp0P3sUrkfhenQ/exSuR+F6dD97FK5H4Xp0P3sUrkfhenQ/exSuR+F6dD97FK5H4Xp0P3sUrkfhenQ/exSuR+F6dD97FK5H4Xp0P3sUrkfhenQ/exSuR+F6dD97FK5H4Xp0P3sUrkfhenQ/exSuR+F6dD97FK5H4Xp0P3sUrkfhenQ/exSuR+F6dD97FK5H4Xp0P3sUrkfhenQ/exSuR+F6dD97FK5H4Xp0P3sUrkfhenQ/exSuR+F6dD97FK5H4Xp0P3sUrkfhenQ/exSuR+F6dD97FK5H4Xp0P3sUrkfhenQ/exSuR+F6dD97FK5H4Xp0P3sUrkfhenQ/exSuR+F6dD97FK5H4Xp0P3sUrkfhenQ/exSuR+F6dD97FK5H4Xp0P3sUrkfhenQ/exSuR+F6dD97FK5H4Xp0P3sUrkfhenQ/exSuR+F6dD97FK5H4Xp0P3sUrkfhenQ/exSuR+F6dD97FK5H4Xp0P3sUrkfhenQ/exSuR+F6dD97FK5H4Xp0P3sUrkfhenQ/exSuR+F6dD97FK5H4Xp0P3sUrkfhenQ/exSuR+F6dD97FK5H4Xp0P3sUrkfhenQ/exSuR+F6dD97FK5H4Xp0P3sUrkfhenQ/exSuR+F6dD97FK5H4Xp0P3sUrkfhenQ/exSuR+F6dD97FK5H4Xp0P3sUrkfhenQ/exSuR+F6dD97FK5H4Xp0P3sUrkfhenQ/exSuR+F6dD97FK5H4Xp0P3sUrkfhenQ/exSuR+F6dD97FK5H4Xp0P3sUrkfhenQ/exSuR+F6dD97FK5H4Xp0P3sUrkfhenQ/exSuR+F6dD97FK5H4Xp0P3sUrkfhenQ/exSuR+F6dD97FK5H4Xp0P3sUrkfhenQ/exSuR+F6dD97FK5H4Xp0P3sUrkfhenQ/exSuR+F6dD97FK5H4Xp0P3sUrkfhenQ/exSuR+F6dD97FK5H4Xp0P3sUrkfhenQ/exSuR+F6dD97FK5H4Xp0P3sUrkfhenQ/exSuR+F6dD97FK5H4Xp0P3sUrkfhenQ/exSuR+F6dD97FK5H4Xp0P3sUrkfhenQ/exSuR+F6dD97FK5H4Xp0P3sUrkfhenQ/exSuR+F6dD97FK5H4Xp0P3sUrkfhenQ/exSuR+F6dD97FK5H4Xp0P3sUrkfhenQ/exSuR+F6dD97FK5H4Xp0P3sUrkfhenQ/exSuR+F6dD97FK5H4Xp0P3sUrkfhenQ/exSuR+F6dD97FK5H4Xp0P3sUrkfhenQ/exSuR+F6dD97FK5H4Xp0P3sUrkfhenQ/exSuR+F6dD97FK5H4Xp0P3sUrkfhenQ/exSuR+F6dD97FK5H4Xp0P3sUrkfhenQ/exSuR+F6dD97FK5H4Xp0P3sUrkfhenQ/exSuR+F6dD97FK5H4Xp0P3sUrkfhenQ/exSuR+F6dD97FK5H4Xp0P3sUrkfhenQ/exSuR+F6dD97FK5H4Xp0P3sUrkfhenQ/exSuR+F6dD97FK5H4Xp0P3sUrkfhenQ/exSuR+F6dD97FK5H4Xp0P3sUrkfhenQ/exSuR+F6dD97FK5H4Xp0P3sUrkfhenQ/exSuR+F6dD97FK5H4Xp0P3sUrkfhenQ/exSuR+F6dD97FK5H4Xp0P3sUrkfhenQ/exSuR+F6dD97FK5H4Xp0P3sUrkfhenQ/exSuR+F6dD97FK5H4Xp0P3sUrkfhenQ/exSuR+F6dD97FK5H4Xp0P3sUrkfhenQ/exSuR+F6dD97FK5H4Xp0P3sUrkfhenQ/exSuR+F6dD97FK5H4Xp0P3sUrkfhenQ/exSuR+F6dD97FK5H4Xp0P3sUrkfhenQ/exSuR+F6dD97FK5H4Xp0P3sUrkfhenQ/exSuR+F6dD97FK5H4Xp0P3sUrkfhenQ/exSuR+F6dD97FK5H4Xp0P3sUrkfhenQ/exSuR+F6dD97FK5H4Xp0P3sUrkfhenQ/exSuR+F6dD97FK5H4Xp0P3sUrkfhenQ/exSuR+F6dD97FK5H4Xp0P3sUrkfhenQ/exSuR+F6dD97FK5H4Xp0P3sUrkfhenQ/",
            "phi_kde": {
                "data": "k05VTVBZAQB2AHsnZGVzY3InOiAnPGY4JywgJ2ZvcnRyYW5fb3JkZXInOiBGYWxzZSwgJ3NoYXBlJzogKDk5LCksIH0gICAgICAgICAgICAgICAgICAgICAgICAgICAgICAgICAgICAgICAgICAgICAgICAgICAgICAgICAgIArGUdJT2I8rwDUXfstQXELADWHwRkKbMcB62LFjJi5AwO7mYN0W10DAiZ0wum2RMMBuIqcCbBA2wNoCeL2ZcTTAZzoRm0dvKsCJxd/NEGU9wG28Kd658ULAbJWV06rVQcDq88dmNks1wFAB8d3yTD7AcOcUMEeqOcAVb4AJcFZAwBTTzdZhzBVA1vNH6c6VO8BgGxl1rTUzwHw6f5rp4jXA9KUzIgh2MMAGi20yzkE7wNRtcmnRtTXAdCZvVi5PNsC0jMADMQckwDxCB/+VbTnAY0Hh9vK+PcBMZ06hNec+wAwZ+vV/Z0DAj4VRhmkJNMBaor3zhlY8wGAJvI59ikHA1asL5dEFHMBJwsY17ikuwJEyxlymWvC/tVeLliaIM8D9hD/Wig4+wL6e7byt/yjAjt0cEYZxJsAs5gzhBXo/wE8ADiz1SyjA81B/s34KQMC68lUtPgMLwNaiKPpal0LACIAKZLhGP8CpHr2+WU43wMoNYJKABizAybmdxjceOsDQmiBq6ZEywM810yIR0jHAz788Ui+AOcCPDBWc+Go1wMp46A3zuDzA6p07xTvLK8Cx8tcYQebxP8YlKgpv3TPABuaxjLFcM8A75SFlQMc4wFCWzOGP8DrAkifEUm5WQcAiASvN67o1wIwVMtkC3zvAIP5hPlxmOMDo/sLsxrwxwDfIMrP8tSbA4eO7GKogQcAkbkSHsjMHwCOh1NtZrDvAYaQpmCFhGMClcp4/Ubg+wHEMqKoOEhTAyaJi3GsrJsDbY1QWbXM+wDI/gOIOQiLAcnWrduLSPMC7K3sbch0swDjKjAfVeELAih+5UzXeK8B+sIHOkTIWwOwdxUyKVUDAImAUDBNBOsBbw3FFEKA7wHwiVXBoJkLASmQhccykL8AXw4kXaLw3wDTDnLaGdiJAcFbRxMH6KcCITGFClRoFwKSiBW5UcDvABTH02LsoFUDIeqCtUP0VwO9au2sc20LAJX87rHzqJcBU7g19A6kwwLoJla2AV9u/UIMFRuFtQMBjZrDtS/k7wIT69e2D4wpAMfOT/9AwOcA=",
                "weights": "k05VTVBZAQB2AHsnZGVzY3InOiAnPGY4JywgJ2ZvcnRyYW5fb3JkZXInOiBGYWxzZSwgJ3NoYXBlJzogKDk5LCksIH0gICAgICAgICAgICAgICAgICAgICAgICAgICAgICAgICAgICAgICAgICAgICAgICAgICAgICAgICAgIApbv1Kg1q+EP1u/UqDWr4Q/W79SoNavhD9bv1Kg1q+EP1u/UqDWr4Q/W79SoNavhD9bv1Kg1q+EP1u/UqDWr4Q/W79SoNavhD9bv1Kg1q+EP1u/UqDWr4Q/W79SoNavhD9bv1Kg1q+EP1u/UqDWr4Q/W79SoNavhD9bv1Kg1q+EP1u/UqDWr4Q/W79SoNavhD9bv1Kg1q+EP1u/UqDWr4Q/W79SoNavhD9bv1Kg1q+EP1u/UqDWr4Q/W79SoNavhD9bv1Kg1q+EP1u/UqDWr4Q/W79SoNavhD9bv1Kg1q+EP1u/UqDWr4Q/W79SoNavhD9bv1Kg1q+EP1u/UqDWr4Q/W79SoNavhD9bv1Kg1q+EP1u/UqDWr4Q/W79SoNavhD9bv1Kg1q+EP1u/UqDWr4Q/W79SoNavhD9bv1Kg1q+EP1u/UqDWr4Q/W79SoNavhD9bv1Kg1q+EP1u/UqDWr4Q/W79SoNavhD9bv1Kg1q+EP1u/UqDWr4Q/W79SoNavhD9bv1Kg1q+EP1u/UqDWr4Q/W79SoNavhD9bv1Kg1q+EP1u/UqDWr4Q/W79SoNavhD9bv1Kg1q+EP1u/UqDWr4Q/W79SoNavhD9bv1Kg1q+EP1u/UqDWr4Q/W79SoNavhD9bv1Kg1q+EP1u/UqDWr4Q/W79SoNavhD9bv1Kg1q+EP1u/UqDWr4Q/W79SoNavhD9bv1Kg1q+EP1u/UqDWr4Q/W79SoNavhD9bv1Kg1q+EP1u/UqDWr4Q/W79SoNavhD9bv1Kg1q+EP1u/UqDWr4Q/W79SoNavhD9bv1Kg1q+EP1u/UqDWr4Q/W79SoNavhD9bv1Kg1q+EP1u/UqDWr4Q/W79SoNavhD9bv1Kg1q+EP1u/UqDWr4Q/W79SoNavhD9bv1Kg1q+EP1u/UqDWr4Q/W79SoNavhD9bv1Kg1q+EP1u/UqDWr4Q/W79SoNavhD9bv1Kg1q+EP1u/UqDWr4Q/W79SoNavhD9bv1Kg1q+EP1u/UqDWr4Q/W79SoNavhD9bv1Kg1q+EP1u/UqDWr4Q/W79SoNavhD8=",
                "bandwidth": 4.744176896502916
            },
            "phi_weights": "k05VTVBZAQB2AHsnZGVzY3InOiAnPGY4JywgJ2ZvcnRyYW5fb3JkZXInOiBGYWxzZSwgJ3NoYXBlJzogKDIwMCwpLCB9ICAgICAgICAgICAgICAgICAgICAgICAgICAgICAgICAgICAgICAgICAgICAgICAgICAgICAgICAgIAp7FK5H4Xp0P3sUrkfhenQ/exSuR+F6dD97FK5H4Xp0P3sUrkfhenQ/exSuR+F6dD97FK5H4Xp0P3sUrkfhenQ/exSuR+F6dD97FK5H4Xp0P3sUrkfhenQ/exSuR+F6dD97FK5H4Xp0P3sUrkfhenQ/exSuR+F6dD97FK5H4Xp0P3sUrkfhenQ/exSuR+F6dD97FK5H4Xp0P3sUrkfhenQ/exSuR+F6dD97FK5H4Xp0P3sUrkfhenQ/exSuR+F6dD97FK5H4Xp0P3sUrkfhenQ/exSuR+F6dD97FK5H4Xp0P3sUrkfhenQ/exSuR+F6dD97FK5H4Xp0P3sUrkfhenQ/exSuR+F6dD97FK5H4Xp0P3sUrkfhenQ/exSuR+F6dD97FK5H4Xp0P3sUrkfhenQ/exSuR+F6dD97FK5H4Xp0P3sUrkfhenQ/exSuR+F6dD97FK5H4Xp0P3sUrkfhenQ/exSuR+F6dD97FK5H4Xp0P3sUrkfhenQ/exSuR+F6dD97FK5H4Xp0P3sUrkfhenQ/exSuR+F6dD97FK5H4Xp0P3sUrkfhenQ/exSuR+F6dD97FK5H4Xp0P3sUrkfhenQ/exSuR+F6dD97FK5H4Xp0P3sUrkfhenQ/exSuR+F6dD97FK5H4Xp0P3sUrkfhenQ/exSuR+F6dD97FK5H4Xp0P3sUrkfhenQ/exSuR+F6dD97FK5H4Xp0P3sUrkfhenQ/exSuR+F6dD97FK5H4Xp0P3sUrkfhenQ/exSuR+F6dD97FK5H4Xp0P3sUrkfhenQ/exSuR+F6dD97FK5H4Xp0P3sUrkfhenQ/exSuR+F6dD97FK5H4Xp0P3sUrkfhenQ/exSuR+F6dD97FK5H4Xp0P3sUrkfhenQ/exSuR+F6dD97FK5H4Xp0P3sUrkfhenQ/exSuR+F6dD97FK5H4Xp0P3sUrkfhenQ/exSuR+F6dD97FK5H4Xp0P3sUrkfhenQ/exSuR+F6dD97FK5H4Xp0P3sUrkfhenQ/exSuR+F6dD97FK5H4Xp0P3sUrkfhenQ/exSuR+F6dD97FK5H4Xp0P3sUrkfhenQ/exSuR+F6dD97FK5H4Xp0P3sUrkfhenQ/exSuR+F6dD97FK5H4Xp0P3sUrkfhenQ/exSuR+F6dD97FK5H4Xp0P3sUrkfhenQ/exSuR+F6dD97FK5H4Xp0P3sUrkfhenQ/exSuR+F6dD97FK5H4Xp0P3sUrkfhenQ/exSuR+F6dD97FK5H4Xp0P3sUrkfhenQ/exSuR+F6dD97FK5H4Xp0P3sUrkfhenQ/exSuR+F6dD97FK5H4Xp0P3sUrkfhenQ/exSuR+F6dD97FK5H4Xp0P3sUrkfhenQ/exSuR+F6dD97FK5H4Xp0P3sUrkfhenQ/exSuR+F6dD97FK5H4Xp0P3sUrkfhenQ/exSuR+F6dD97FK5H4Xp0P3sUrkfhenQ/exSuR+F6dD97FK5H4Xp0P3sUrkfhenQ/exSuR+F6dD97FK5H4Xp0P3sUrkfhenQ/exSuR+F6dD97FK5H4Xp0P3sUrkfhenQ/exSuR+F6dD97FK5H4Xp0P3sUrkfhenQ/exSuR+F6dD97FK5H4Xp0P3sUrkfhenQ/exSuR+F6dD97FK5H4Xp0P3sUrkfhenQ/exSuR+F6dD97FK5H4Xp0P3sUrkfhenQ/exSuR+F6dD97FK5H4Xp0P3sUrkfhenQ/exSuR+F6dD97FK5H4Xp0P3sUrkfhenQ/exSuR+F6dD97FK5H4Xp0P3sUrkfhenQ/exSuR+F6dD97FK5H4Xp0P3sUrkfhenQ/exSuR+F6dD97FK5H4Xp0P3sUrkfhenQ/exSuR+F6dD97FK5H4Xp0P3sUrkfhenQ/exSuR+F6dD97FK5H4Xp0P3sUrkfhenQ/exSuR+F6dD97FK5H4Xp0P3sUrkfhenQ/exSuR+F6dD97FK5H4Xp0P3sUrkfhenQ/exSuR+F6dD97FK5H4Xp0P3sUrkfhenQ/exSuR+F6dD97FK5H4Xp0P3sUrkfhenQ/exSuR+F6dD97FK5H4Xp0P3sUrkfhenQ/exSuR+F6dD97FK5H4Xp0P3sUrkfhenQ/exSuR+F6dD97FK5H4Xp0P3sUrkfhenQ/"
        },
        "PCC-FCI": {
            "theta_kde": {
                "data": "k05VTVBZAQB2AHsnZGVzY3InOiAnPGY4JywgJ2ZvcnRyYW5fb3JkZXInOiBGYWxzZSwgJ3NoYXBlJzogKDk4LCksIH0gICAgICAgICAgICAgICAgICAgICAgICAgICAgICAgICAgICAgICAgICAgICAgICAgICAgICAgICAgIAoazWHAOfYEwElH7gS/GxFAYkUl5CPqD8BxPIBkjqURQFUTC+ZxHRhAn2JuCuCdE0B8GhixTkP2Pz6eFbcEgxVAnAyFi0RMDkCMFypDG9sQQH3IiUAdhhDAmXjo+nsWFUBslWJFXZsZQO72LI3odgdAxWcmacY4EUDwdu5NcuDYP1OzYARtrxFABL90rXtz+D80xB9xar4VQGxgHU+9u/o/HHchaotTFUCYgvuLaPjqP9aFFIdcXxBAxsHc9BLuEEBDKYIPOiwXQMxpILg0bghAxgCNUNoJHkCkyZ++T7YHQOxfik2JRgnA6L+oifugHECQo0f4tVHgv2dptjeNIBNA9/YADQDtF0BCbNhplA4XQOjOcsajbgFAuWwgPJezt7+arFCqmcoHwIyrEcepkPA/k4ha4huEF0AWxWXt0HYWQKOeLUukNhVAStxAXZ0mAEA28q80kGMPQOjJBtxiFAtAXg9N9kqQBMCydMRQqPoSQK4LTN52YBlALaEZBjYeG0AnZ72ZIUcZQOilU4Gw8/S/11awbKOHEEDjW8gpbXEVQAh0qqLiA/y/U+6lJ70YGEBhnyXAy80dQHP9WYqT+BpAXBfmtgcd+j/+2EfKcGsaQAhFv59WUvI/ooFuVpomDEBorUyEmCEFQGyUZrLTZg9AHIf9W70l9D/I65niRC7hPxGk1NI9zhFAbnWZUpGyE8B8I4uUK+H7P/fgTTGUtRBABlnDrDM/DcAEZFlq1F8RQFmDNKx4YhNAsRZNslYZEUCu0+qZpW0dQKjY1wMREPQ/D0QSh/g9FEDwVLnVTaHcvwDmBHGjRd8/obAEHQpxGEAfLxlFeCARQJ5JrYhA8BxAkJLykWSd/D+ibvhVyAQVQMZVPDa34gxAIMstW5gDB0DM0B05PpcZQMxoep0+Pvi/bviH8x9pBUBYaOe4dpQHQGwnFUjskgxA2fhP11JbGUDif4RCuWYIQNxwrSCdDRBAVo35T3LbEMCcu6d7vEgXQKHb6lTdMhNARC7OUXkIDEBO78IikRAaQL7RO3q94RRA",
                "weights": "k05VTVBZAQB2AHsnZGVzY3InOiAnPGY4JywgJ2ZvcnRyYW5fb3JkZXInOiBGYWxzZSwgJ3NoYXBlJzogKDk4LCksIH0gICAgICAgICAgICAgICAgICAgICAgICAgICAgICAgICAgICAgICAgICAgICAgICAgICAgICAgICAgIAo5BS+n4OWEPzkFL6fg5YQ/OQUvp+DlhD85BS+n4OWEPzkFL6fg5YQ/OQUvp+DlhD85BS+n4OWEPzkFL6fg5YQ/OQUvp+DlhD85BS+n4OWEPzkFL6fg5YQ/OQUvp+DlhD85BS+n4OWEPzkFL6fg5YQ/OQUvp+DlhD85BS+n4OWEPzkFL6fg5YQ/OQUvp+DlhD85BS+n4OWEPzkFL6fg5YQ/OQUvp+DlhD85BS+n4OWEPzkFL6fg5YQ/OQUvp+DlhD85BS+n4OWEPzkFL6fg5YQ/OQUvp+DlhD85BS+n4OWEPzkFL6fg5YQ/OQUvp+DlhD85BS+n4OWEPzkFL6fg5YQ/OQUvp+DlhD85BS+n4OWEPzkFL6fg5YQ/OQUvp+DlhD85BS+n4OWEPzkFL6fg5YQ/OQUvp+DlhD85BS+n4OWEPzkFL6fg5YQ/OQUvp+DlhD85BS+n4OWEPzkFL6fg5YQ/OQUvp+DlhD85BS+n4OWEPzkFL6fg5YQ/OQUvp+DlhD85BS+n4OWEPzkFL6fg5YQ/OQUvp+DlhD85BS+n4OWEPzkFL6fg5YQ/OQUvp+DlhD85BS+n4OWEPzkFL6fg5YQ/OQUvp+DlhD85BS+n4OWEPzkFL6fg5YQ/OQUvp+DlhD85BS+n4OWEPzkFL6fg5YQ/OQUvp+DlhD85BS+n4OWEPzkFL6fg5YQ/OQUvp+DlhD85BS+n4OWEPzkFL6fg5YQ/OQUvp+DlhD85BS+n4OWEPzkFL6fg5YQ/OQUvp+DlhD85BS+n4OWEPzkFL6fg5YQ/OQUvp+DlhD85BS+n4OWEPzkFL6fg5YQ/OQUvp+DlhD85BS+n4OWEPzkFL6fg5YQ/OQUvp+DlhD85BS+n4OWEPzkFL6fg5YQ/OQUvp+DlhD85BS+n4OWEPzkFL6fg5YQ/OQUvp+DlhD85BS+n4OWEPzkFL6fg5YQ/OQUvp+DlhD85BS+n4OWEPzkFL6fg5YQ/OQUvp+DlhD85BS+n4OWEPzkFL6fg5YQ/OQUvp+DlhD85BS+n4OWEPzkFL6fg5YQ/",
                "bandwidth": 1.2875566550934474
            },
            "theta_weights": "k05VTVBZAQB2AHsnZGVzY3InOiAnPGY4JywgJ2ZvcnRyYW5fb3JkZXInOiBGYWxzZSwgJ3NoYXBlJzogKDIwMCwpLCB9ICAgICAgICAgICAgICAgICAgICAgICAgICAgICAgICAgICAgICAgICAgICAgICAgICAgICAgICAgIAp7FK5H4Xp0P3sUrkfhenQ/exSuR+F6dD97FK5H4Xp0P3sUrkfhenQ/exSuR+F6dD97FK5H4Xp0P3sUrkfhenQ/exSuR+F6dD97FK5H4Xp0P3sUrkfhenQ/exSuR+F6dD97FK5H4Xp0P3sUrkfhenQ/exSuR+F6dD97FK5H4Xp0P3sUrkfhenQ/exSuR+F6dD97FK5H4Xp0P3sUrkfhenQ/exSuR+F6dD97FK5H4Xp0P3sUrkfhenQ/exSuR+F6dD97FK5H4Xp0P3sUrkfhenQ/exSuR+F6dD97FK5H4Xp0P3sUrkfhenQ/exSuR+F6dD97FK5H4Xp0P3sUrkfhenQ/exSuR+F6dD97FK5H4Xp0P3sUrkfhenQ/exSuR+F6dD97FK5H4Xp0P3sUrkfhenQ/exSuR+F6dD97FK5H4Xp0P3sUrkfhenQ/exSuR+F6dD97FK5H4Xp0P3sUrkfhenQ/exSuR+F6dD97FK5H4Xp0P3sUrkfhenQ/exSuR+F6dD97FK5H4Xp0P3sUrkfhenQ/exSuR+F6dD97FK5H4Xp0P3sUrkfhenQ/exSuR+F6dD97FK5H4Xp0P3sUrkfhenQ/exSuR+F6dD97FK5H4Xp0P3sUrkfhenQ/exSuR+F6dD97FK5H4Xp0P3sUrkfhenQ/exSuR+F6dD97FK5H4Xp0P3sUrkfhenQ/exSuR+F6dD97FK5H4Xp0P3sUrkfhenQ/exSuR+F6dD97FK5H4Xp0P3sUrkfhenQ/exSuR+F6dD97FK5H4Xp0P3sUrkfhenQ/exSuR+F6dD97FK5H4Xp0P3sUrkfhenQ/exSuR+F6dD97FK5H4Xp0P3sUrkfhenQ/exSuR+F6dD97FK5H4Xp0P3sUrkfhenQ/exSuR+F6dD97FK5H4Xp0P3sUrkfhenQ/exSuR+F6dD97FK5H4Xp0P3sUrkfhenQ/exSuR+F6dD97FK5H4Xp0P3sUrkfhenQ/exSuR+F6dD97FK5H4Xp0P3sUrkfhenQ/exSuR+F6dD97FK5H4Xp0P3sUrkfhenQ/exSuR+F6dD97FK5H4Xp0P3sUrkfhenQ/exSuR+F6dD97FK5H4Xp0P3sUrkfhenQ/exSuR+F6dD97FK5H4Xp0P3sUrkfhenQ/exSuR+F6dD97FK5H4Xp0P3sUrkfhenQ/exSuR+F6dD97FK5H4Xp0P3sUrkfhenQ/exSuR+F6dD97FK5H4Xp0P3sUrkfhenQ/exSuR+F6dD97FK5H4Xp0P3sUrkfhenQ/exSuR+F6dD97FK5H4Xp0P3sUrkfhenQ/exSuR+F6dD97FK5H4Xp0P3sUrkfhenQ/exSuR+F6dD97FK5H4Xp0P3sUrkfhenQ/exSuR+F6dD97FK5H4Xp0P3sUrkfhenQ/exSuR+F6dD97FK5H4Xp0P3sUrkfhenQ/exSuR+F6dD97FK5H4Xp0P3sUrkfhenQ/exSuR+F6dD97FK5H4Xp0P3sUrkfhenQ/exSuR+F6dD97FK5H4Xp0P3sUrkfhenQ/exSuR+F6dD97FK5H4Xp0P3sUrkfhenQ/exSuR+F6dD97FK5H4Xp0P3sUrkfhenQ/exSuR+F6dD97FK5H4Xp0P3sUrkfhenQ/exSuR+F6dD97FK5H4Xp0P3sUrkfhenQ/exSuR+F6dD97FK5H4Xp0P3sUrkfhenQ/exSuR+F6dD97FK5H4Xp0P3sUrkfhenQ/exSuR+F6dD97FK5H4Xp0P3sUrkfhenQ/exSuR+F6dD97FK5H4Xp0P3sUrkfhenQ/exSuR+F6dD97FK5H4Xp0P3sUrkfhenQ/exSuR+F6dD97FK5H4Xp0P3sUrkfhenQ/exSuR+F6dD97FK5H4Xp0P3sUrkfhenQ/exSuR+F6dD97FK5H4Xp0P3sUrkfhenQ/exSuR+F6dD97FK5H4Xp0P3sUrkfhenQ/exSuR+F6dD97FK5H4Xp0P3sUrkfhenQ/exSuR+F6dD97FK5H4Xp0P3sUrkfhenQ/exSuR+F6dD97FK5H4Xp0P3sUrkfhenQ/exSuR+F6dD97FK5H4Xp0P3sUrkfhenQ/exSuR+F6dD97FK5H4Xp0P3sUrkfhenQ/exSuR+F6dD97FK5H4Xp0P3sUrkfhenQ/",
            "phi_kde": {
                "data": "k05VTVBZAQB2AHsnZGVzY3InOiAnPGY4JywgJ2ZvcnRyYW5fb3JkZXInOiBGYWxzZSwgJ3NoYXBlJzogKDEwMiwpLCB9ICAgICAgICAgICAgICAgICAgICAgICAgICAgICAgICAgICAgICAgICAgICAgICAgICAgICAgICAgIApDDoBomeQvQG7jaO5p4ytAlQgxSpe9KkBUmOfi3rQhQMRDOQYBByVAGnp9DLynLkDk5WhFDLwiQFrkepXVXx5AfMonj6T5JkDvuqU9JT0gQECG4YTYFidA1oGTGq6YI0BqjlADZ64eQJmkIhE+uSJAuNxQBSa4LUAjg+Sn5LkjQCAlGbBLkCRAcCNc00wyJ0C1Y93xt9csQFLPzpODuitA3mx/sImOIUBUjh84v3EqQD/tHL7AsCBAbmGi+d97LEDFVovJEn8uQBHV+/wWLR9AvmGcHjmQIEDK8bsUyZgjQNCJV3VtvS1A4zqshH0aLEBS22KSvc4gQKx6Z4GKuSdAKdi90867J0BQ8ip4l7AhQJzQZAxXKyZAHe50XkHkI0BtYPzgBQcmQNb660EO7i9AzX9tmv+bI0Dg/erosBogQJZVVf/y6iVAAYQN4h9CJkBIxPC8VSUiQE6UwJ3mazFAtO/d9bWJNUCEa0SPDfoyQMrhhmhzlyFA3iO1jeCOJEAsovsumiwyQEi1Rt4ytCpAWdF6TRizJUAtZeVsYIImQB79ai7d0B9AxYIirF5jKUC6yquh4AQgQBO6eoG5MCpAS5pHw67zKUC6mDYex/8fQAqC96u17SFAcVbABEzuK0B1USMcSLoqQPDqLJIECDJAYbMyUDY3LUC6dyLpx5AgQDrgAh4iQyBAn2Y8HsNtKUAzoyqMsYIrQOxCm8zY8SVAxwflLdtvJ0CMeuN6NZAhQNyMFC5jCzBAOHOUFV78MUD3vOMxdHgjQMs/XjIBxidAUhIb5GzOMkDTrhz9CyEoQAK2R8PbYCVAVhUtHo4WIUAAuTNdD3knQFAgxflZsiBAfgtDkvupIEClPqVuGIYkQOB8XyeeRjBAjz62BkyAJ0CN0+Z3VNonQCKBOEnAcSdAKJXME7vIK0CKoW9QFM0nQIxYikGwPiFAyI+2tMHIIUDIvZJnglcoQNktjAOKDyNATVpZ66a0LUAmOmifQqgnQPtFL/HOXDJA7p0oQyVQIEBFGlAhIbYkQMApV2LptTFAslsRLZiILUCVVrd41HUqQP9XSkYxfyNAETwrH92KIEA=",
                "weights": "k05VTVBZAQB2AHsnZGVzY3InOiAnPGY4JywgJ2ZvcnRyYW5fb3JkZXInOiBGYWxzZSwgJ3NoYXBlJzogKDEwMiwpLCB9ICAgICAgICAgICAgICAgICAgICAgICAgICAgICAgICAgICAgICAgICAgICAgICAgICAgICAgICAgIAoUFBQUFBSEPxQUFBQUFIQ/FBQUFBQUhD8UFBQUFBSEPxQUFBQUFIQ/FBQUFBQUhD8UFBQUFBSEPxQUFBQUFIQ/FBQUFBQUhD8UFBQUFBSEPxQUFBQUFIQ/FBQUFBQUhD8UFBQUFBSEPxQUFBQUFIQ/FBQUFBQUhD8UFBQUFBSEPxQUFBQUFIQ/FBQUFBQUhD8UFBQUFBSEPxQUFBQUFIQ/FBQUFBQUhD8UFBQUFBSEPxQUFBQUFIQ/FBQUFBQUhD8UFBQUFBSEPxQUFBQUFIQ/FBQUFBQUhD8UFBQUFBSEPxQUFBQUFIQ/FBQUFBQUhD8UFBQUFBSEPxQUFBQUFIQ/FBQUFBQUhD8UFBQUFBSEPxQUFBQUFIQ/FBQUFBQUhD8UFBQUFBSEPxQUFBQUFIQ/FBQUFBQUhD8UFBQUFBSEPxQUFBQUFIQ/FBQUFBQUhD8UFBQUFBSEPxQUFBQUFIQ/FBQUFBQUhD8UFBQUFBSEPxQUFBQUFIQ/FBQUFBQUhD8UFBQUFBSEPxQUFBQUFIQ/FBQUFBQUhD8UFBQUFBSEPxQUFBQUFIQ/FBQUFBQUhD8UFBQUFBSEPxQUFBQUFIQ/FBQUFBQUhD8UFBQUFBSEPxQUFBQUFIQ/FBQUFBQUhD8UFBQUFBSEPxQUFBQUFIQ/FBQUFBQUhD8UFBQUFBSEPxQUFBQUFIQ/FBQUFBQUhD8UFBQUFBSEPxQUFBQUFIQ/FBQUFBQUhD8UFBQUFBSEPxQUFBQUFIQ/FBQUFBQUhD8UFBQUFBSEPxQUFBQUFIQ/FBQUFBQUhD8UFBQUFBSEPxQUFBQUFIQ/FBQUFBQUhD8UFBQUFBSEPxQUFBQUFIQ/FBQUFBQUhD8UFBQUFBSEPxQUFBQUFIQ/FBQUFBQUhD8UFBQUFBSEPxQUFBQUFIQ/FBQUFBQUhD8UFBQUFBSEPxQUFBQUFIQ/FBQUFBQUhD8UFBQUFBSEPxQUFBQUFIQ/FBQUFBQUhD8UFBQUFBSEPxQUFBQUFIQ/FBQUFBQUhD8UFBQUFBSEPxQUFBQUFIQ/FBQUFBQUhD8UFBQUFBSEPxQUFBQUFIQ/FBQUFBQUhD8=",
                "bandwidth": 1.3178153952262166
            },
